,
.
die
der
und
in
zu
den
von
ist
für
mit
das
auf
des
eine
Sie
im
nicht
werden
es
ein
dass
dem
sich
Die
wir
auch
sind
-
an
wird
(
)
als
um
ich
oder
:
haben
über
&quot;
einer
hat
sie
wie
einen
zur
Das
aus
bei
Ich
können
er
einem
nach
-@@
zum
Wir
diese
nur
uns
durch
kann
Der
!
dieser
so
Es
vor
daß
Kommission
noch
wurde
aber
Herr
wenn
am
sein
sehr
müssen
/
?
ver@@
In
er@@
diesem
man
a
was
alle
mehr
Union
–
Europäischen
ten
te
bis
war
möchte
eines
vom
an@@
ihre
Präsident
de
en
gibt
sowie
dieses
unter
Hotel
s
un@@
k@@
ab@@
en@@
hier
&apos;
zwischen
“
muss
Bericht
keine
unsere
B@@
Parlament
Ihnen
ein@@
Ver@@
t
„
...
S@@
K@@
anderen
t@@
s@@
Mitgliedstaaten
Wenn
T@@
ge@@
e
Europa
immer
the
dann
ung
Im
aus@@
P@@
An@@
dies
;
H@@
diesen
gegen
da
damit
wurden
Diese
Frau
G@@
Zeit
sch@@
z@@
Ihre
unserer
habe
o
Ab@@
f@@
seine
jedoch
D@@
and
sondern
F@@
Europäische
neue
auf@@
Menschen
heute
M@@
L@@
ungen
Jahr
bereits
europäischen
vor@@
finden
sollte
mich
ihrer
Jahren
neuen
EU
zu@@
%
ohne
ungs@@
W@@
andere
d@@
Sch@@
denen
n@@
Rat
2
zwei
E@@
sollten
ent@@
Entwicklung
R@@
Frage
A@@
gen
Ein@@
m@@
machen
ganz
C@@
allen
bietet
b@@
g@@
geht
in@@
N@@
st@@
Mit
liegt
viele
Aus@@
ch@@
Ein
sten
al@@
Unternehmen
Welt
of
dazu
l@@
ter
1
weil
über@@
jetzt
to
wieder
enden
el@@
denn
be@@
seiner
ischen
darauf
Informationen
Lage
Bereich
p@@
einige
Maßnahmen
Vor@@
dafür
schon
selbst
ische
e@@
Er@@
m
el
V@@
ihren
Jahre
ihr
geben
Herrn
ern
ob
Dies
um@@
Arbeit
Eine
viel
allem
ab
i@@
würde
meine
mir
bin
liche
3
sagen
wollen
unseren
on
ge
gut
ar@@
Für
es@@
Land
Z@@
Und
stehen
kommen
während
etwas
ende
or@@
&#93;
Zimmer
stellen
wo
Länder
lassen
&#91;
Wie
nun
o@@
möglich
u@@
doch
waren
h@@
O@@
seit
insbesondere
ens
lichen
v@@
sehen
is
erhalten
di@@
r@@
Unterstützung
lich
steht
Rahmen
J@@
ersten
i
a@@
also
Ländern
eren
as
Zusammenarbeit
Parlaments
Teil
beim
d
besteht
politischen
St@@
tes
Vorschlag
soll
le
Fall
einfach
em
tun
Bei
l
Stadt
wichtig
seinen
Fragen
I@@
deren
einmal
wäre
Ziel
drei
Problem
letzten
on@@
Namen
et
5
dabei
et@@
li@@
Bürger
j@@
Kollegen
4
große
großen
bringen
Art
worden
Daten
Recht
Auf
Verfügung
weiter
y@@
de@@
Er
Ihr
ste
.@@
ale
Bedeutung
welche
unter@@
Seite
Was
Aber
w@@
Sicherheit
Auch
Möglichkeit
wissen
du
eigenen
gehen
k
bieten
Nach
Regierung
at
Als
re@@
ert
Un@@
muß
at@@
g
10
n
Thema
könnte
davon
ä@@
Probleme
&amp;
daher
In@@
EU-@@
darüber
kein
st
chen
alles
Staaten
weitere
befindet
führen
Weise
Kommissar
aller
Kunden
sowohl
Politik
Ihrer
erreichen
ti@@
besonders
Ende
hatte
meiner
ja
Zukunft
wirklich
unterstützen
Beispiel
unser
stellt
ihnen
natürlich
entfernt
innerhalb
verschiedenen
ere
si@@
vielen
gegenüber
zi@@
USA
bar
Richtlinie
Rolle
end
System
internationalen
Auf@@
Weg
möchten
la
kommt
ur@@
zwar
isch
Ihren
ins
Frauen
europäische
ene
am@@
ts
ger@@
dort
direkt
politische
Seiten
enen
Tag
all
erste
ter@@
�
ie
ers
Hier
Alle
Um
c@@
U@@
sen
gen@@
y
z
che
al
Programm
Meinung
Artikel
ro@@
ri@@
Euro
The
Über@@
or
I
nehmen
sk@@
A
Uhr
Lösung
beiden
em@@
3@@
unserem
is@@
Al@@
arbeiten
ak@@
se
Fraktion
Situation
Dieses
gesagt
Zusammenhang
e-@@
ieren
ch
ber@@
2009
au@@
Hilfe
gel@@
weniger
eg@@
sp@@
Produkte
th@@
6
f
be
Präsidentin
op@@
ü@@
Mittel
pro
ag@@
elle
iert
Arbeits@@
jeder
cht@@
Deshalb
ens@@
ei@@
30
bitte
gilt
Leben
daran
20
-S@@
Sp@@
So
schaffen
etwa
sogar
Region
bzw.
halten
Be@@
schen
Grund
Haus
Unter@@
der@@
Millionen
gemacht
hinaus
dessen
Europas
indem
erte
it@@
Schutz
macht
Hotels
ar
nämlich
os
will
nen
Unsere
Dieser
Haupt@@
ser@@
alen
ebenfalls
Kinder
ihn
einigen
ellen
Um@@
seinem
brauchen
unterstützt
chten
gute
ihm
sicher
eln
darf
Deutschland
Aussprache
ger
setzen
Punkt
ö@@
wei@@
Personen
darin
Qualität
ra@@
Rates
r
politik
öffentlichen
Finanz@@
ischer
dürfen
gerade
glaube
Zu@@
us
meisten
nationalen
le@@
us@@
Form
Abstimmung
genau
Wirtschaft
jeden
it
nichts
keinen
licher
tischen
ihrem
Da
sollen
alten
Gemeinschaft
cht
Rechte
Kon@@
handelt
weiterhin
4@@
zurück@@
ol@@
zusammen
klar
bi@@
7
betrifft
Ebene
ni@@
erten
Grund@@
her@@
Ort
ben
ß@@
tige
2010
bedeutet
rei@@
eb@@
wichtige
findet
nach@@
Bezug
tigen
zen
statt
ad@@
würden
weit
nutzen
ten@@
ke
for
bereich
solche
kon@@
besten
sei
Website
deshalb
besser
ation
führt
eten
gestellt
schnell
deutlich
recht
durch@@
&#124;
Zugang
aufgrund
ler
est@@
los
sprechen
gehört
Dank
Kosten
besch@@
Di@@
Gesellschaft
Richtung
2@@
15
Von
nächsten
erst
bekannt
8
S
end@@
Ansicht
allerdings
hin
Nähe
Markt
ul@@
Aus
Umsetzung
Menschenrechte
system
men
fen
Ziele
2008
é@@
50
ed@@
Rück@@
beispielsweise
hoffe
Vertrag
ken
Verantwortung
voll
Verfahren
Bedingungen
werde
liches
Rechts@@
gegeben
Ent@@
”
ung@@
Service
ek@@
China
notwendig
Ar@@
Durch
verwendet
lange
me
Anwendung
vielleicht
Mar@@
Interesse
Demokratie
per
Vorschläge
gemeinsamen
Haushalts@@
Ihrem
ziehen
kleinen
km
bel@@
Grundlage
Reihe
Daher
all@@
gesch@@
Re@@
as@@
ur
Herren
Gebiet
Geschichte
Internet
Möglichkeiten
erreicht
bleiben
wirtschaftlichen
Doch
x@@
Am
ck@@
ne
chte
5@@
len
sozialen
ationen
spielen
könnten
zeigt
Pro@@
a-@@
Debatte
Institutionen
Sicherheits@@
tische
wenig
ma@@
Version
X@@
hin@@
eh@@
T
oft
are
18@@
Y@@
Strategie
verschiedene
erung
lo@@
verfügt
ete
är@@
b
’
liegen
leben
ber
u
Auswirkungen
Damen
ermöglicht
Minuten
vier
gemeinsame
fast
Dienstleistungen
unternehmen
EN
weltweit
Berichterstatter
tern
Abkommen
helfen
Wirtschafts@@
Man
danken
den@@
hatten
lichkeit
Software
je
lei@@
erforderlich
ot@@
Zu
Verhandlungen
Hinblick
Mitglieder
C
x
bei@@
wegen
Tatsache
Regionen
bereit
gesamten
Wasser@@
au
Geschäfts@@
ebenso
*
einzelnen
Außerdem
geb@@
Restaurant
entwickelt
Gruppe
bare
Liste
Li@@
dar
Schritt
ier@@
denke
gi@@
weiteren
ts@@
Kolleginnen
darum
internationale
gebracht
aten
Bau@@
ges
100
fragen
Ergebnis
tiger
Entscheidung
cher
Zentrum
lässt
hätte
jedem
Bereichen
E
konnte
om@@
ut@@
Änderungsanträge
Vereinigten
Antwort
legen
befinden
Umwelt@@
2007
Ma@@
Änderungsantrag
Krise
zeit
Beziehungen
gleichen
tragen
ir@@
Blick
Erfolg
stand
auszu@@
wer@@
-B@@
qu@@
geführt
Bevölkerung
di
gleichzeitig
gab
fahren
wichtigen
6@@
gemeinsam
weiß
ell
12
Mo@@
jede
zeigen
mal
000
Seit
ko@@
Neu@@
Preis
Ausdruck
Abgeordneten
00
heißt
B
bekommen
eller
Geld
Unser
Aufgabe
ster
bleibt
Platz
tr@@
ing@@
kleine
Türkei
tig
z.B.
Verbindung
wohl
2000
verbunden
19@@
ender
sche
Einsatz
Kontrolle
meinen
Mal
7@@
one
Zum
hei@@
Förderung
mit@@
baren
unseres
gestimmt
enthalten
9
Rei@@
ap@@
Verordnung
ati@@
gern
kl@@
Projekt
+
dern
Ge@@
vi@@
que
Forschung
sen@@
Jahres
ent
tieren
neu
Lösungen
Damit
Bo@@
D
jedes
_
Erweiterung
Behörden
Entschließung
richtig
wichtigsten
8@@
Bitte
än@@
hotel
gerne
gt
tiert
Beitrag
mehrere
Nutzung
rund
gleich
Nach@@
ations@@
Ausschuss
Ro@@
en-@@
hinsichtlich
2006
eigene
enthält
zurück
O
Russland
Ex@@
versch@@
ing
ganze
la@@
ganzen
Steuer@@
land
ze
ermöglichen
ach@@
derzeit
un
25
ell@@
ierung
Verbesserung
wobei
Landes
neben
anzu@@
Vor
genommen
and@@
Ausschusses
ker
pf@@
Markt@@
Par@@
ru@@
ausge@@
Mon@@
ges@@
Verbraucher
mi@@
Ergebnisse
p
einzu@@
9@@
Gelegenheit
Welt@@
völlig
im@@
Angebot
se@@
ne@@
Wort
Schaffung
enten
verbessern
Woche
Her@@
fest@@
Darüber
Bi@@
wirtschaftliche
Verwendung
Regierungen
fördern
entwickeln
großer
anderer
verwenden
verfügen
isches
guten
with
suchen
gehören
Mitarbeiter
ange@@
Inter@@
ändern
h
P
Interessen
ente
soziale
nimmt
bestehen
fünf
später
Notwendigkeit
tung
ff@@
Partner
ierte
zusammen@@
Wert
ate
Familie
Zeitpunkt
Themen
Bild
sorgen
Änderungen
tionen
Frankreich
zunächst
weise
En@@
meinem
tatsächlich
Text
ah@@
enn@@
fest
ob@@
Erfahrung
eri@@
Während
Gesundheit
Tage
Spiel@@
sh@@
verfahren
sti@@
Auswahl
angenommen
Herzen
schaft
Kultur
mo@@
to@@
det
enk@@
Dabei
il@@
Umgebung
wi@@
Anfang
Person
gest@@
schriftlich
Sozial@@
treffen
gleich@@
verstehen
Ch@@
weiter@@
lediglich
form@@
hohen
Wei@@
so@@
bisher
programm
bet@@
Fahr@@
äußerst
Mitglied
ok@@
Einführung
Ri@@
ac@@
heit
gesamte
40
Kampf
ner
Qu@@
und@@
®
Anzahl
tz@@
Aktivitäten
ant
Juni
c
somit
ef@@
Umwelt
Initiative
eben
bringt
Meer
re
nie
Mai
ant@@
Wachstum
gewährleisten
é
bestimmte
Land@@
Wahl
cken
Fach@@
Prozess
Sprache
t-@@
gemäß
versuchen
Gäste
Th@@
stark
F
2005
Lebens@@
obwohl
ine
gesetzt
Wasser
scheint
fordern
Produktion
Mit@@
Programme
ern@@
lang
best@@
lage
bestimmten
man@@
Dinge
Zahl
Kommissarin
halte
oren
Fortschritte
zahlreiche
Raum
Preise
by
Bekämpfung
ierten
ßen
zweite
Erachtens
September
L
Daten@@
Insel
hi@@
Natur
hohe
leicht
meines
erster
Hand
ausgestattet
Funktion
Industrie
einschließlich
größten
möglichkeiten
gar
Spiel
systeme
außerdem
Hand@@
ess@@
Erklärung
Bestimmungen
ang@@
aufzu@@
Entwicklungs@@
M
solchen
innen
Einzel@@
sagte
Jahrhundert
dadurch
Stelle
weisen
insgesamt
führung
Co@@
Bar@@
à
1.
einzige
maßnahmen
lan@@
Dezember
vergangenen
geh@@
weder
2004
mein
enz@@
Hoch@@
frei
Integration
zweiten
Mehrheit
Handel
del
aufgenommen
Nur
teile
ft
abzu@@
Gewalt
0@@
Entscheidungen
Anforderungen
Investitionen
kt
Dialog
alt@@
leider
á@@
Punkte
Vorschriften
genießen
ären
ca.
sieht
Aufmerksamkeit
setzt
Stunden
Küche
Position
tik@@
Gästebewertungen
geschlossen
Frei@@
Pi@@
Gefahr
ka
hoch@@
US-@@
tet
Strand
leisten
mon@@
März
Kl@@
do
no@@
Projekte
ran@@
Grenzen
Bel@@
bezüglich
lung
ig@@
schließlich
Bei@@
Bereiche
bevor
Energie
Macht
Handels@@
Gr@@
lagen
tion@@
11
te@@
eingesetzt
..
Folgen
konnten
Freiheit
aktuellen
neuer
zehn
wenige
größte
er-@@
eigentlich
str@@
getan
Dis@@
Wettbewerb
kan@@
Regeln
fall
Man@@
Tri@@
ör@@
X
Landwirtschaft
mittel
Anfrage
wichtiger
entsprechend
her
benötigen
Beschäftigung
dar@@
2003
G
kosten
europäischer
durchgeführt
Meine
Team
14
Standpunkt
Präsidenten
kannst
Linie
18
Firma
Diskussion
Nationen
wählen
erwarten
Bildung
Höhe
Oktober
voll@@
ben@@
ette
Ru@@
Frühstück
genannten
gefunden
ep@@
.com
Januar
aler
kurz
Po@@
inter@@
werk
allein
zwei@@
dung
elt
war@@
Web@@
Heute
Gemeinschafts@@
ihres
Berichts
sch
Zur
ales
angesichts
alität
verb@@
Gu@@
alte
eher
Or@@
min@@
Fehler
af@@
Groß@@
Transparenz
10@@
Gründen
bau@@
E-@@
sofort
Kur@@
ei
Bar
chen@@
16
öffentliche
Flug@@
Bemühungen
ina
gelten
Sache
erneut
Sinne
begrüße
platz
24
Ansatz
Öffentlichkeit
bo@@
Schlusselwortern
Du
Präsidentschaft
Auffassung
R
zei@@
teilen
Musik
endlich
GmbH
fallen
cher@@
…
nahe
geworden
ra
La
beitragen
1@@
Server
K
Mor@@
entsprechenden
An
morgen
»
weg
tra@@
Bilder
Flughafen
fe
diejenigen
lernen
hält
leg@@
Kraft
Fällen
ches
Urlaub
Verkehrs@@
Fl@@
ed
ür@@
gung
ismus
verhindern
genden
ungsp@@
par@@
Natürlich
2001
po@@
behandelt
Hotel@@
Dateien
Monaten
les
ci@@
hätten
Gen@@
Druck
paar
freien
ation@@
Organisation
els
tisch
Design
Juli
volle
P-@@
erfolgt
oben
Bürgern
AG
da@@
bau
berücksichtigt
Tagesordnung
richtige
Atmosphäre
€
Tagen
Behandlung
gew@@
ien
very
Selbst@@
vergessen
Tat
tungs@@
stimmen
Gesundheits@@
Kar@@
wieder@@
ER@@
Kinder@@
warum
ec@@
tions@@
erk@@
besondere
lesen
anderem
hinter
Sport@@
versucht
60
Restaurants
hoch
s-@@
modernen
November
Bürgerinnen
d-@@
ou@@
vertreten
ex@@
tiges
Änderung
zahlen
for@@
Berlin
Ko@@
folgen
deutschen
Kultur@@
technischen
überhaupt
est
Sicht
Lissabon
S-@@
sektor
Lassen
schließen
lin@@
Italien
frage
Unter
onen
verantwortlich
historischen
zer@@
Republik
Viele
treten
ort
Beginn
Ressourcen
gesehen
Nr.
erklärt
alt
ech@@
Se@@
barkeit
Aufenthalt
Basis
Le@@
häufig
Spanien
Vergangenheit
tigung
beste
lösen
gef@@
gabe
Finanzierung
Rechtsvorschriften
Natur@@
erfolgreich
Den
17@@
2002
April
Sk@@
vollständig
ana
gewesen
Staats@@
ß
N
bu@@
Konferenz
neues
Reform
zahlreichen
13
alisierung
erwartet
Stadt@@
Zweitens
rä@@
eu@@
Datei
anischen
erfüllen
Gesamt@@
Wahl@@
Bu@@
tre@@
jeweiligen
wahrscheinlich
Lu@@
äre
schi@@
Wochen
Technologie
scher
Gruppen
welches
Erfahrungen
War@@
braucht
ang
mu@@
B.
unten
Schritte
Information
geschaffen
frei@@
0
endes
Vertrauen
ses
zumindest
legt
Werte
ster@@
Luft@@
schützen
stets
fer@@
Inhalt
genug
ans
genutzt
Aspekte
ums
verpflichtet
Forschungs@@
außerhalb
Herausforderungen
sel@@
20@@
stelle
Lei@@
pro@@
ständig
hal@@
ha@@
folgt
Einige
Allerdings
kennen
pl@@
Systems
heutigen
Angelegenheit
denken
reichen
EUR
z.
Dazu
zeit@@
seines
privaten
amm@@
o-@@
amerikanischen
ie@@
Tra@@
&gt;
kam
hören
Benutzer
letzte
schaften
Kunden@@
gs
Kunst@@
persönlichen
enst@@
Mittel@@
Bad
Gebäude
bessere
Parteien
erlaubt
Wohn@@
Berichterstatterin
sa@@
Schwierigkeiten
Obwohl
per@@
Produkt@@
laufen
trotz
sechs
Staat
bilden
Besch@@
automatisch
Arbeitnehmer
ausschließlich
Hinsicht
gten
men@@
folgenden
Spieler
ren@@
Neben
vollen
ing-@@
av@@
Milliarden
ER
fort@@
schwer
Sonder@@
demokratischen
Dann
Ihres
lose
Si@@
verkehr
Windows
Folge
ia
einge@@
Einrichtung
Krieg
Vertreter
500
room
Wein@@
gekommen
Wer
entscheiden
Ger@@
übernehmen
ging
zudem
Angelegenheiten
Arbeitsplätze
moderne
Praxis
Prozent
New
Energi@@
Wunsch
Denn
erinnern
beide
í@@
Ak@@
ler@@
raum
Opfer
bewusst
200
Aufgaben
Ber@@
begrüßen
Solidarität
80
bitten
ma
deine
enz
wert
pp@@
ße
Ober@@
from
Falls
kaum
V
usw.
ca
allgemeinen
«
arbeit
Frieden
hr@@
erkennen
Preis@@
Organisationen
Armut
lau@@
offen
www.@@
1.@@
eng@@
ün@@
Annahme
Ni@@
falls
ph@@
Berg@@
freuen
gebiet
AN@@
Privat@@
Kor@@
Sti@@
Leute
Erstens
stärker
og@@
darstellt
Verfassung
ass@@
gem@@
größere
neu@@
vorgeschlagen
länder
benutzt
freie
EN@@
Nun
Systeme
br@@
mer@@
eindeutig
gelegen
Sitzung
Zusammen@@
Karte
you
danke
Con@@
su@@
v
Verpflichtungen
tigkeit
zusätzliche
ets
Anstrengungen
Mi@@
bald
wor@@
nationale
do@@
laden
Hause
rü@@
ons
oll@@
Wieder@@
gende
stell@@
Funktionen
Falle
chtung
rechte
West@@
w
stellung
ev@@
globalen
unbedingt
land@@
industrie
AR@@
Idee
Bundes@@
he
16@@
beginnen
Protokoll
zeiten
Sa@@
überzeugt
Kriterien
1999
Personal
Du@@
Zeit@@
schreiben
entspricht
ta@@
Partei
Produktions@@
rechts
fer
Wahlen
ck
Au@@
gesprochen
bes@@
tive
Zustimmung
aktuelle
wider@@
IN@@
mindestens
gleiche
Wann
anten
Vereinbarung
ator
Fest@@
Verwaltung
No@@
Reformen
senden
17
ssen
bar@@
Wel@@
gang
gezeigt
ann@@
vorgelegt
genannt
Osten
Informations@@
Terrorismus
unterschiedlichen
selbstverständlich
San
Ist
iger
Instrument
Online-@@
IT
Vorteile
Gipfel
tt@@
prozess
Ad@@
Außen@@
Car@@
Anerkennung
prüfen
entsprechende
ad
anders
zug
getroffen
glauben
igen
tig@@
dringend
ist@@
erwähnt
gend
Nord@@
Technologien
nisse
Stabilität
mer
IS@@
Mess@@
mehreren
ce
schutz
Haushalt
Binnenmarkt
wünschen
gerecht
sei@@
service
Produkten
Qualitäts@@
Park
Prä@@
verfügbar
Beg@@
co@@
15@@
vers@@
ho@@
Inhalte
ic@@
Besuch
Ausschuß
hand@@
y-@@
nahme
wesentlich
Kern@@
Zudem
tliche
gr@@
Por@@
ters
Produkt
berücksichtigen
mittel@@
beg@@
wer
mel@@
aufge@@
gh@@
hoffen
Ä@@
Schließlich
fi@@
erfahren
hinweisen
nachdem
ast@@
akzeptieren
digen
möglicherweise
Volk
kommenden
no
Zunächst
Tier@@
bestimmt
Paris
Mitteilung
Über
Durchführung
fahr@@
AT@@
heraus@@
tigt
ität
online
benutzen
aktiv
sicherzustellen
erzielt
amen
Am@@
bestehenden
langen
Homepage
tu@@
beh@@
Anwendungen
get@@
ST@@
gelegt
etten
mis@@
prä@@
besonderen
res@@
Augen
Unterkategorien
Sommer
richten
Schul@@
dienen
Nicht
Dar@@
TV
Medien
warten
technische
Su@@
siehe
Suche
kre@@
Einrichtungen
des@@
geändert
bedarf
Computer
trägt
unver@@
bil@@
euch
Wettbewerbsfähigkeit
Bild@@
umgesetzt
Sektor
Chance
ss@@
Nutzen
möglichen
arbeitet
­
Haltung
chts@@
Ta@@
Straße
finanziellen
notwendigen
dr@@
zuletzt
wenden
zentrum
Do@@
stre@@
Wer@@
pi@@
Zeichen
Einfluss
Monate
erungs@@
ES@@
Kontakt
achten
erfüllt
2.@@
E-Mail
stoffe
Ausbildung
anderes
La@@
festgelegt
losen
ergreifen
voller
vermeiden
klicken
eingerichtet
fahrt
ari@@
jene
=
beziehen
gu@@
stimme
du@@
For@@
jederzeit
Gra@@
De@@
alismus
Kindern
darunter
ig
hervor@@
markt
Ö@@
teil
Israel
70
Anspruch
verfolgen
ungs-
Vielfalt
lu@@
mar@@
reisen
bl@@
geeignet
wahr@@
UN@@
hen
tlich
außer
Site
Menge
jeweils
erhöhen
handeln
Kunst
angezeigt
Gel@@
nis
erzielen
übernachten
Bus@@
Schutz@@
Konzept
uss@@
sicherlich
ord@@
sicherheit
A-@@
tiv@@
AL@@
rück@@
Vertrags
gte
daten
lä@@
tungen
entschieden
welcher
At@@
ta
elles
uren
sor@@
Webseite
entweder
Schw@@
teilweise
gelangen
Leistungen
Meter
zer
ack@@
Familien
en-
funktioniert
äu@@
etc.
politischer
verbessert
besuchen
spricht
Fischerei@@
wären
spielt
anti@@
abge@@
Sal@@
Sprachen
teil@@
W
fällt
heiten
Abschließend
not
Instrumente
Bet@@
klare
ige
ade
Jetzt
alis@@
12@@
age
Tätigkeit
Stimme
Verwaltungs@@
sagt
erleben
lungen
Wege
Warum
richtigen
Kenntnis
Veränderungen
Vereinten
Schweiz
Cor@@
ser
IT@@
El@@
Ur@@
Management
Februar
Berichte
erungen
Lo@@
Leider
chtet
une
gebaut
Br@@
Abschluss
Arbeiten
Forderung
Gar@@
ti
Initiativen
kur@@
form
werte
Gesch@@
eter
stärken
erstellt
Modell
vorgesehen
we
speziell
fin@@
Durch@@
ausdrücklich
Mal@@
Chi@@
betonen
wollte
Familien@@
August
Vergleich
lichem
atische
dagegen
Tro@@
systems
Abgeordnete
Regelung
bek@@
19
Garten
schutz@@
Vielen
Ausgaben
informieren
Irak
Teile
ats
Zeiten
Adresse
AS@@
Engagement
90
möglichst
sm@@
durchaus
Vi@@
Besucher
beschlossen
gewinnen
I-@@
täglich
Herausforderung
ano
amp@@
Unternehmens@@
tion
Sh@@
Standards
up@@
assen
Dienste
Mitgliedstaat
Stand
-T@@
Best@@
lokalen
ehr@@
ordnung
vorhanden
app@@
essen
inen
ure
zentrale
wenigen
Internet@@
gefordert
ris@@
Angaben
Im@@
met@@
Ben@@
и@@
Per@@
bedingungen
Klicken
art
Zeitraum
Währung
that
14@@
son
links
konkrete
tw@@
tik
benötigt
ard
Großbritannien
gek@@
freue
dank
Komfort
Ziel@@
Op@@
me@@
Japan
Hauses
spiel@@
ener
trag@@
Pal@@
ologie
ft@@
finanzielle
EL@@
Menschenrechts@@
Mio.
21
Gebieten
angeboten
mü@@
konzentrieren
gewährleistet
reicht
starke
Jahrhunderts
führenden
veröffentlicht
Dennoch
fl@@
kulturellen
acht
darstellen
führte
erfolgen
sches
Beitritt
Wissen
Iran
chs
nächste
erscheint
Klein@@
Programms
Nachfolgend
entstehen
Herstellung
istischen
nt
Terrasse
Mitte
schl@@
schw@@
Werk@@
Worte
erklären
fordert
Einigung
Druck@@
Bürger@@
Antrag
ett@@
ou
erstellen
Zweifel
unabhängig
Ku@@
geschrieben
dennoch
Rede
tiven
betrachtet
Q@@
por@@
eck@@
tätig
schwierig
tere
Forderungen
So@@
Bank@@
unterschiedliche
Zweck
schönen
ungsan@@
Energie@@
ven
Kirche
gegründet
ori@@
Nor@@
eingehen
Voll@@
einiger
arten
London
Einhaltung
umfasst
positive
sionen
satz
fähigkeit
Stellungnahme
istische
Regel
Geld@@
Ski@@
schul@@
our
Analyse
gestalten
geschehen
Kan@@
diskutieren
Reg@@
Aufnahme
geleistet
22
tri@@
Sehenswürdigkeiten
Griechenland
Ü@@
programme
liebe
absolut
ve
Gegen@@
13@@
ver
gel
Gleichzeitig
kaufen
Zei@@
läuft
az@@
Achtung
Ukraine
ll@@
sage
Stellen
Fonds
RE@@
con@@
Texte
Tr@@
Abend
Österreich
Angesichts
folgende
lungs@@
dient
300
Vielzahl
äl@@
regionalen
Sorge
Not@@
Name
profitieren
glich
Kommunikation
haft
verfolgt
1,@@
Entwicklungen
Aspekt
Klima@@
Hintergrund
Fuß
Prioritäten
zw@@
Sehr
zung
überprüfen
garantiert
IC@@
Paket
Dokument
Ost@@
einander
Tre@@
Hersteller
fung
feststellen
Wi@@
Nieder@@
Arten
th
nung
Polen
Kat@@
esten
Arbeitslosigkeit
recht@@
Mark@@
verlassen
ländern
All@@
go@@
ban@@
tischer
cks
gruppe
weiterer
Partnerschaft
ow@@
Stärkung
Recht@@
ES
persönlich
stei@@
Stil
Rechnung
sichern
ände
Universität
Museum
Status
sion
rich@@
miteinander
Lin@@
bauen
Afrika
log@@
Musik@@
eigen@@
übrigen
mann
va
ausschuss
zimmer
gegenwärtig
bezeichnet
Indien
fonds
angesprochen
zeichnet
Mindest@@
Installation
Agrar@@
kosten@@
welt
Lesung
Villa
tem
lag@@
empfehlen
nah@@
eingeführt
Betrieb
Mag@@
Bedürfnisse
D-@@
Problemen
Gesetz
französischen
gegenwärtigen
weg@@
National@@
erter
Formen
Zwei@@
Dollar
hingewiesen
zeichen
were
Leistung
Gemeinsamen
Ja
Moment
Ideen
son@@
Irland
erhält
gutes
mm
Nacht
werke
AC@@
überall
haus
bre@@
demokratische
Aussch@@
Beschreibung
zufrieden
Grenz@@
groß
Titel
27
positiv
ino
einsetzen
Elemente
Richtlinien
Priorität
unterstütze
co
j
Überwachung
geschützt
Geb@@
danach
Ã
Ne@@
beginnt
komplett
$
tur@@
großes
Dem@@
emp@@
umfassende
Menschen@@
Auto
Geschäftsordnung
aufmerksam
enti@@
Banken
einfache
erg@@
U
keinerlei
Regelungen
mehr@@
erforderlichen
gezogen
Jeder
Fortschritt
größeren
Meiner
ausreichend
sta@@
führ@@
zen@@
besitzt
Fu@@
Bewertung
Anteil
Met@@
berg
haften
bestätigt
Film
spezielle
dig
sämtliche
wasser@@
beteiligt
vorliegenden
ften
Verhältnis
Märkte
Seine
stu@@
rat
See
erst@@
Kritik
länger
San@@
funktion@@
tier@@
mag
Liefer@@
dete
2.
Entwurf
pres@@
chs@@
ik
Größe
Innovation
ven@@
Prinzip
chter@@
he@@
werk@@
nennen
seite
vo@@
mittels
freiheit
Reise@@
ub@@
Beschäftigungs@@
ys
aren
Brüssel
Verpflichtung
Sinn
Tradition
sonst
verk@@
leistungs@@
rufen
lauf@@
internationaler
verbundenen
offensichtlich
hergestellt
garantieren
gelöst
Globalisierung
wunder@@
feld
è@@
uner@@
Maße
PC
23
Technik
System@@
Gas@@
Mitteln
Eing@@
deten
abkommen
Worten
kostenlos
35
starken
schöne
sicht@@
End@@
bt
schlagen
Treffen
Agentur
Pl@@
{
beinhaltet
stattfinden
lern
Unterkunft
gkeit
Eigen@@
Gründe
bekannten
echte
kom@@
erin
1998
zusätzlich
H
elten
Verkehr
mögliche
zählen
Monat
Umfang
übertragen
ideal
drei@@
äch@@
bin@@
Erklärungen
tsch@@
wal@@
International
Fotos
wesentlichen
pfen
wirken
stra@@
Niveau
britischen
zufolge
ek
Betriebs@@
chter
ms
Min@@
Beteiligung
betrachten
Nicht@@
üsse
Bank
Ges@@
plat@@
Jahres@@
Test@@
umwelt@@
Politiker
zuvor
solcher
nis@@
Gegensatz
verloren
gruppen
Risiken
He@@
steigen
entsprechen
Süd@@
far@@
Kom@@
Entschließungsantrag
Patienten
Europäer
Standard
Schlüssel@@
finde
dienst
greifen
relativ
Flexibilität
Kompromiss
speziellen
al-@@
setzung
To@@
Altstadt
Methode
Barcelona
gestellten
anische
Ho@@
glichen
-F@@
Reise
Aktionen
chung
fra@@
spor@@
Ereignisse
Eindruck
gehalten
Mitgliedern
gegangen
fte
Absatz
ee
Gi@@
anlagen
Booking.com
Anti@@
tlichen
ank@@
geöffnet
abgeschlossen
Weitere
jüngsten
tag@@
Aussicht
kraft
rechten
ständigen
rechtlichen
h.
Volks@@
00@@
manchmal
Aufbau
Links
Empfehlungen
d.
с@@
mäßig
nationaler
Verständnis
see
erhöht
ischem
schafts@@
Wirkung
Nachdem
Begriff
Beim
Erde
Gebiete
van
daraus
EC@@
Hei@@
Post@@
informiert
guter
-K@@
Bis
hauptsächlich
tim@@
stehenden
deutsche
lichkeiten
Tor@@
this
Öl@@
erfordert
fach@@
Realität
dliche
Innen
ali@@
Mann
Programm@@
Com@@
Botschaft
spiel
gei@@
19.
Bildungs@@
Anlagen
ore
ay@@
Hoffnung
Meeres@@
Kri@@
staatlichen
Risiko
gro@@
Ti@@
asse
CO@@
ton
Führung
Mis@@
zt
komm@@
Kraft@@
inn@@
fühlen
ideale
stadt
0er
beachten
ili@@
Grundsatz
bildung
berühmten
getragen
Nutzer
damals
wichtigste
ds
Inseln
dis@@
reich
allgemeine
legung
Club
sobald
Teilen
St.
gli@@
geschieht
Trans@@
stellte
produktion
sicher@@
Dr.
fälle
globale
siert
This
reise
einzigen
fall@@
Hel@@
ide@@
uli@@
hängt
Farb@@
Grunde
jungen
regelmäßig
nachhaltige
Fraktionen
tete
einverstanden
Beihilfen
Bedarf
Hinweis
trifft
Sprach@@
Gegenteil
Vom
Firmen
festgestellt
punkt
kt@@
ic
Hälfte
führer
ett
aden
Hauptstadt
Voraussetzungen
Vorteil
reden
Einkaufs@@
Ebenso
persönliche
Autom@@
Friedens@@
Gast@@
Win@@
Kal@@
gem
Plan@@
vorgeschlagenen
wür@@
wirtschaft
opp@@
mat@@
Zahlungs@@
Fisch@@
able
Agenda
ings
tor
but
Kredit@@
zugleich
betroffen
bewegen
Teil@@
Welche
staaten
Bestandteil
anst@@
entgegen@@
Super@@
Bal@@
Wettbewerbs@@
jährlich
iz@@
sprache
regeln
Städte
Kontroll@@
trag
produk@@
C-@@
vier@@
ó@@
unden
Infrastruktur
denk@@
gewählt
gs@@
Prüfung
schneller
traditionellen
York
Amsterdam
US@@
wodurch
entwicklung
il
praktisch
Veranstaltungen
erenden
anbieten
Option
в@@
ante
Internationalen
eiten
Landschaft
anz
All
Netz@@
betroffenen
tro@@
Klimaanlage
Tages@@
oni@@
politisch
mm@@
ative
Apartments
Zahlen
Mu@@
Schi@@
dige
Phase
Ruhe
Ausland
grün@@
mal@@
herzlich
Vertrags@@
spezi@@
räume
beschäftigt
ester
vorschlagen
berei@@
ehen
trä@@
Unabhängigkeit
Bl@@
angeht
}
Angebote
aum
Dienst
u.
Gesetzgebung
Erhöhung
Str@@
Gro@@
Gef@@
Tur@@
ersch@@
Atom@@
Zimmern
Y
II
Kosovo
Rad@@
früher
Doppel@@
vollkommen
Farben
weiteres
wagen
welchen
tende
World
Struktur
kürzlich
Haus@@
begann
Mö@@
zurückzu@@
Aufgrund
Trotz
besseren
eder
Center
Charakter
Überprüfung
digung
stand@@
Königreich
stoffen
Ratspräsident
Buch
woh@@
ecken
diskutiert
junge
einerseits
Liberalisierung
zählt
reagieren
aufen
Stadtzentrum
mor@@
Unternehmens
Holz@@
Laufe
tenden
Jo@@
Methoden
atischen
Verbraucher@@
lt
träge
have
ös@@
Services
fällen
Zi@@
Gästen
bezieht
Männer
LE@@
ks
fand
stes
Diskriminierung
Innen@@
liefern
fa@@
Bewegung
ut
ßt
Mat@@
Generation
spezifischen
stimmt
einzelne
abhängig
bedeut@@
Har@@
una
ungst@@
1-@@
Spezi@@
hafte
pa@@
ierungs@@
dlich
Mehr
Teilnehmer
spar@@
stri@@
Sei@@
Klimawandel
om
bereiche
gn@@
its
Grenze
san@@
lat@@
strategie
Fähigkeit
gliche
seh@@
agen
Liebe
Bas@@
Video
bequem
Licht
op
tierung
Netzwerk
Serie
Fälle
Industri@@
seitens
Koordinierung
а@@
schön
akzeptiert
Ordnung
öh@@
Dokumente
barer
bildet
Waren
international
Des@@
Reaktion
positiven
Tiere
mei@@
Westen
zes
tak@@
ase
45
20.
Gott
att@@
karte
betont
Anpassung
1997
tn@@
Fre@@
е@@
hilfe
spezifische
gewal@@
Unterschiede
ET@@
Militär@@
staff
sicherstellen
Versuch
Ju@@
Willen
private
Regierungs@@
ländlichen
Lehr@@
esen
Kombination
Gefühl
zus@@
23@@
Handel@@
verlieren
itäts@@
MP@@
ktion
Dadurch
wirkt
Ser@@
fu@@
win@@
na
Linux
übernommen
Wegen
Umständen
regionale
Vorbereitung
höchste
Stunde
Gesetze
Freunde
Nutz@@
ite
Mass@@
Pol@@
Plan
breite
andererseits
ak
Süden
ark@@
zustimmen
Körper
testen
nochmals
Star@@
ander@@
Wander@@
basiert
dritten
Diskussionen
Anliegen
kor@@
ehemaligen
management
Erd@@
Telefon
kri@@
art@@
Strategien
verstärkt
Zustand
ergeben
AD@@
handel
zeu@@
CD
Hilfs@@
Me@@
li
Vielleicht
gewisse
Einklang
Dimension
nötig
Teilnahme
4.@@
ativen
Amerika
stoff@@
Eigenschaften
wiederum
voran@@
ckt
RO@@
genen
del@@
Kenn@@
Plat@@
Bedenken
bericht
pri@@
seien
Raum@@
ors
nden
Sport
Winter@@
о@@
²
derzeitigen
zunehmend
vielmehr
gestern
Le
Z
OS
Standard@@
stoff
Portugal
Kollege
Studie
sieren
@
sicht
kop@@
ls
haltung
sieben
Anlage
Such@@
id
last
Verfügbarkeit
3.
Projekt@@
digt
acht@@
mark@@
Freude
trägen
station
Voraussetzung
soweit
erende
Format
umfassenden
amerikanische
Sanktionen
unternommen
verlangen
Sol@@
keiner
itt@@
Flu@@
21.
Spiele
Mein
bahn
lich@@
linie
Antworten
Lebensmittel@@
Material
weltweiten
etz@@
wichtiges
sierung
echten
genauso
Buch@@
historische
anerkannt
Bahnhof
befassen
werfen
Straßen@@
ju@@
tritt
Ha@@
OR@@
ausschusses
Formular
qualität
deiner
Ob
Kunde
behörden
hilft
Schule
aktive
trotzdem
Grundrechte
2-@@
Geist
out
harmon@@
eng
Effizienz
sub@@
heraus
Go@@
höhere
Allgemeinen
gegen@@
RA@@
egen
behandeln
bri@@
Motor@@
Mikro@@
mes
Ei@@
Zugriff
Rau@@
weit@@
Tod
isch@@
heits@@
Cas@@
Übereinkommen
Untersuchung
ruhigen
Verhalten
Berücksichtigung
Küste
Sitz
#
hoher
Karten
ther@@
sorgt
ik@@
the@@
kleiner
dienste
Tatsächlich
konkreten
Beifall
Pass@@
gelungen
Sen@@
viel@@
ziemlich
jemand
willkommen
oc@@
betreffen
con
Grundsätze
kenn@@
Architektur
Leistungs@@
CH@@
menschlichen
dungen
niemand
Kapital@@
Schäden
schätzen
Indi@@
erhältlich
go
ativ
Verträge
Auftrag
yp@@
buchen
Business
öl@@
on-@@
ai@@
wesen
preis
Details
Zoll@@
3-@@
beträgt
Wider@@
asi@@
Pap@@
gespielt
schei@@
Lebens
arbei@@
gemein@@
entdecken
erscheinen
aff@@
tiv
Letz@@
Leitlinien
sions@@
mitten
Leg@@
künftig
Maßnahme
Materialien
nte
schließt
dischen
Verbrechen
1996
Medi@@
Pf@@
Norden
formen
Bau
Wirtschafts-
Nachfrage
entlang
Anfragen
ro
Fi@@
Hin@@
eröffnet
begonnen
Landwirte
Völker
führende
kulturelle
ön@@
inzwischen
eigenes
fort
gene
dan@@
wesentliche
cu@@
Ohne
liste
US
Eur@@
zusätzlichen
0,@@
italienischen
produkte
Pan@@
Absicht
Tran@@
Dort
Datenbank
Gedanken
gesellschaft
brechen
straße
kurzem
institutionellen
ner@@
Fernseh@@
schen@@
Wahrheit
SP@@
staatliche
Erwartungen
Comp@@
elte
mp@@
atoren
Ferner
tut
,@@
ast
rasch
wissenschaftlichen
My@@
ron@@
3.@@
onn@@
angemessen
up
Schaden
0.@@
ernst
interessiert
sofern
Werk
fähig
uni@@
stein
installiert
zahl@@
zentralen
entwickelten
Mehr@@
schönsten
Entwicklungsländern
gender
grundlegenden
verändert
Bri@@
Fischerei
pre@@
Mittelpunkt
eck
burg
Microsoft
Ambiente
26
net@@
dungs@@
FR
dische
ss
Kre@@
schwierigen
fein@@
good
Experten
Pra@@
Versch@@
organisation
Angriff
Schweden
Berufs@@
32
SA@@
zweifellos
Code
ly
hervorragende
natürlichen
este
Beh@@
Ph@@
neuesten
gefördert
näher
zieht
Kategorie
Einstellung
28
Definition
Te@@
besitzen
wechsel@@
Verbesserungen
Weiter@@
öffnen
teren
ausgezeichnete
Beispiele
si
kostet
lebens@@
niemals
Tagung
Delegation
Eis@@
Multi@@
200@@
Normen
erheblich
Em@@
zuerst
Kind
fel@@
bedeuten
Kosten@@
Beratung
Verkauf
westlichen
alter
bestand
welt@@
schlag
erweitert
offenen
meist
reg@@
Badezimmer
Hor@@
teilnehmen
fassen
unmittelbar
rechts@@
Nahen
gar@@
har@@
Wirklichkeit
iten
Bur@@
weshalb
ada
mitteln
bezug
lang@@
sa
schnelle
Klima
ini
Fol@@
zy@@
Agrarpolitik
,00
zentr@@
od@@
einfachen
Strukturen
Ob@@
höchsten
ausgezeichneten
allgemein
Unterschied
rate
Forum
bal@@
ach
entstanden
anz@@
Bucht
Fenster
Regime
Wien
anlage
gert
starten
kurze
Foto
Sub@@
esch@@
Rechts
11.
ement
Englisch
š@@
preis@@
verlangt
sse
IM@@
dem@@
grundlegende
Pat@@
Ratsvorsitz
aufzunehmen
ziele
bemüht
zur@@
IS
chinesischen
Also
д@@
berechtigt
Waffen
standards
organisiert
Führungs@@
sätze
Empfehlung
aktivieren
Boden
ursprünglichen
produziert
behalten
Ausstattung
Sonnen@@
Link
°
reifen
flü@@
entscheidend
75
freundlich
fern
falsch
markt@@
Mel@@
5.@@
zäh@@
spanischen
präsentiert
les@@
Stellung
ziert
id@@
nungs@@
Geh@@
rau@@
Jedes
musste
zugänglich
Ab
riesigen
gent@@
los@@
kämpfen
Dusche
Anbieter
Ren@@
Design@@
wünsche
Ausgangspunkt
Dem
weisung
tigten
fäl@@
Halb@@
Überzeugung
Ap@@
Google
Pflicht
kten
Maschinen
т@@
Komp@@
Winter
umzusetzen
—
Steuern
tierten
City
Fin@@
laut
ns
El
schafft
leiten
position
dritte
Kamera
adi@@
abgelehnt
kte
tor@@
weist
ath@@
park
aut
Gei@@
dir
ertes
ill@@
gratulieren
Dorf
Vol@@
leiden
Brenn@@
oh@@
O-@@
Kooperation
bus
derartige
Kann
Krankheiten
Punkten
licherweise
spek@@
min
tel@@
jahr
rat@@
Wor@@
ps
verursacht
lautet
üh@@
Projekten
Künstler
tät
Verbindungen
betreffenden
höher
5.
fordere
ulation
wirtschaftlicher
ständige
eckt
kal@@
Kauf@@
isch-@@
Bestellung
DI@@
enheit
Hafen
Mitgliedschaft
Förder@@
preise
äm@@
Syn@@
vorgenommen
Abschnitt
mut@@
erlauben
wirksam
übernimmt
tal@@
Abkommens
funktionieren
anstatt
Enterprise
wen@@
gl@@
lag
eins
Harmonisierung
maschinen
für@@
Lauf@@
dienst@@
klar@@
Gri@@
vieler
aussch@@
™
Minister
bekämpfen
Geräte
sehe
künftigen
enzen
systemen
verschiedener
vollständige
tä@@
hinter@@
reich@@
durchzuführen
Stimm@@
verstanden
extrem
zogen
Erholung
Kommunikations@@
jahr@@
ick@@
ren
tierte
miss@@
Struktur@@
Beweis
betrieb@@
á
Staat@@
Gebrauch
nahm
Farbe
Rumänien
empf@@
of@@
Ausführungen
л@@
Red@@
ierungen
ssi@@
ergriffen
Pa@@
fre@@
umgeben
Eltern
Alternative
Tourismus
leben@@
haf@@
len@@
Entwicklungsländer
maschine
Fähigkeiten
stellungen
Zentral@@
weiten
Veranstaltung
aufgefordert
egt
Partnern
stände
01
sinnvoll
Verhandlungs@@
Netz
sichere
aner
Rat@@
Strukturfonds
ül@@
ah
Station
jährigen
serviert
Angst
Wird
Ratspräsidentschaft
Ausnahme
komme
Gegend
trags
nachhaltigen
Konflikt
4.
Änderungsanträgen
freundliche
plätze
schlägt
kurzen
fizierung
EL
our@@
ue
klaren
bezahlen
Immobilien@@
Übereinstimmung
Gestaltung
zig
Download
Alter
mä@@
Buchung
annehmen
ée
Bek@@
wirk@@
Vorschlägen
bel
location
Programmen
Websites
vorzu@@
gan@@
Austausch
sion@@
eth@@
machte
ehrt
beschränkt
stehende
reiche
gespeichert
¤
Nein
bild
Spezial@@
Schwerpunkt
aktiven
eignet
ffen
Herz@@
Tisch
beglückwünschen
Geschäfte
früheren
verbringen
notwendige
durchführen
änden
Straßen
hol@@
Drittens
isierung
pool
18.
ausgeschlossen
wo@@
Nachrichten
Spar@@
Hu@@
oo@@
Umgang
Pu@@
sprach
400
Ausführung
Ausstellung
ließ
Schlafzimmer
kar@@
verabschiedet
can
Schl@@
schicken
hab@@
eingesch@@
Arbeitsplätzen
Maß
ese
Kilometer
zulassen
hervorheben
Drittländern
sodass
Res@@
zugunsten
4-@@
satz@@
tz
interessante
stan@@
erreichbar
Film@@
és
Wohl@@
füllen
Mand@@
nissen
bad
bestätigen
är
vari@@
zuständigen
ag
einzigartige
Fort@@
Übersetzung
Ki@@
angemessene
25@@
Tal@@
verhindert
ausgesetzt
ass
EM@@
Afghanistan
u.a.
spartner
Gleichgewicht
Vis@@
breiten
theit
dé@@
Prinzipien
plan
zunehmen
ausgesprochen
russischen
gehende
Mensch
ment
Komponenten
Faktoren
Verringerung
geprüft
altung
Del@@
Wissenschaft
Gal@@
gearbeitet
0.000
Ir@@
Des
ara
Planung
Ka@@
Besonders
Costa
м@@
Beziehung
Führ@@
diger
Vereinbarungen
vorher
steuer@@
Uni@@
aufnehmen
wär@@
Luft
Kop@@
wasser
passiert
wert@@
zone
unk@@
Außenpolitik
Element
deckt
Gerichte
Ac@@
Industrie@@
entwurf
schwer@@
pen@@
Optionen
unmöglich
Tu@@
verringern
messen
definiert
Schluss
fe@@
your
Beiträge
kol@@
150
Pool
yn@@
einrichtungen
Gesellschaften
eli@@
lö@@
Festlegung
Werbung
fehlt
wann
Sommer@@
Handeln
höheren
Chinas
Einstellungen
Sor@@
Jede
Kol@@
nahmen
rein
Problems
scheinen
Gespräche
Sach@@
entsteht
auer
stat@@
Gemein@@
ado
os@@
verleihen
Zusatz@@
ole
Drogen@@
Dom@@
Transport@@
na@@
Firmen@@
Alles
2,@@
Kr@@
Plenum
welchem
sucht
iel@@
Plattform
Park@@
direkten
5-@@
deck@@
Wein
d.h.
Bemerkungen
Reform@@
ungefähr
ME@@
halt
vol@@
UN-@@
De
decken
schn@@
ha
Währungs@@
schlecht
Wünsche
gra@@
ley
DA@@
Bus
komp@@
rechtliche
Garantie
Regierungskonferenz
einhei@@
gestaltet
Sonne
err@@
verändern
50@@
Morgen
München
Gleich@@
dy
erleichtern
ausgeführt
Minderheiten
Star
sorgfältig
Noch
Zentralbank
kamen
lte
gebiete
etes
Golf
6.@@
Deswegen
1995
wollten
Ausgabe
geboren
Verteidigung
nahezu
za
vertre@@
lauf
Dek@@
bur@@
fs
Aut@@
fläche
Ziffer
begrüßt
ku@@
Justiz
car@@
Deutschen
Char@@
Institution
ling
hinzufügen
lebt
Bor@@
sprachen
Stück
wir@@
Sitz@@
Verbot
Sorgen
Gründung
Ware
Haftung
druck
überzeugen
Lang@@
Zimmer@@
page
solange
bemühen
Aktion
dich
Poli@@
Veröffentlichung
Sicher@@
bestimmen
letztlich
fördert
selbst@@
bestehende
Einbeziehung
AM@@
heutige
cke
Marktes
ates
BIP
struktur@@
ausschuß
präsentieren
Kurz@@
time
holen
organisationen
lands
ents
Drei@@
Studenten
verehrte
Chancen
gezwungen
sto@@
Dor@@
Hinter@@
Parlament@@
Datenschutz@@
ppen
dor@@
erneu@@
Fü@@
gewis@@
geltenden
net
Charta
Hostels
KMU
Umfeld
wachsen
Sollten
star@@
Essen
sat@@
Rund@@
Insbesondere
dlichen
15.
werten
üt@@
Kontakt@@
via
Sek@@
perfekt
Zwischen@@
Mobilität
PL
erien
vorlegen
rit@@
Fer@@
erinnert
Sollte
enth@@
Eng@@
....
rein@@
britische
Web
hof
Start
fli@@
gelassen
ierenden
gesp@@
Fran@@
Fern@@
fris@@
Prof@@
ani@@
Zielen
dürfte
Preisen
geschäf@@
zieh@@
lösung
schauen
sum@@
früh@@
Produk@@
teten
beraten
enswert
fern@@
bereitet
unde
Objek@@
Stein@@
tigte
lokale
geri@@
Bewer@@
echn@@
Balkon
Vorgehen
installieren
Mc@@
ferner
Identität
individuelle
Webseiten
nor@@
anges@@
Log@@
indi@@
jegliche
Freiheiten
Untersuchungen
abgestimmt
eit
Speicher@@
Vorschlags
eur@@
a.
fil@@
Versionen
ingen
el-@@
Selbstverständlich
karten
getreten
liefert
29
Online
EG
UR@@
verkaufen
verdient
wohnen
ät@@
sam
Verb@@
tigungen
ré@@
erfolgreiche
Pres@@
übrigens
entscheidende
verständ@@
Köni@@
Massen@@
Rek@@
ane
ersetzt
organisieren
atik
prozesses
nten
bemerk@@
setz@@
Konsens
Kräfte
verurteilt
2020
era
ame
größer
Politiken
vorhandenen
Gerichtshof
Arbeitsmarkt
individuellen
betrieben
direkte
weite
einheitlichen
verkauft
linien
staat
Golf@@
lieb@@
Sil@@
Verbreitung
reduzieren
assi@@
entwickelte
Asien
ierende
eres
beziehungen
cker
It
Form@@
einig
äußern
stellungs@@
brau@@
Sam@@
Val@@
gewährt
Mitarbeitern
beruht
IL@@
Besorgnis
erhebliche
glaub@@
optim@@
anda
strategischen
Col@@
geln
Krankheit
Schn@@
rin@@
We
vorstellen
bekämpfung
Nachricht
Studien
Je
gehenden
begrenzt
programms
Zwecke
bekannte
zentral
genannte
ins@@
fes@@
Einwanderung
Klasse
tour@@
Fein@@
wil@@
uss
Bra@@
Vorstellung
Anschluss
Bes@@
mt
sicheren
Städten
Pri@@
itäten
inklusive
grundsätzlich
nieder@@
Gewicht
Wal@@
kür@@
Transport
Kapitel
Straf@@
raten
erer
beschäftigen
Bedrohung
las
Sozi@@
stimm@@
ini@@
Freunden
п@@
innovative
Denk@@
Grand
einfacher
genügend
Hohen
arischen
nunmehr
sprach@@
Net@@
Rel@@
las@@
ir
WTO
30@@
Werke
Ban@@
offiziellen
Bemerkung
versorgung
annte
views
у@@
Sein
angegebenen
jenen
läßt
bereit@@
Rot@@
effektiv
drücken
Erzeugnisse
Stand@@
verkehrs@@
ey
ID@@
had
zusammenarbeiten
Rezeption
Schulen
hren
aussprechen
ai
Sauna
fol@@
Rom
igung
LA@@
ierter
sam@@
ON@@
le-@@
Systemen
ella
Selbst
ppe
informationen
außerordentlich
hängen
rooms
egen@@
vorbereitet
Kurs
ologischen
Schiff@@
verstärken
Sü@@
Player
Sand@@
französische
2011
Neue
Benutzer@@
vorschriften
Beitritts@@
tern@@
wel@@
Tour
Mus@@
Oder
Auge
werken
herrscht
bank
ruhig
ko
führten
verbinden
Wohnung
Zusätzlich
tin
Wachstums@@
vous
Signal
mus
gebieten
Kontrollen
iges
gewonnen
erfolgreichen
leistung
wa@@
traditionelle
Ter@@
fri@@
kompet@@
niveau
DVD
mäch@@
Lö@@
mö@@
person@@
Bre@@
itä@@
wege
Rest
Haup@@
erlebt
Nah@@
Marke
eingereicht
gestattet
verantwortungs@@
wiederholen
Licht@@
jener
erhielt
Wohlstand
Schlaf@@
Sektoren
Kauf
Fra@@
Far@@
Viertel
unverzüglich
ungsverfahren
6.
Fr@@
ungser@@
17.
Eisenbahn@@
com@@
off@@
Hil@@
и
denden
Einkommen
Kab@@
ay
Bereitstellung
echt
Vorsitz
tau@@
lig
Cam@@
.000
Spa
Erstellung
beigetragen
entscheidender
Bars
Eurozone
Computer@@
kultur@@
Wirk@@
ski
wissenschaftliche
beschrieben
Beschluss
großem
tens
Pop@@
Pakete
vieles
irgend@@
Nacht@@
finanziert
Bro@@
Stat@@
Back@@
schm@@
Da@@
system@@
Studio
Bef@@
Touristen
gerichtet
dig@@
R-@@
ähnlich
inform@@
Vision
Ungarn
Männern
Schlussfolgerungen
Einheit
üb@@
7.
gewi@@
Katastrophe
wunderschönen
bislang
Frankfurt
stän@@
bestimmter
auen
http
Zug@@
zeichnen
Mangel
Sel@@
Ansichten
kleines
Spaß
beteiligen
lem@@
Entscheidungs@@
tlicher
Staates
selben
aj@@
Kli@@
AG@@
elektronischen
gesellschaften
vermitteln
Video@@
erzeugt
Casino
integriert
material
gefallen
stolz
zustellen
aufs
zahl
Fuß@@
alitäten
jährige
Einwohner
einzigartigen
Bil@@
Group
Kontext
Brasilien
erne
Deutsche
geboten
menschliche
Rechtsgrundlage
16.
Lieferung
wohl@@
leistungen
Seg@@
anwesend
Sicherung
Genehmigung
ON
Vater
Konto
ker@@
verbindet
investieren
kat@@
hervor
tigungs@@
solches
Sar@@
will@@
sozi@@
bung
Polizei
angegeben
Red
vertrau@@
Text@@
95
Konsequenzen
sparen
Manager
alisiert
offen@@
ato
Modelle
Provinz
Datei@@
Darum
Sur@@
eingehalten
ki
ov@@
Zwei
ll
verhalten
punkte
behörde
dende
Arbeit@@
lige
char@@
Dauer
Gerät
pe@@
bereichen
gewissen
gener@@
gerät
Verk@@
Messe
my
Nummer
Beschlüsse
tage
beantworten
sern
Positionen
ähnliche
freut
weitgehend
bereitgestellt
annt
Grad
Medien@@
gering@@
Glaubwürdigkeit
nicht@@
Refer@@
bedeutende
hö@@
Les@@
individuell
post@@
Wählen
Prozesse
chern
Kroatien
posi@@
internen
wiederholt
vis@@
beobachten
Betrag
kräfte
inmitten
alli@@
Cal@@
grös@@
gesetz@@
mil@@
zuständig
Rahmen@@
mussten
effizient
Wind@@
Videos
anbelangt
Internet-@@
Überlegungen
e-
mittleren
ff
Ehr@@
entspannen
8.
Zivilgesellschaft
Reduzierung
Politik@@
Trotzdem
Kontakte
Bulgarien
к@@
sozialer
Empf@@
F-@@
Tel@@
überprüft
Lan@@
einbezogen
Gegenstand
langfristige
laufenden
bem@@
36
Korruption
ona
ater
dokum@@
gestellte
manche
alisierten
geräte
Tex@@
riffe
Ganz
voraus@@
Mrd.
ursprünglich
bekommt
erstmals
Euro@@
Mer@@
probleme
Kopf
ziel@@
Wo
ausgezeichnet
has
Menü
Suiten
Gehminuten
alistischen
leu@@
Parkplatz
Schwei@@
alisieren
gebildet
Mak@@
famili@@
langsam
amt
wirtschafts@@
ands
IF@@
heben
34
geschichte
sinn@@
eingeb@@
Lok@@
reduziert
31
Schlüssel
enger
Kin@@
plan@@
M-@@
Gefahren
optimale
sich@@
wirtschaftlich
99
aut@@
Band
angesehen
kun@@
Vorhaben
gedacht
mung
Energien
Identi@@
Kollegin
fertig
etzen
modell
druck@@
speichern
Anlass
modern
Geschmack
Mod@@
arbeits@@
gerufen
Wir@@
Pre@@
HT@@
Gast
aller@@
usses
bs
dauert
verteilt
Dafür
Stoffe
leb@@
fahrer
0-@@
Fo@@
problem
k-@@
ausgerichtet
auftreten
bes
Lag@@
Gewährleistung
schle@@
Auto@@
Lebensmittel
Mün@@
mangel@@
Gol@@
Debian
letztendlich
passen
sin@@
ots
fuer
Prüf@@
betreiben
entschlossen
zentren
brei@@
AB@@
behaupten
Schwer@@
erh@@
scht
7.@@
stands
ste@@
verein@@
ausgegeben
version
schnell@@
Eigentum
zukünftigen
Elektro@@
Asyl@@
Wirtschaftswachstum
Körper@@
Verlust
ahn@@
ologische
verfügbaren
Schiffe
gol@@
verkehrs
täglichen
angebot
Gerade
Mitt@@
altet
licht
künftige
Glück
pe
EU@@
Aufsichts@@
ersetzen
Vo@@
sicherung
enes
Kulturen
ks@@
län@@
aktion
Entlastung
cia
Praktiken
gelingt
hierbei
Roll@@
versichern
nu@@
kontaktieren
militärischen
angel@@
.de
Wechsel@@
itten
Hier@@
beendet
hör@@
projekte
wechsel
Übergangs@@
160
ack
Belgien
unterscheiden
verteidigen
Fahrzeuge
Erfüllung
größeres
fr@@
situation
Mac@@
Gericht
Genießen
mischen
zo@@
einzusetzen
militärische
konfrontiert
Völker@@
objek@@
lle
gründen
aben
24@@
burger
konzentriert
Dreh@@
ve@@
WC
Prozesses
allzu
Strom@@
ec
Boden@@
angepasst
Finanzierungs@@
ol
deut@@
offene
48
Termin@@
füll@@
hän@@
int@@
10.
änge
B-@@
Anstieg
aktiviert
IT-@@
ion
Ausflüge
Gerechtigkeit
Gemeinde
č@@
breakfast
grund@@
98
ligen
bergen
tsp@@
Schiff
Verletzung
gangs
ück@@
kontrolle
legte
interessant
Air@@
spreche
Zer@@
angen@@
unabhängigen
pu@@
Krisen@@
klein@@
Personal@@
Perspektive
wand@@
herr@@
Nachbar@@
com
Zw@@
12.
teilt
medi@@
hel@@
Mut
Hau@@
nungen
Hi@@
cm
Übernachtung
Situationen
Neben@@
wettbewerbs@@
brachte
Verarbeitung
Amt
Lab@@
bares
ums@@
billi@@
Freitag
Flüchtlinge
Roh@@
institutionelle
PT
entes
Standort
Nachbarn
Roma
chtes
maß@@
gemeinschaftlichen
unterstreichen
fähigen
Feld
agt
unterzeichnet
Organe
Telefon@@
mitteilen
illegalen
Santa
13.
spann@@
struktur
herunterladen
deswegen
strategische
Runde
förder@@
Weiteren
bisherigen
Sterne
vorzulegen
Pläne
Sachen
ki@@
Tätigkeiten
betreffend
Märkten
heim@@
600
Miss@@
sichtbar
Eink@@
vern@@
abstimmen
same
richtet
Dach@@
antes
lieber
wirksame
gend@@
T-@@
Betten
vollständigen
els@@
Finanzkrise
zukünftige
anschließend
Ansch@@
könnt
ear@@
which
Alp@@
Willkommen
trans@@
dans
Landes@@
angebracht
dert
empfangen
vorgeschlagene
hochwertige
Regierungschefs
Widerspruch
eu
klein
omm@@
liegenden
unterliegen
esi@@
Frühstücksbuffet
kehr@@
Sind
Forsch@@
pol@@
WLAN
н@@
Veränderung
natürliche
schrei@@
ergibt
geprägt
Redner
praktische
umfangreiche
Donnerstag
Schon
Grünen
Sta@@
tag
Fru@@
ri
langfristig
isiert
verdienen
Glas@@
Zuständigkeit
vorgesehenen
edi@@
Abendessen
effiziente
Ster@@
selten
Boot@@
Ausmaß
Zy@@
anzuzeigen
fü@@
Ankunft
bestellen
John
37
Andere
unabhängige
Bahn@@
grosse
nutz@@
Dra@@
Geschäft
buch
Stimmen
entsp@@
Boo@@
anschließen
zeug
behoben
Ablehnung
Vorsch@@
The@@
spiele
x-@@
halb
waffen
züge
fuhr
ativer
9.
gebeten
hingegen
anhand
cor@@
Waffen@@
egel
Macht@@
Kanada
wachsenden
ders
leitung
ama
ließen
rati@@
yl@@
betra@@
1994
grenzen
Fehler@@
pour
ba@@
NATO
Mutter@@
fährt
Schweizer
weis@@
09
Brü@@
Sit@@
Vorlage
normalerweise
Tit@@
lösungen
vorschlag
verwaltung
egal
gungs@@
Madrid
Armee
plus
derer
in-@@
Respekt
äh@@
auff@@
Zivil@@
Euro-@@
Quellen
Schwar@@
stor@@
gens
stil@@
Europ@@
sogenannten
gemä@@
vorbei
gewähren
wahren
lin
14.
urs
nde
zuzu@@
hervorragenden
Konferenz@@
fanden
heit@@
Leitung
Wes@@
verst@@
ätze
Hü@@
ica
asp@@
Freizügigkeit
Ebenen
Rö@@
kanischen
dankbar
Vier@@
Staatsan@@
glich@@
ya
dargestellt
erzeu@@
stieg
schwei@@
richtung
schnellen
fügen
Fil@@
passt
fikation
IR@@
Mont@@
rel@@
es-@@
kli@@
Tief@@
zahlung
gewünschten
normalen
Dienstleistungs@@
enthaltenen
Meines
Mas@@
freundlichen
vorliegende
hohem
Aktionsplan
gener
Fel@@
Abhängigkeit
Post
Abschaffung
Rückkehr
Off@@
umzu@@
viertel
stör@@
besonderer
ier
Heizung
use
chungen
öffentlich
arbeitete
Revolution
Gut@@
körper@@
Г
kontrollieren
vereinbart
je@@
center
heißen
Volkes
Fischer
Haushaltsplan
tis
Reservierung
geraten
ernsthaft
verboten
erfreut
minim@@
OL@@
erkannt
Steuerung
produzieren
Gesam@@
lim@@
erei
Trau@@
märkte
bereiten
schutzes
IN
Lizenz
fassung
alem
nei@@
jetzigen
33
Führer
tief
geplant
Alt@@
Entspannung
rieben
Befugnisse
Reisen
Beteiligten
Büro
Geschwindigkeit
flächen
Erinnerung
Konflikte
annten
läu@@
Cre@@
steigt
800
Zahlungen
Sohn
Haf@@
Jahrzehnten
antworten
Rent@@
pra@@
PH@@
Wochenende
bezahlt
Cap@@
griechischen
hervorgehoben
ammer
Erst
gemeinschaft
Binnenmarktes
externen
methoden
konferenz
IG@@
gnis
Dritten
atz
Bin@@
Gleichstellung
Beide
Urheber@@
sur
Planeten
Fahrt
senken
einheitliche
gefragt
Berichten
gre@@
überaus
Interess@@
keit
Wa@@
komplette
tives
е
Investitions@@
Regel@@
abel
Wur@@
Sat@@
schriften
aufgebaut
erfordern
bestimmungen
tigkeiten
mögen
38
Maschine
sauber
Marken
schweren
Na@@
EADS
Betra@@
erwähnen
gaben
enge
ena
Prozess@@
Stu@@
Apartment
ange
Sammlung
küh@@
Ton@@
Großteil
beschränken
afrikanischen
Vorausschau
code
politisches
mittlerweile
Orte
unterschiedlich
leichter
ökonomischen
leh@@
Schönheit
Geheim@@
entgegen
klassischen
get
Kreditkarte
ID
zeugen
überein
ons@@
Hol@@
Komm@@
lig@@
chtungen
zugrunde
eingestellt
gab@@
hier@@
Internationale
Individu@@
tisches
nummer
nachdrücklich
humanitäre
komfortable
entdeckt
bedanken
existiert
Inn@@
schung
umsetzen
Wald@@
Resort
letzter
Darstellung
König
gut@@
Handels
zurückzuführen
Tausende
Studi@@
Michael
Jugend@@
hierfür
Ursachen
Verteilung
Gang
National
untersucht
Quelle
Browser
Mutter
eingegangen
perfekte
Men@@
stammt
umfassend
festzulegen
Anwendungs@@
Aqu@@
Newsletter
55
High@@
Zeitung
wis@@
regel@@
Investoren
MA@@
Faktor
Kriminalität
Gemeinsame
Euch
Aktion@@
Nahrungsmittel@@
nam@@
techn@@
port@@
stru@@
freund@@
jüng@@
räger
automati@@
einzuführen
Agenturen
Branche
schli@@
berichten
ac
Rechten
Tages
Emissionen
nahme@@
Blut@@
groß@@
Generationen
korrekt
äumen
hoffentlich
Best
absol@@
gestaltung
melden
Arbeitsplatz
isi@@
Geschäft@@
merk@@
gehör@@
Lizenz@@
CA@@
Spielen
Vertrages
Weg@@
Bon@@
grossen
let@@
modern@@
einf@@
Würde
not@@
•
Direkt@@
sprech@@
Bereitschaft
Bru@@
besorgt
rt
EZB
Passwort
wonach
resul@@
fei@@
Eingang
sah
Nu@@
DE
6-@@
Ca@@
lädt
geeignete
Mission
sport
way
festgelegten
bild@@
enorme
geleitet
tert
ebene
echnik
Rechtsstaatlichkeit
begleitet
fang
08
Museen
Somit
ähr@@
tar@@
Gl@@
modified
Stre@@
TR@@
ät
erklär@@
frühen
erweitern
offizielle
angewendet
akte
pr@@
ausgaben
hi
Kap@@
vornehmen
digitalen
Kü@@
Papier
ex
nütz@@
diskrimin@@
Tab@@
Zug
geäußert
Haben
Anwender
Öffnung
Stärke
fen@@
stattfindet
gehei@@
festen
ka@@
Stamm@@
Ferien@@
Speisen
vorschläge
sü@@
sc@@
steigern
ult@@
kontrol@@
vorher@@
07
ungsver@@
de-@@
Volksgesundheit
ator@@
verwende
Parkplätze
Barroso
Fernsehen
teils
Kontinent
blo@@
Mir
entliche
enh@@
England
Innenstadt
ollen
dro@@
gnissen
Information@@
off
Freizeit@@
Miß@@
amm
regu@@
pass@@
eht
Frist
Ther@@
anen
Amerikaner
voraus
ritten
Tei@@
l-@@
qualitativ
Niederlanden
beenden
ont
Früh@@
Währungsunion
verfol@@
blei@@
Registrierung
enter
zieren
Parameter
Miet@@
Ba@@
verweisen
türkischen
esischen
Street
eien
ständen
keinem
aush@@
Verlauf
Reser@@
Strecke
mitt@@
nützlich
empfohlen
faszin@@
Teams
Haut
technik
geber
Berliner
bern
kraft@@
Out@@
Kompetenz
ganz@@
30.
sal@@
gestärkt
Hamburg
bewältigen
prozesse
schule
Bibliothek
Dat@@
fähige
Küsten@@
herrlichen
software
Ferienwohnung
Blog
worfen
z-@@
Überblick
gelesen
chi@@
selber
Wirtschaftskrise
flug@@
optimal
gegenwärtige
sichergestellt
Zone
dat@@
Schloss
restaurant
Andererseits
Handlungs@@
Wandel
überwinden
Dritte
Gelder
Pen@@
Umweltschutz
füh@@
zun@@
hart
gän@@
Dass
zerstört
Öl
kul@@
Kapital
ungs
genaue
Last@@
fo@@
yst@@
Debian-@@
Kampagne
verl@@
Pakistan
7-@@
ous
Grün@@
linken
Opposition
ISO
Bern@@
Allianz
Deutsch
Vereinfachung
diert
pat@@
lo
Herz
Gold
integrierten
Krank@@
Pro
region
ergänzt
gesetzlichen
erfahr@@
Air
eigener
Bestimmung
regi@@
Länge
Mail@@
täts@@
Debatten
utz@@
Test
froh
ê@@
stärkere
materi@@
unmittelbarer
Potenzial
räumen
Zahlung
sol@@
olo@@
außen
m2
minist@@
gleichermaßen
Dokumenten
Bearbeitung
Stad@@
Presse@@
Kategorien
avec
Auftrags@@
schlag@@
kontrolliert
Bord
Lern@@
Fluss
ía
entsch@@
behält
ater@@
ativ@@
Inn
minister
irischen
richtlinie
Partner@@
bende
Wesentlichen
Belarus
Berichterstatters
zukommen
langfristigen
sten@@
Erhaltung
Theater
Jugend
X-@@
viert
ennen
vertrag
Extre@@
zeichnungen
Liber@@
Absch@@
strah@@
wendet
Beseitigung
rechtzeitig
Album
Hon@@
ow
gesichert
ütz@@
angemessenen
Gerichts@@
Mol@@
basi@@
besu@@
EU-Mitgliedstaaten
ci
ot
anzubieten
ez
gsten
Freund
SE@@
Autos
Suite
gewer@@
diges
pos@@
Herbst
ст@@
Montag
kn@@
negativen
Softwar@@
House
Ide@@
rech@@
bedeutenden
unentgeltlich
Oberfläche
ziger
Parlamente
graph@@
Schulden
bus@@
derzeitige
tan@@
zige
effektive
binden
Mechanismen
traum@@
Projekts
reibungen
ware
proz@@
Straßburg
Is@@
Strand@@
Verein@@
zwingen
stammen
stück
Dritt@@
kurs
losigkeit
rolle
Kandidaten
8-@@
para
lenken
Tür
psych@@
ick
typischen
einfach@@
Glei@@
Benutzung
Waren@@
oni
Wür@@
ç@@
ehren
Polizei@@
frem@@
angenehmen
them@@
Dingen
nice
ahr@@
abend
ves
zü@@
steh@@
Geschle@@
Versorgung
dynam@@
Cli@@
erzeugen
besucht
f-@@
Gewinn@@
tö@@
Rob@@
Koordin@@
euer@@
steuern
Bedürfnissen
servi@@
ländliche
schu@@
erstaun@@
Kopenhagen
entscheidenden
bewahren
rechtlich
untersuchen
Spitzen@@
Brand@@
Bereits
Comm@@
eben@@
gültig
sorge
Fot@@
änder
Innovationen
fähi@@
Tonnen
Ant@@
realer
urlaub
konkret
schrift
tal
geliefert
sichtlich
Sobald
tenen
wartet
alistische
sch-@@
Gem@@
kümmern
errichtet
fs@@
hierzu
ola
Hö@@
wertung
auffordern
Augenblick
fik@@
selb@@
gehörigen
S.
9.@@
finanzieren
soli@@
denjenigen
Mad@@
Regulierung
beinhalten
ch-@@
nern
Senkung
atur@@
müsste
europäisches
praktischen
radik@@
Institut
Berge
lten
wort
Maria
Lam@@
suche
Offen@@
tivität
lichsten
knapp
überlassen
alisierte
unge@@
vorgestellt
treiben
ade@@
î@@
ologisch
Patent@@
Presse
spezialisiert
gefähr@@
Lesen
Häuser
Gold@@
erklärte
Fortsch@@
grünen
hast
Zusammenhalt
1992
still@@
Ägypten
test
endet
dens
Fehl@@
berechnet
Staats-
angenehm
.00
inner@@
Besuchen
Fläche
Hinweise
lik@@
Hindernisse
Drittel
Detail
würdig
sitzen
stands@@
Höchst@@
Appartements
Schreiben
III
gekennzeichnet
anwen@@
Kaffee
aktuell
impor@@
ausgewählt
Leit@@
IP@@
Hauptbahnhof
Mechanismus
befasst
Premierminister
anzeigen
fantas@@
angeb@@
wes@@
Sicherheitspolitik
tter
geführte
Vertretern
Dialogs
strei@@
Todesstrafe
tnissen
ise
ele
ard@@
separ@@
grad
Beachtung
Mandat
Posi@@
ry
can@@
Verkehr@@
Ergebnissen
dos
Jugendlichen
wach@@
sammeln
Nachhaltigkeit
Rou@@
Anmeldung
Pflanzen
oli@@
28@@
vergleich@@
Koh@@
konstru@@
appen
gelegenen
65
Kno@@
Verfassungs@@
schluss
Wild@@
üssen
roman@@
renoviert
rechnen
Glauben
Ansprüche
weltweite
Übertragung
UNO
chts
igkeit
gehandelt
ehmer
ungsh@@
tation
Mari@@
Kern
riff@@
älteren
diesbezüglich
Todes@@
Unions@@
wesentlicher
produkten
beeinflussen
Urteil
chinesische
ment@@
isti@@
Vit@@
versammlung
müssten
lieren
stab@@
well
tiere
eventuell
gänge
fügt
Flü@@
Urlaubs@@
General@@
05
Wirksamkeit
OS@@
Hy@@
dad
Widerstand
Autobahn
Mach@@
Tauch@@
Entfernung
gefährdet
ann
Can@@
sis
Gener@@
Sonntag
don@@
8.@@
gewählten
ata
are@@
erie
more
festzustellen
günstige
Dro@@
programmen
beantwortet
zog
Käufer
mäßige
fiziert
Versammlung
Wol@@
25.
rücken
bringung
betrieb
Journalisten
Transpor@@
verletzt
Peter
grenz@@
Tal
geblieben
hr
Mexiko
krei@@
engli@@
Gewal@@
SO@@
sitz
Open
oftmals
märkten
rates
Finnland
fällig
zungen
Ersatz@@
Oliven@@
Erst@@
Datum
angewandt
wechseln
wahr
Erlebnis
96
Ausbildungs@@
loser
jedenfalls
illegale
Gest@@
leiter
bs@@
armen
42
Präsenz
Betreuung
Deck@@
ärer
esp@@
elli@@
Finde
geregelt
setzte
Hohe
Kohäsionspolitik
begrün@@
neun
Gemeinschaften
professionelle
langs@@
momentan
Strände
infolge
längst
ßer
Prin@@
schwierige
Einen
seln
det@@
Dies@@
soeben
dauer
s-
Tag@@
sens@@
Mil@@
Terror@@
benutz@@
spät
Feuer@@
Tabak@@
wirkliche
seri@@
Martin
Analy@@
Räume
Dokumentation
Wohnzimmer
Minute
Mädchen
Är@@
Minist@@
nehmer
Projek@@
Netzwerk@@
Ratschlag
ni
ergänzen
schwere
Ham@@
festlegen
Modernisierung
Saison
Verwirklichung
palästinensischen
Poker
alisten
Holz
hau@@
ansehen
Luxemburg
eil
garten
imm@@
sach@@
anzunehmen
klasse
Aufzug
tief@@
Vorstellungen
echter
langer
meister
ari
clean
Jedoch
EG@@
ug@@
Cookies
demo@@
Spitze
finanzi@@
Paul
Open@@
Wirtschaftspolitik
Weil
hinweg
Zuge
Start@@
Energieeffizienz
ome
German
aufzubauen
charakter@@
ba
ansprechen
250
Marketing
humanitären
97
Spezialitäten
bewerten
übersch@@
Betriebe
sterben
Wachstum@@
Übrigen
IP
kehren
Dru@@
mern
ehm@@
vel@@
Festival
verwal@@
zeichn@@
Zus@@
Weiterentwicklung
Errichtung
ktionen
an-@@
PR@@
hef@@
geschickt
ón
fass@@
regierung
Kir@@
Doppelzimmer
wäl@@
eriert
hinzu
Personen@@
Tests
verringert
PS
ita
Berg
Dec@@
Symbol
set@@
wächst
krise
entieren
kern
Schulden@@
Update
vorge@@
Verzeichnis
stern
let
there
Mul@@
Zeu@@
sauber@@
Tour@@
offenbar
geschlossenen
Außen-
IB@@
hervorragend
sektors
Argumente
standard
Unterkünfte
Pas@@
ehemalige
Son@@
Kas@@
Card
gas@@
netz@@
netz
Volkswirtschaften
Europe
64
ap
enthalt
SS@@
Will@@
AU@@
rah@@
Traditionen
Bildern
Flughäfen
col@@
hil@@
italienische
spra@@
euer
fal@@
ober@@
Zypern
zahlungen
friendly
Kopf@@
Zwar
kennt
nehm@@
entfernen
Shop
schar@@
digungen
versteht
bed@@
Werten
manchen
eist@@
krimin@@
Umweltfragen
berühmte
Wähler
í
Wohnungen
Vertrag@@
ela
Auflösung
füllt
Schön@@
OT@@
Renn@@
Rom@@
Ausarbeitung
Arbeitnehmern
Amts@@
Truppen
projekt
eleg@@
beln
IV@@
kontextuellen
Bestell@@
Akteure
Annehmlichkeiten
Bade@@
¼
entdeckst
1993
Bücher
Inform@@
On@@
kro@@
Airport
Schüler
realis@@
liert
Philosophie
mehrfach
volles
aktu@@
Support
Listings
Religion
Werden
mess@@
1000
faßt
Wissenschaftler
verw@@
Krieges
Grundlagen
standen
Vermittlungs@@
strukturen
JavaScript
terung
rift
kel
eingebracht
Objekte
hinzufugen
1990
enormen
Wiederaufbau
entstand
Samstag
Sc@@
überzeu@@
kontextuell
Orten
trat
verwendeten
SI@@
grammatisch
ekt
Jahr@@
Danach
tagen
Schwellen@@
Verbraucherschutz
öl
Tieren
Fahrer
85
kette
Schlusselwort
Schlusselphrase
güns@@
schein@@
digitale
aufgezahlt
Einer
ruppe
Marken@@
lers
rö@@
vorzunehmen
egel@@
geniessen
ans@@
anc@@
zz@@
city
beseitigen
Hal@@
erteilt
regelung
anwenden
Verteidigungs@@
Salz@@
gesellschaftlichen
ausüben
Quali@@
Oper@@
vorliegen
-und
süd@@
nutzt
nehme
Parti@@
Ausbau
Filme
wider
eder@@
General
Internetzugang
wu@@
Milch@@
vorgelegten
tru@@
Dänemark
einig@@
kostenlose
Poly@@
gäste
Viel@@
06
only
PHP
prim@@
anne
Sim@@
aufbauen
Nehmen
Aussage
hinaus@@
Serbien
quellen
tliches
bedürf@@
Entwickler
Mur@@
Don@@
reagiert
überwachen
ändert
Radio
hundert
schalten
Gibt
älter
verständlich
Sieg
--
val@@
we@@
Verkaufs@@
verbindung
Denken
Wo@@
ehrlich
Ausweitung
werks
´
desto
fizieren
Zwischen
Sektors
Russlands
maßen
Ra@@
kes
Himmel
professionellen
Übergang
Deutschlands
gemeinsames
Bio@@
bro@@
Power@@
eingeleitet
planen
funktion
ausser@@
richt@@
südlichen
sper@@
Av@@
umgehen
Sowohl
wur@@
kel@@
Abfall@@
Lernen
Vordergrund
gebühr@@
ail@@
Hot@@
lie@@
tei@@
Ul@@
belieb@@
verhältnis
NICHT
dorf
Tau@@
branche
weilen
Inflation
ost@@
ektion
49
gewidmet
bevölkerung
Mängel
terror@@
Software-@@
Inf@@
bahn@@
fas@@
Universitäten
interne
Fried@@
llen
MS
Vorsitzenden
31.
griffen
geteilt
mische
ECU
Fas@@
As@@
ées
isieren
bearbeiten
ke@@
e.@@
biet@@
spüren
Get@@
gewöhnlich
verstehe
schem
IWF
Besitz
günstigen
Wand@@
verti@@
Wasch@@
musi@@
Vers@@
stige
definieren
ble
Besitz@@
hinzugefügt
spä@@
ty
Bestätigung
Kommun@@
Souveränität
äd@@
Erwachsene
Ruf
ario
veränder@@
Florenz
Pil@@
innovativen
Katalog
dau@@
intensi@@
Bezeichnung
rap@@
zeichnete
hochwertigen
baus
hinzu@@
zugs@@
landwirtschaftlichen
mäßigen
Erfolge
qui@@
gesucht
Vertrieb@@
Gegner
old
Via
gegebenenfalls
keineswegs
herstellen
Metro@@
nächster
ros
ruhige
Modul
künst@@
Sonn@@
dateien
GB
gerechte
Eines
gnis@@
Kooperations@@
Zweiten
bekann@@
origin@@
Spaziergang
Tools
3,@@
erhoben
Kn@@
Satz
uri@@
last@@
erkunden
Genau
Export@@
otel
Vereinigte
städ@@
bü@@
staat@@
24.
Gottes
Können
Niederlande
Rechner
great
lierung
bor@@
schluss@@
ökologischen
zusehen
rän@@
Billi@@
ausgehen
gefährlich
tene
zweifel@@
sichts@@
MO@@
zauber@@
us-@@
Regional@@
west@@
gkeiten
besonderes
rup@@
39
ance
herzustellen
denkt
Strah@@
esse
PC@@
yer
kamp@@
üblichen
verblei@@
lieben
Argument
studi@@
dra@@
fun@@
lass@@
Einsatz@@
Stiftung
parlamentarischen
vollem
ose
Ehre
Besonder@@
Existenz
elegante
Anbetracht
Werkzeug
IA
erstes
sozial@@
Wirtschaft@@
10.@@
angehen
satzes
hilfreich
grund
beabsichtigt
02
Erzeu@@
fic@@
effizienter
flu@@
ziel
Insgesamt
line
stärksten
kräften
USS
Nichtraucherzimmer
Prozeß
veröffentlichen
onie
ther
umfassen
angen
q@@
Beru@@
offiziell
ausländischen
Blo@@
effek@@
UT@@
nah
ars
EC
geschäft
Plaza
just
Bush
gehend
verbreitet
höchst
Kommentare
kün@@
quote
Entschlossenheit
instrumente
Aktien@@
intensiv
tiver
beteiligten
größter
essi@@
anforderungen
Fassung
Konvent
Ref@@
getrennt
gegenüber@@
schwedischen
tigsten
erwiesen
mobili@@
Ausblick
fla@@
enfalls
reibungs@@
Pau@@
inc@@
konsequent
Tsch@@
Anmerkungen
Glück@@
Effekt
Gesetzes@@
Demokraten
700
schreibt
garanti@@
Frauen@@
behand@@
integrierte
ire
lex@@
löschen
auswählen
Nizza
negative
gemütliche
gebene
ox@@
Ablauf
elektronische
berichtet
daten@@
Modus
prozeß
sitz@@
Gruppen@@
Verbrauchern
existieren
tiker
erheben
bewer@@
ologischer
Publikum
Den@@
Woh@@
erleb@@
Erreichung
Kompetenzen
Typ
generell
Aspekten
kräf@@
bedroht
Gebühren
Schei@@
gefühl
akt
ines
welle
here
dam@@
grenzüberschreitenden
gri@@
bürokrati@@
tos
ahnen
pfung
eh
Ratifizierung
widmen
zahlt
Ausrüstung
Werbe@@
Western
stellten
betre@@
vertraut
etten@@
Los
20-@@
kürz@@
L-@@
Lim@@
Bekann@@
03
Kam@@
eure
fig@@
günstig
Sekunden
drin@@
V-@@
helpful
klin@@
schriftliche
bewußt
gestatten
Sachver@@
120
Ag@@
partei@@
Maschinen@@
Obama
gewicht
beispiel@@
becken
Bevor
kleinere
hohes
Aktu@@
pft
buch@@
haus@@
Versicherungs@@
tigem
trags@@
teilung
arabischen
ages
Musi@@
ala
Ingenie@@
Hard@@
Plas@@
а
istisch
genauer
Lehrer
transpor@@
bewegt
Betrieb@@
ähnlichen
früh
ous@@
bewus@@
inst@@
artige
freier
AV@@
rich
abgesch@@
Top@@
kapit@@
beibehalten
kostenlosen
Media
Heimat
Behörde
Konz@@
Imp@@
boo@@
Quell@@
Vorrang
möglichkeit
hafter
liber@@
weichen
zeigte
klu@@
Prag
Konvention
erwerben
überrascht
Ang@@
etzt
lock@@
forschung
Cock@@
Aktivi@@
finanzierung
Camp@@
Statistiken
Slowakei
Venedig
fehlen
Durchsetzung
erfol@@
Rennen
Bestellungen
Steigerung
Gemeinden
р@@
zugeben
Klarheit
Stahl@@
Lohn@@
Festplatte
unterschiedlicher
öffentlicher
bruch
Schad@@
spür@@
falsche
Herr@@
aria
Weine
Soldaten
Rechnungs@@
maximal
ati
vermittelt
agements
Pin@@
ever@@
Wichtigkeit
umgehend
ED@@
Pati@@
kunden
Autor
Pflanzen@@
sur@@
ams
web@@
Motor
derart
spak@@
Ausrichtung
Fri@@
solch
Abteilung
22.
Ess@@
Australien
zweiter
zweitens
Wen@@
imp@@
kin@@
Schicksal
chemische
erkennt
verurteilen
verbrei@@
ge-@@
Ursache
Port@@
Ah@@
Häfen
Garantien
erteilen
Rechn@@
wachsende
langem
anzuwenden
behauptet
Wett@@
Eth@@
kollek@@
agieren
stätten
problem@@
Meinungs@@
Vorgehensweise
geringen
spanische
Wil@@
A3@@
jährlichen
s.@@
unden@@
läge
Immobilien
Maß@@
Uns
Kenntnisse
Kriegs@@
Feri@@
frü@@
Umwel@@
Volkspartei
Verbrau@@
Dynamik
kombiniert
ani
44
gebenen
hochwer@@
43
kurse
iere
assen@@
Herkunfts@@
Spe@@
Kommissionspräsident
Nam@@
Mittelmeer
domin@@
Palette
DS@@
Plätze
förderung
Pet@@
PS@@
Vermögens@@
Hände
niedrigen
Hat
Bom@@
tho@@
Lateinamerika
mäß@@
Fleisch
EF@@
kap@@
Samm@@
wirklichen
bewertet
drückt
gesetzten
Fortsetzung
Seele
engen
mechan@@
Prodi
Entwicklungshilfe
beweisen
Mini@@
vertritt
komplexe
nü@@
Diesen
11.@@
1989
befürworten
verursachen
anzupassen
Menschheit
Versprechen
interess@@
Weltkrieg
mensch@@
blicken
gehörige
Ferienwohnungen
verlag@@
umfangreichen
fried@@
Keine
Wünschen
EB@@
AL
ú@@
flexibel
aktualisiert
ando
Werkzeuge
Immer
Bad@@
ty@@
Zuverlässigkeit
erarbeitet
Kein
Stell@@
ys@@
obligator@@
Felder
Es@@
Ereignis
Hör@@
gemütlichen
Zimmerbeschreibung
erheblichen
ong@@
schön@@
io
dieren
ausgestattete
bewegung
Aussagen
uns@@
inneren
identi@@
isten
195@@
ura
greif@@
Weiterhin
bett
Kürze
AK@@
könne
26@@
Lounge
begegnen
Weiß@@
Alternativen
sä@@
з@@
Offenheit
Haushalts
Einzelheiten
glob@@
gebäude
stattgefunden
kam@@
Betreiber
fur@@
Reinigung
Pak@@
ł@@
komplexen
Schreib@@
Nov@@
Kennzeichnung
WTO-@@
blick
Inhalten
IP-@@
geehrte
typisch
fahrzeuge
Problematik
äder
turen
CD-@@
präzise
respektieren
überra@@
Organ@@
Optim@@
aktionen
Unterstütz@@
iertes
Mischung
uneingeschränkt
basis
auswirken
entlichen
Dr@@
я
Revision
klären
Nachdruck
angekündigt
4,@@
gelegene
ong
chtete
Betracht
23.
fortsetzen
zentraler
Fang@@
NL
Web-@@
Pic@@
RO
Klassi@@
zustande
arbeiteten
Reb@@
Lieferanten
eleganten
natur@@
deutliche
ht
E-Mail-Adresse
fertigung
bür@@
erleichtert
innere
41
gingen
Strom
position@@
Ram@@
Tool
öse
Gesicht
Netze
Bewusstsein
davor
zah@@
Beschränkungen
Südo@@
rufe
Automobil@@
einiges
1991
prak@@
besit@@
ca@@
AS
gebung
ambi@@
gesetz
Vari@@
2013
jüngste
wald
Plug@@
kredi@@
Mail
ting
\
ary
GAP
höh@@
bege@@
schnitt
OM@@
regionaler
sy@@
gemessen
vertrauen
ain@@
fi
äf@@
Zeitplan
rad
gestartet
mag@@
Zul@@
verpfli@@
motivi@@
Verwal@@
vermutlich
sta
ž@@
sogenannte
kohär@@
Haar@@
russische
Jun@@
wirft
Zielsetzungen
derselben
Burg
regionen
genau@@
ehe
Han@@
Edel@@
§
alisierungs@@
2012
ó
ces
bli@@
krieg@@
fes
taus@@
saal
Hostelsclub
letz@@
endgültige
Email
ausführ@@
Ministerpräsident
gepf@@
vorliegt
zweif@@
realisiert
medizinische
tausend
technisch
Wissens@@
Versand@@
empfängt
VI@@
David
Zucker@@
Fass@@
Minderheit
schir@@
VER@@
däm@@
Ci@@
Protokolls
miß@@
fünf@@
reform@@
ñ@@
getrieben
centre
Seiten@@
folge
österreichischen
Wäh@@
Eröffnung
Szen@@
ras@@
lü@@
wand
fairen
kurzer
tatsächlichen
theore@@
Lebensmittelsicherheit
loh@@
Beach
Block@@
erweisen
politiken
Stock@@
Wahrung
Schau@@
leistet
Sy@@
Lager
Gebir@@
‘
Гј@@
Übersicht
Übernahme
Bauern
pul@@
wunderschöne
Ausnahmen
stä@@
Derzeit
Betrifft
Georgien
lebenden
bers
steller
würdigen
Südafrika
Fal@@
Syrien
gungen
alo@@
Dokument@@
formular
Produktivität
erwähnten
Vil@@
Bauern@@
lischen
nicht-@@
Proz@@
Fei@@
ekt@@
instrument
verwiesen
Luf@@
inder@@
grenze
unterbrochen
Satelli@@
Gre@@
derung
anerkennen
ansch@@
ten-@@
comfortable
Erarbeitung
mann@@
vollstän@@
angenehme
about
drängen
verbindungen
Intern@@
erforderliche
genießt
einsch@@
â@@
Schlag@@
Nachmittag
wä@@
Regen@@
begründet
formuliert
erstreckt
Taten
pp
Wellness@@
geringer
gers
Händen
aux
dienstleistungen
Archi@@
Hardware
Verfahrens@@
herum
tel
lic@@
s.
¶
Chancengleichheit
paket
ling@@
G-@@
glei@@
Heimat@@
moderner
PL@@
ations
-L@@
zugestimmt
fragt
Funktion@@
verzichten
präz@@
brauch
Stra@@
einst
dur@@
Kommissions@@
iss@@
anpassen
rou@@
Großen
komfortablen
een
SCH@@
Landwirtschafts@@
vorsieht
bezeichnen
zel@@
Events
Gute
olle
geeigneten
lossen
planung
richtungen
dring@@
Tat@@
BR@@
Drogen
ursprüngliche
interessanten
mein@@
betriebe
Herkunft
wander@@
Kredi@@
reib@@
arte
ais
verabschieden
Zerstörung
sien
klim@@
Know-how
Empfang
Eli@@
mechanismen
AP@@
popul@@
Bürokratie
Rückgang
Rh@@
ausger@@
religiösen
vereint
gste
etab@@
Zürich
Abbau
ausländische
digkeit
gebühren
Lit@@
syn@@
Hall@@
zurzeit
erarbeiten
Augen@@
äußer@@
gering
aden@@
ennung
Fabri@@
ч@@
Updates
übermitteln
liz@@
ssig
Mobiltelef@@
retten
küste
schätz@@
isoli@@
leichte
haber
g-@@
avi@@
Aufhebung
ökonomische
unger@@
abgesehen
schenken
aufnahme
Nichtraucherzonen
ebt
din
gewünschte
zimmern
Zunahme
Fak@@
fuhren
eröffnen
chtigen
programm@@
Liberalen
technischer
dieselben
st-@@
Verfahrens
Privatsphäre
glichkeit
gelernt
Fla@@
Fisch
plätzen
Appartement
beinahe
Berei@@
Fremden@@
о
Wiederherstellung
wahre
Laut
Terroristen
jek@@
angenommenen
gehe
Verordnungen
USD
Klimawandels
gelangt
h-@@
habt
meldung
pfe
parks
bit
Rich@@
Kurz
gehabt
bra@@
Amerikas
angebote
alog@@
mod@@
hü@@
verarbeitet
Leben@@
dieselbe
stärk@@
verschaffen
hielt
Sens@@
ze@@
Gewinn
Tabelle
Tar@@
sicherer
fün@@
erischen
pt
aktivitäten
entspann@@
Mittwoch
vermieden
gericht@@
Angel@@
ahn
medizinischen
Fan@@
eigentliche
zugelassen
äusern
marktes
over
öffnet
DER
läufe
Alters@@
olog@@
änderungen
här@@
trieb
Anreize
04
prinzip
politi@@
europa
Tor
Shi@@
Edition
Lie@@
Konzer@@
46
arbeitungs@@
umso
Wettbewerbs
funktionen
klen
spektakul@@
gemeinsamer
Centre
zeichneten
dahin
zweck@@
Clubs
eindeutige
zuverlässi@@
modi@@
Module
dasselbe
Formulierung
orientierte
Stur@@
entlich
Steuer
relevanten
höchster
ef
handels@@
tauchen
mechanismus
Umstände
gnisse
lös@@
Sau@@
aly@@
Deb@@
blieb
befürwortet
Kapazität
Finanzen
automatische
Fahrzeug
geringe
gendes
aufgeführt
CS@@
Tru@@
industriellen
integrieren
kritischen
Händler
bestände
prot@@
kleineren
Rotary
berührt
hu@@
Begründung
Brücke
äum@@
Robert
einstellen
Lü@@
Rest@@
äus@@
Wich@@
bedauerlich
Fes@@
bit@@
Anrei@@
zeichnung
och
heutzutage
Einnahmen
arbeiter
besser@@
Wälder
Baum@@
landschaft
Office
beabsich@@
gewachsen
prüf@@
reiben
Funktionalität
any
verteilung
baut
Der@@
ère
Erhalt
zwölf
Konjunktur@@
ign@@
Schuld
grei@@
gegenseitigen
Verabschiedung
vertra@@
Ball@@
Institu@@
Fremd@@
Lieb@@
glaubt
29.
methode
free
koordin@@
Dienst@@
problemlos
streben
ce-@@
ello
fangen
krieg
26.
lad@@
Ausgrenzung
verarbeitung
ess
PP@@
University
S.@@
aufgestellt
Royal
Rec@@
gravier@@
nord@@
feste
ash@@
Original@@
pen
schwi@@
Bett
terin
Menschenrechtsverletzungen
Well@@
Tim@@
verzerr@@
Typ@@
dul@@
Meinungen
abgeben
Bevölkerungs@@
gebau@@
menge
Theorie
Thomas
sz@@
GNU
durchzusetzen
Versuche
Rechnungshof
späteren
beschäf@@
Emp@@
austausch
nachzu@@
zeich@@
Abgeordneter
beruflichen
Angabe
Besu@@
Russ@@
Sieg@@
Handlungen
erlangen
Für@@
omp@@
Objekt
platten
alien
Bürgerbeauftragten
Stufe
IC
smus
Anbindung
Lissabon-Strategie
passieren
Verfolgung
seu@@
Schaden@@
Leiter
Gut
Bedien@@
Minibar
ats@@
test@@
Techn@@
erb@@
Präsentation
è
toren
hunder@@
Kün@@
enne
tra
empfiehlt
beruhen
basieren
Jugendliche
Weltwirtschaft
Zahn@@
Marina
kr@@
zehn@@
spielte
Pr@@
Logik
Digital@@
berat@@
52
wünscht
zunehmende
Problem@@
lege
bisschen
Raums
tab@@
anger@@
47
Global
tre
Anzeige
wärts
Glas
like
bezogen
personal
Funktionieren
dacht
wertvolle
verschieden@@
nieren
Anträge
Vel@@
su
server
28.
siven
luss
erlassen
herunter@@
Nation
they
iner
kehr
verfahrens
Satelliten@@
Vertrieb
George
Fakten
machten
Demokrati@@
Aufenthalts@@
gal@@
Hum@@
Ausbeutung
Tom@@
by@@
gelegte
ym@@
inger
.org
would
Energiever@@
stö@@
Spektrum
12.00
gerechtfertigt
Konzern@@
arische
Summe
doppelt
mitgli@@
hy@@
West
schlechte
Zusammensetzung
zten
polnischen
izi@@
endgültigen
maximale
fahrts@@
Bewohner
ests
Schnittstelle
Belastung
ärm@@
mittlere
beweg@@
ämpf@@
AT
lar@@
Q
teuer
г@@
Fremdenverkehr
einführen
ressourcen
mün@@
vierte
prin@@
enswerte
ür
Außenminister
Charme
dia
unterscheidet
stag@@
benden
Spannungen
Ker@@
geräum@@
sonstige
eg
bahnen
veranst@@
gebunden
Erzeugung
European
stay
ación
innen@@
Getränke
Kuba
Gewinne
-Software
angebotenen
Vide@@
Fa@@
sou@@
wies
überwacht
Hafen@@
Ass@@
Türen
Krieg@@
stil
jeglicher
einzig
organisierten
Wetter
kostenfrei
schwieriger
Bühne
Garten@@
fahrten
gewinnt
Wesen
ologien
englischen
Anwen@@
dauern
Wind
12.@@
top@@
seg@@
Schne@@
Brief@@
normen
effizienten
konz@@
flo@@
liefer@@
ausreichende
abgegeben
verliehen
atisch
absolute
Energiequellen
beschreibt
liziert
Geschäften
Fußball@@
Ordner
felder
führungs@@
information
gestalt@@
Fans
Audi@@
Rezession
pub@@
Installations@@
Pension
Binnen@@
beeinflusst
Wichtig
fak@@
kü@@
Beurteilung
UNG
Got@@
stätigkeit
punkten
sagten
eingeladen
bru@@
passende
Adressen
Osteuropa
Van
Fischereipolitik
geplanten
ablehnen
onien
Migration
zwanzig
Kapit@@
Versorgungs@@
ments
lei
leitungen
News
ora
um-@@
individu@@
lan
gebe
schaf@@
Real@@
präsen@@
User
fiel
SM@@
einstimmig
Verlängerung
dargelegt
gü@@
Wald
odi@@
Training
Direk@@
israelischen
geachtet
Las
phys@@
Beratungen
Ausgangs@@
union
lassungen
Haushalte
Marokko
Beste
lassung
Kontak@@
Bergen
organisierte
51
lie
staatlicher
gelingen
stamm@@
schönes
Basis@@
beschleunigen
investiert
Menschenrechten
agentur
Gam@@
design
Beamten
bedienen
eignen
excellent
ärmsten
aturen
geladen
vielsei@@
Hom@@
tend
Referendum
Stock
etc
Ergänzung
Exper@@
Meister@@
Eu@@
zugute
Jan@@
ök@@
künfte
Safe
einnehmen
externe
Gran@@
eigenem
bert
gross@@
aussehen
Ungleich@@
Erfol@@
Ten@@
übt
Hostel
verstärkte
vieren
Schnell@@
vereinbarten
beri@@
Einschränkungen
Blu@@
Kaffe@@
pt@@
sech@@
Gärten
verständnis
Rahmenbedingungen
Erwägung
tags
Gebäuden
Mac
berufen
Bü@@
datei
demokratisch
starkes
ement@@
å@@
gefasst
Föderation
res
erstens
rahmen
xen
kombin@@
euch@@
rad@@
elemente
Kreu@@
Beschwerden
Peti@@
under@@
ania
Flash
Insel@@
ösen
Produktion@@
ain
Fitness@@
Mengen
ends
abili@@
linge
Änderungs@@
entri@@
work
namen
lizi@@
Monop@@
Schutzes
pan@@
Laden
fot@@
streng
Steuerzahler
mals
Europar@@
atives
Million
kunden@@
bewahrt
Boot
run@@
Traum
Konferenzen
geschafft
et-@@
anner
ausgedeh@@
Phänomen
kan
Intensi@@
Gas
aci@@
hört
gebraucht
denten
brü@@
drucken
quelle
benannt
tradition@@
Anti-@@
stattdessen
istischer
handels
Geben
box
name
stützen
kampf
Schö@@
Börse
close
Pir@@
versehen
Produzenten
gast@@
inakzeptabel
digte
Anwesenheit
eigentlichen
ypen
Airbus
Einschätzung
nachhaltig
Putin
Sum@@
Arab@@
vorrangi@@
stur@@
Kau@@
Leuten
Pflichten
Verletzungen
unterwegs
lierten
Fe@@
vorgehen
tätigen
Feststellung
Unternehmer
Verfasser
Einwanderer
gebnis
empfin@@
Bay@@
27.
teilzunehmen
Gebühr
vielfältigen
mach@@
standes
Person@@
Plenar@@
tiken
reck@@
eingeräumt
Klin@@
Cat@@
Aufnahmen
inischen
wahl
ausstattung
atten
außen@@
‚
Medikamente
PRO@@
stücke
Arbeitsgruppe
Fün@@
auseinander@@
Solche
erweise
ängen
Unterhaltung
deutsch@@
ernsthafte
beliebigen
72
strasse
sierte
Betrug
Hof
vielfäl@@
kommerziellen
stein@@
vergeben
ull
probieren
breit
Emissions@@
rot@@
überein@@
eintreten
sign@@
new
Freuen
lokaler
ingt
NRO
konvention@@
zulässig
Termin
kä@@
Metall@@
geld
Operation
oberen
Friedens
Vertretung
bank@@
kontinuierlich
ga
Innerhalb
jemals
Ed@@
discher
Arbeitgeber
Still@@
chteten
Pe@@
Mani@@
insofern
jahres@@
länger@@
flug
spätestens
ßten
Dan@@
dien@@
dachte
Christ@@
mien
Alpen
Filter
mente
kommun@@
lichste
kas
eld
intensive
Schmer@@
vo
orientierten
ausgewählten
Dok@@
erieren
eff@@
pas@@
anter
gestiegen
chtungs@@
dien
Island
LO@@
geistigen
prakti@@
Inspek@@
Bildschirm
typ@@
area
derjenigen
Mobili@@
Themen@@
führungen
Ferien
halten@@
argum@@
erneuerbaren
Frequ@@
Distri@@
Image
SV
Afri@@
Drittstaaten
Prak@@
erfasst
ruhiger
bed
erlei
ausführlich
forderte
greift
verwirklichen
üren
aro@@
Handy
bewirken
beschließen
dün@@
Mittelmeer@@
9-@@
Washington
Richter
chan@@
Konfiguration
verpflichten
enzi@@
gestütz@@
hand
Konzentration
orien
feh@@
unterstütz@@
Mehrwert
reser@@
schöner
produzi@@
bili@@
Inkrafttreten
verzeichnen
liger
untern@@
Radi@@
Konflikt@@
oper@@
uen
teste
Grundsätzen
behandlung
stür@@
if
abilität
rom@@
Geräten
Künstler@@
24-Stunden-Rezeption
Jung@@
Köln
irische
boden
kompl@@
größe
27@@
Team@@
Heil@@
igungen
Pla@@
emen
zunehmenden
Hit@@
Rußland
erheb@@
tes@@
blichen
Krisen
Rubrik
Tochter@@
alleine
Work@@
Gewi@@
Trend
ück
Tür@@
respektiert
hor@@
bestens
Def@@
räum@@
orienti@@
Cro@@
räu@@
Portal
Client
deutlichen
Ausübung
symboli@@
tran@@
modernes
unvergess@@
geograph@@
ader
kriterien
big
U-@@
Konstruktion
Balkan
ausgesch@@
demokratischer
änder@@
Pul@@
periode
Saal
stigen
Ank@@
ruft
legten
weitaus
sek@@
wahlen
ruf
port
Restaur@@
endung
erweiterten
plötzlich
Kongres@@
Kreuz@@
realen
schlüsse
Verluste
gelegten
vierten
Grünbuch
wirkungs@@
eindrucks@@
Erbe
Sitzungen
Techniken
EG-@@
verletz@@
Kö@@
Rein@@
Profil
Zeich@@
ordnungsgemäß
zeitgenöss@@
erbaut
Private
BI@@
Gerichten
Bahn
Port
beob@@
Ausschüsse
fenster
Gentoo
tum
initiative
inge
Unsicherheit
54
Kreativität
Muster
Feier@@
Gespräch
Merkmale
heim
Hunder@@
zielt
Wiederauf@@
ès
MB
gefährden
gerung
sonstigen
Höh@@
berichte
nisses
typische
stung
affung
zell@@
gesundheits@@
listen
anten@@
Konzepte
stabili@@
Fir@@
uter
Fernseher
Foto@@
fortgesetzt
schaff@@
angelegt
Bud@@
vertreter
trennen
Tö@@
Sony
Bot@@
verni@@
mul@@
basierte
Beschluß
pak@@
bindung
schein
bedauere
feiern
anien
ester@@
Breakfast
niedrig@@
PO@@
Kirchen
TO@@
konstruktive
glieder@@
Tourismus@@
voneinander
Herrschaft
analy@@
gesonder@@
vernünftige
bewiesen
Tä@@
kg
Französisch
frischen
komfortabel
Storni@@
Kräften
erörtert
ô@@
eingeschränkt
visu@@
ence
Pot@@
flicht
schwieri@@
normale
Rassismus
Scho@@
Experim@@
wirksamen
ohnehin
demokrati@@
ont@@
ics
angewiesen
produkt
Besteuerung
beizutragen
Alltag
super
bearbeitet
Innovations@@
Gipfeltreffen
meldungen
qualifizierte
tiefe
Mittelme@@
din@@
Gä@@
bereitung
vorbehalten
Äußerungen
Linien
U-Bahn@@
Studium
Umsatz
Juli@@
Palace
Bewältigung
Unterlagen
issen
einzugehen
shand@@
sheit
Adobe
Unterzeichnung
m-@@
Angriffe
leid
folglich
part
AKP-@@
cho@@
than
May@@
spiegelt
ungeh@@
wendung
ub
häl@@
Os@@
ax@@
unterbreiten
Erfolgs@@
näh@@
enha@@
parti@@
transparent
Kapazitäten
real
getötet
französ@@
luß
Ner@@
Distribution
Erforder@@
erreichte
sätzen
vernünftig
frucht@@
5,@@
fizi@@
eilung
ump@@
mobile
light
völ@@
bürger
DA
sierungs@@
verkün@@
kritische
kämpf@@
kle@@
asen
Art.
bew@@
inf@@
Güter
Anhörung
Aktivität
realistisch
Medizin
Konkurrenz
verd@@
arm@@
Wettbewer@@
schnei@@
konzipiert
orientiert
beru@@
II.
entr@@
Halle
Büros
bilateralen
beherr@@
Verteidigungspolitik
globaler
Pack@@
angeblich
schließe
Neues
achtet
technologische
verschmutzung
elen
lehnt
ektor
Energiepolitik
Beschäftigten
ager
Bou@@
Einfl@@
echt@@
Vorfeld
zte
Ähn@@
alter@@
zwischen@@
Schle@@
ses@@
flexible
ute
erwähnte
Drei
fühlt
profession@@
Puerto
tika
Illu@@
Dublin
köst@@
treff@@
ologi@@
nachdenken
ältere
Attraktionen
interpre@@
organ@@
neben@@
Live-@@
Flugzeug
austau@@
Stei@@
übermittelt
bi
betten
Vorgaben
äck@@
band
basierten
traums
aw@@
ös
Intervention
halt@@
Motto
gefangen
Karriere
steuer
schrittweise
interessi@@
nische
Kla@@
ami
namens
aufgerufen
Wert@@
ethnischen
restaur@@
Lasten
tnis
nation@@
·
Bedienung
bestän@@
voran
detaillierte
Datenschutz
Foundation
FT@@
geräten
ellem
dep@@
dend
fehler@@
Mes@@
p-@@
chens
verantwor@@
Prot@@
aktualisieren
Getrei@@
inbegriffen
einhalten
Wirtschaf@@
üch@@
Bezahlung
mi
marquis
Prävention
konzep@@
verwalten
2.0
Justiz@@
innov@@
Fluggesellschaften
lierte
versicherung
ysteme
ron
ranken
live
Schwarz@@
Flugzeuge
Missbrauch
Mei@@
Fax
located
EW@@
Kongress
technologischen
begrenzte
dt
reiz@@
Entwickl@@
Champ@@
endgültig
abkommens
alternative
Optimierung
Frü@@
Rand@@
edern
zerti@@
örtlichen
ieb@@
zielen
eingerichtete
konstitu@@
vorgesch@@
derartigen
Frühjahr
Zü@@
erfolgte
Diam@@
Hügel
Komit@@
gefährliche
ehrgei@@
Lehre
behinder@@
gefährlichen
strengen
Show
exklusiven
ahlen
zips
militär@@
Kabel@@
Strasse
konzept
beruhi@@
Regulierungs@@
Besitzer
gratis
nbsp
se-@@
Abstimmungen
Papier@@
Übereinkommens
abhängi@@
kontrollen
ular@@
östlichen
Fähr@@
ema
aufgaben
Lehren
Eigenschaft
angeschlossen
stoß
waff@@
ico
Regionalpolitik
verzö@@
Transaktionen
Regimes
Med@@
EIN@@
schließ@@
Free
Subventionen
Hektar
Einkommens@@
verbesserte
stran@@
registriert
beurteilen
russ@@
Express
getre@@
übergeben
statisti@@
sport@@
Luxus
terrasse
beiträgt
größerer
gesammelt
Minder@@
Ecke
leidet
Katastrophen
runde
zeitig
haft@@
üste
klär@@
Abenteuer
Entspannen
Professor
grenzüberschreitende
ahl
Darin
stens
komplex
registri@@
Gum@@
änderung
konsequ@@
kurzfristig
lit@@
abschließend
ähn@@
Bul@@
tic@@
mithilfe
Blan@@
gutem
riff
Dienstleistung
faire
Intelli@@
Skri@@
gewisser
verwen@@
Besuchern
Dritter
Das@@
Fenst@@
qualifizierten
zeuge
Städ@@
realisieren
i-@@
rec@@
other
Zurück@@
86
unterbreitet
kritisiert
heb@@
1,5
begleiten
IK@@
schö@@
esti@@
dlicher
kas@@
diplom@@
Bewegungen
würfe
TH@@
Entdecken
multi@@
hervorra@@
status
UM@@
Subsidiarität
Budapest
fang@@
lichkeits@@
Gefängnis
abel@@
liegende
Geg@@
Plus
Play@@
erinnere
sicherungen
bevorzu@@
vorteil@@
seits
biegen
rie@@
Risiko@@
Mem@@
wiesen
wahl@@
C.
press@@
erörtern
Ali@@
unn@@
New@@
Ach@@
falschen
ernden
gi
anschau@@
schlechten
tags@@
gewinn@@
Vertei@@
schie@@
regul@@
Touren
Taus@@
stag
Merk@@
Prozent@@
Seri@@
б@@
akzeptabel
Gegenwart
Export
endungen
10-@@
Gepäckraum
fertigt
mäßigkeit
strenge
sperr@@
all-@@
brenn@@
Soweit
Mallorca
äden
Futter@@
geeign@@
ausführen
ulen
Zimmerservice
Erwer@@
reiber
Betroffenen
ume
Zuständigkeiten
interessieren
ratifiziert
hung
Ufer
gewünscht
einher@@
berühm@@
Anweisungen
äle
herrliche
й
Ged@@
ermutigen
Gewinner
Gran
Reich
Wort@@
erläutern
thaf@@
enttäuscht
Arbeitnehmer@@
monat@@
beizu@@
Pflege
detail@@
Wille
womit
schrieb
kulin@@
zin@@
unerlässlich
Aktualisierung
-Seite
Metern
außerord@@
organis@@
extra
sierten
Jag@@
krank@@
schiff
urg@@
suite
rechtfertigen
bilder
Kurse
wör@@
Reaktionen
cs
Sky@@
Tennis@@
Erweiterungs@@
Vergnügen
Übersetzungs@@
lässi@@
Überarbeitung
Schengen-@@
LE
herz@@
Kit@@
Chr@@
Arbeitsbedingungen
Vermittlung
68
kö@@
por
Rand
Vorsitzender
gang@@
inos
Referenz@@
entrums
mb@@
weißen
oner
erzielten
schaftsp@@
Technologi@@
Galerie
Gemäß
Schrift@@
industri@@
reichung
sem@@
ра@@
Lad@@
solide
Spezialisten
Vereinigung
Schatten
night
Gestatten
mas
view
elektron@@
xis
Bür@@
or-@@
cal@@
Bewertungen
leitet
fliegen
islam@@
museum
Hotelsafe
entscheidet
smitgli@@
meistens
beschei@@
geholfen
japanischen
Realisierung
ministerium
makro@@
fangs
teure
vorn
bevorstehenden
beschreiben
ent-@@
Genuss
PDF
notwen@@
Zufriedenheit
negativ
-System
tägliche
deutscher
Sig@@
erläutert
Spre@@
Flüchtlings@@
eux
lohnt
Ret@@
schreck@@
registrieren
ansonsten
Israels
Bilanz
Zusammen
71
Sex@@
Weltbank
Tochter
unzureichend
positionen
berufliche
Fahrzeug@@
Branchen
potenzi@@
ausgelöst
grundlegender
konsul@@
loses
Schwimmbad
Sound
vorhin
parallel
gefäl@@
agne
lass
änen
legitim@@
bildungs@@
sexuellen
Palästinenser
Asi@@
Arzt
ols
ento
gres@@
konto
zeigten
Gipfels
bul@@
Dikt@@
proto@@
Textil@@
Schu@@
Herberge
signi@@
kommende
etr@@
hüb@@
mündlichen
potenti@@
Anregungen
tigste
norm@@
beleu@@
Transfer
dri@@
Benutz@@
bist
Armen
Verantwortlichen
terer
erneuerbare
halb@@
53
Heimatland
Entdeck@@
ränk@@
Tragödie
kultur
ritt@@
ques
ängt
Lat@@
ret@@
verwöhnen
widri@@
eingest@@
expor@@
spruch
Verhand@@
erworben
Cha@@
Symp@@
ignoriert
ökonom@@
bedenken
Gesprächen
agen@@
blu@@
Autoren
Rande
66
Ministerrat
drück@@
Last
kund@@
Performance
Verträgen
ville
Brow@@
fehl@@
Beri@@
ystem
Gewerkschaften
üblich
Abstand
verwaltet
teilgenommen
ökologische
IV
ska
Abschluß
Anreise
Moder@@
Lebensmitteln
keinesfalls
nutzbar
niens
Beruf
Heili@@
Danke
Studien@@
Resolution
unkt
Tempo
nötigen
Erkenntnisse
Amtszeit
56
Tschechischen
unnö@@
idealen
fizierungs@@
schungen
bekräftigt
best
ältesten
Ol@@
ine@@
droht
sender
ließt
Güter@@
implementi@@
bezauber@@
gesetzte
orten
Gö@@
Orts@@
Lebensqualität
Weiterbildung
Sowjetunion
Buchungs@@
Saf@@
Massage
Canon
klass@@
tigkeits@@
Tem@@
eur
Cl@@
Service@@
been
della
cou@@
befu@@
Zahl@@
Übersetzungen
eingebunden
Mitglieds@@
vi
sst
dein
Anhang
angeben
Seen
schützt
Software@@
Java
v.
Effekte
Atlan@@
Unterdrückung
angest@@
Moskau
Autor@@
Impf@@
194@@
iste
gio
Sech@@
ühr@@
Aktien
Playa
sekt@@
trau@@
blä@@
grüne
sum
gigen
kritisch
Erkenn@@
ecks
Fur@@
teilungen
geführten
6,@@
händler
verhäl@@
künstler@@
Batter@@
Einzelnen
under
Konstru@@
Fahrrad@@
dru@@
weiterzu@@
angefangen
Mittelmeerraum
Gesellschafts@@
set
Bab@@
umfass@@
jeweilige
Litauen
Büro@@
ungeachtet
gegenseitige
integri@@
Wartung
Integrations@@
W-@@
begeistert
Vir@@
thin
physi@@
institu@@
sw@@
irgendwelche
Programmier@@
Att@@
bran@@
verabschied@@
Aufforderung
einheit
Ein-
klassische
esische
Erzeuger
Unabhängi@@
zellen
therapie
hersteller
Konzep@@
jed@@
einzelner
Investition
Wochen@@
racht
Schattenberichterstat@@
gesunden
endete
sel
internationales
spei@@
ektion@@
fertigen
erlei@@
ablen
Manche
Heiligen
Aufenthal@@
üs@@
bot@@
gieren
eingerichteten
reibung
dreht
exklusive
Wachstums
Trink@@
Finanzmärkte
utzen
Rahmenprogramm
bün@@
par
Rak@@
such@@
Empfänger
ämpft
mitgeteilt
stecken
q
lehnen
iler
vorkommen
ants
öff@@
reichhal@@
pal@@
Chr.
beträchtliche
sied@@
lossenen
TE
Indem
analysieren
verhe@@
digten
atischer
alit@@
oti@@
Community
Taste
en.@@
umfang@@
verkehr@@
Arbeiter
Solar@@
Libanon
gewählte
92
Ausstellungen
kompletten
riesige
ensystem
Beratungs@@
Europa-@@
Fris@@
Behinder@@
Strateg@@
vermis@@
gkeits@@
zurückkehren
James
wäh@@
messe
ruhen
forderten
einzubeziehen
tender
erw@@
lager
Einwohnern
gesell@@
ausgearbeitet
überwiegend
bauten
schieben
vereinbar@@
wenigstens
öffent@@
Tickets
Gir@@
lehr@@
Einschränkung
kra@@
Dep@@
Trends
niederländischen
Finanzmittel
hiermit
fach
seiten
Mazedonien
Betriebssystem
einzuhalten
Instruments
reine
Gerichtshofs
Wiener
these
ickt
verschiedensten
Les
senk@@
sonni@@
pass
Tel
met
Parall@@
Milit@@
hinein
gesellschaftliche
vergleichen
olo
Tari@@
hard
Karten@@
korre@@
AN
ð@@
tritt@@
ernste
genehm@@
ey@@
sprachigen
59
Apart@@
Gü@@
Malta
verkauf
chem@@
Haushaltsplans
musik
Legislativ@@
einziges
endem
Differ@@
ero
währ@@
aufweisen
Analysen
Budget
etz
EM
fluss
enorm
herauszu@@
strafrecht@@
ritt
Glob@@
Jahrzehnte
Mir@@
kompatibel
reform
Heran@@
Konsultation
rüst@@
deinen
Islam
tex@@
beider
Sä@@
konsolidi@@
engag@@
Ratsvorsitzes
Zauber@@
Zusch@@
inhal@@
amer
lem
bezogene
Wahr@@
einheiten
wirkungen
Nicht-@@
mot@@
Caf@@
Servic@@
Mah@@
messer
mieten
vereinfachen
Prei@@
gebühr
Data
gegenseitig
Gaz@@
verträ@@
Verkäufer
bestell@@
H-@@
Ausfahrt
samkeit
übersetzt
Mobile
Gitar@@
genehmigt
Niemand
klarer
berech@@
undes
ofs
til
stätte
Pilot@@
änger
betrag
58
Sound@@
landes
Sozialdemokraten
Famili@@
ity
Bli@@
Beruf@@
unteren
Barri@@
leit@@
reiten
erzi@@
äufe
Dach
Anhänger
abwechslungs@@
deutet
Instrumenten
Tak@@
Arzneimittel
Audio@@
sende
föder@@
vorherigen
esta
mass@@
town
nennt
Scheitern
Koch@@
Live
Kernel
ausgewo@@
bliche
frist
Flotte
Skla@@
dent
untergraben
gefällt
Tan@@
denselben
dunk@@
dazu@@
bekanntesten
ftung
place
Up@@
Temperaturen
tional
ausgewogenen
ordnungs@@
jährliche
Stau@@
Meg@@
gekauft
Fig@@
nitten
Halbinsel
traur@@
Betre@@
kreis
Auslegung
zö@@
ätz@@
cre@@
Stattdessen
zerstör@@
US-Dollar
Bisher
Entwicklungszusammenarbeit
liberalen
Inhaber
Absichten
azi@@
reis
zuverlässig
nat@@
info
kennen@@
einzel@@
erend
blatt
Ursprung
Gegens@@
ekte
film
Flüge
Archiv
schaden
frisch
akzept@@
ags
wohn@@
eigen
Sper@@
Parlaments@@
vorherige
unterhalten
traum
löst
Repräsent@@
bewähr@@
ennt
Industriel@@
jahrel@@
eria
immer@@
Sin@@
sorgfäl@@
kommerzielle
alig
Kathedrale
Richtlinien@@
niedriger
Je@@
freundliches
agten
Kontin@@
engagiert
projek@@
Profession@@
UND
statten
Temperatur
berechtigten
orts
onds
Chem@@
Et@@
vernachlässi@@
Strei@@
eken
Lager@@
verehrten
aupt@@
cherung
bemerkt
freies
Bed@@
Seh@@
3D-@@
ı@@
durchgeführten
längere
begangen
Ernährung
intern@@
cken@@
J
Verhältnisse
Partei@@
Feld@@
nit@@
Dir
©
Reh@@
sexu@@
reibt
versetzt
idealer
Service-@@
Verstärkung
Flag@@
auswärtige
when
thilfe
Vizepräsident
häu@@
Kompromis@@
Leidenschaft
Sha@@
Physi@@
ball
beeinträchtigt
vorsichtig
Häu@@
gige
Eigentümer
harte
Kernkraft@@
woll@@
jähri@@
zigen
cherten
my@@
Berater
Marktwirtschaft
Chin@@
amtierender
Dol@@
Geschäftsbedingungen
sämtlichen
Bedingung
App@@
effektiver
Berichterstattern
disch
BMW
geschlagen
Partnerschaften
herrsch@@
anspruchs@@
Entstehung
bezahl@@
Geist@@
ungarischen
äußerster
aul@@
Komplettpreise
wiederhol@@
aufgehoben
Hochschul@@
Hamas
durchsetzen
konfli@@
Implementierung
üre
emissionen
Life
top
ok
Power
Diensten
Inst@@
A.
Corporate
verhandeln
Sz@@
orte
Marketing@@
MySQL
haltenen
g.
stabilität
hotel@@
ote
schneiden
stro@@
chron@@
Rep@@
Montage
bewertung
befürworte
wirkung
Hoh@@
Luxus@@
lagen@@
friedlichen
aufwand
Jur@@
zahlreicher
Quoten
Piazza
antwor@@
Initiativ@@
Vorsitzende
Geschenk
Erste
Internetseite
führender
Küchen@@
beseitigt
analyse
Bosnien
mes@@
Basi@@
Fragestunde
unterliegt
abzielen
mord@@
schrif@@
sicherheits@@
Mann@@
Dienstag
bedingt
europä@@
ausgelegt
Jugoslawien
Renten@@
schlage
stärkeren
ori
egelung
schnitte
Perspektiven
bre
Slowenien
XP
Präsidentschafts@@
größt@@
site
Cu@@
ium
aufeinander
Micro@@
gleicher
sitzung
tionelle
bricht
jo@@
errichten
gebilligt
entran@@
Rit@@
M.
Host@@
Aktions@@
Kohärenz
tom@@
überlegen
kei@@
Italien@@
erober@@
lasse
mission
gerichtete
kontak@@
ements
Ern@@
Zugleich
schläge
Zins@@
intelli@@
Flughaf@@
Besich@@
Standard-@@
Onlin@@
88
besteh@@
EU-Ebene
Kost@@
Koordination
amerikanischer
Taiwan
kontroll@@
ees
Beendigung
hebt
ssigen
weis
Variante
reduzi@@
Gau@@
nes
gebrochen
zusammenzuarbeiten
abe
versi@@
einzigartig
rak@@
mus@@
Origin@@
Thermal@@
frag@@
schnelles
rachte
verwand@@
Zahlreiche
rasche
schlechter
Ausgang
Gelände
DIE
Verbre@@
Öko@@
Hierbei
Café
konfigur@@
hilfen
igten
verhältnisse
Ernährungs@@
Feuer
etter@@
Enth@@
Aufwand
projekten
Aktiv@@
Textes
Flug
ops
Brief
lück@@
regelmäßigen
BS@@
wendungen
jähriger
erhol@@
bach
small
Swimmingpool
verbrau@@
skosten
Einheiten
niedrig
ust
Schwimm@@
arab@@
ulieren
sprechend
strä@@
verleiht
67
sendet
Kredite
Spor@@
malerischen
Opfern
einzurichten
wofür
tausende
freiem
Gesetzes
geordnet
derte
anzen
aster
Palästina
Beobachter
ament
bedien@@
day
maler@@
Luftfahrt@@
Überwachungs@@
etzung
Cur@@
rig@@
ice
portugiesischen
Besonderheiten
mie
Schmu@@
ffer
Ankündigung
Migrations@@
neueste
CD@@
Charak@@
gäbe
ommission
Az@@
wick@@
würdige
diesmal
einzelstaatlichen
vielfalt
chem
Europol
finanziell
irgendeiner
inn
plant
57
glücklich
Schla@@
beliebten
vielfältige
personenbezogenen
bestimmung
biologischen
ua
gelöscht
besticht
Spuren
Award
LAN@@
eingereichten
Eigentums@@
Ereignissen
meter
Aussichten
án
Administration
partner
Gegenstände
Grafiken
effektiven
Punk@@
auszuüben
masch@@
Uhr@@
belegt
Fünf@@
Gelegenheiten
Vergleich@@
nördlichen
nutzung
Ander@@
chester
frequ@@
ino@@
Blick@@
bas@@
Bis@@
Auseinandersetzung
anischer
Befeh@@
alp@@
American
Verzögerungen
diensten
7,@@
intensiven
Reihenfolge
gas
digit@@
Segel@@
CS
begrenzten
steckt
Wie@@
Elementen
kost@@
onischen
Entwick@@
Tipps
eni@@
zerstören
Not
schwerer
gehörigkeit
Gewis@@
Sand
deln
Cou@@
DO@@
я@@
konstruktiven
funk@@
Kommissare
Stadtteil
Eintritt
Fehlen
Ok@@
änger@@
Trek
Mehrwertsteuer
verstoßen
Dam@@
Bünd@@
besetzt
Fleisch@@
Vorbereitungen
verankert
sinn
entstand@@
Zinsen
Ga@@
ones
could
einmalige
Entschließungen
Verzögerung
Armuts@@
nützliche
Fli@@
aufrechterhalten
uliert
gesunde
block@@
text
stoßen
wachsen@@
DV@@
Est@@
leidung
Baby@@
Fall@@
Bildschir@@
mmen
ables
Architekten
back
Beschl@@
klares
schlimmer
veranstaltungen
Kra@@
Sorgfalt
cel@@
Moderne
Siehe
Fron@@
Tee
Designer
zukünftig
gerechten
müsse
anbietet
Datenbanken
Zur@@
Event
zi
beacht@@
höhe
ecke
eign@@
ignorieren
comp@@
Europä@@
E-Mails
3D
Legitimität
ext
gelang
warmen
Kandidaten@@
breites
appe
out@@
zumal
reicher
40@@
ordneten
Beweise
Untersuchungs@@
auseinander
kalischen
Kämpf@@
some
reale
EP
Juden
verliert
normal
Gemeinsam
Spei@@
Organen
aterie
finanzieller
Party
Dich
Room
Reak@@
türkische
schulden
verfüg@@
Kandi@@
EV@@
orie
AF@@
Whirlpool
mengen
Fast
flüge
Immobili@@
a.@@
lob@@
Kommissionsvorschlag
bereitzustellen
Zit@@
Oli@@
start
steigenden
ght@@
größtenteils
Fertig@@
zent
manu@@
Fire@@
luxuriöse
analysiert
Konflikts
lief@@
Tendenz
scheu@@
lex
Premi@@
bedauern
zukunfts@@
Genf
wenigsten
griechische
Aufruf
junger
Stahl
Wetter@@
chambres
menü
tors
vermögen
zustand
wissenschaf@@
gewiss
lick
Vene@@
ies
Arbeitsweise
undenen
Freien
Eintrag
Manchmal
Integrität
ermitteln
trock@@
Techni@@
Reichtum
uten
rus@@
Randlage
mitzu@@
vention@@
unmittelbaren
mehrerer
anden
Edi@@
zug@@
Deine
verschoben
verschieben
genauen
Tatsachen
erische
familien@@
Stein
і@@
belgischen
Kluft
Effektivität
angs@@
Christen
Erleben
entiert
angehören
müh@@
Begriffe
Än@@
Wahrscheinlichkeit
Organis@@
Home
unterstreicht
mittag
Folglich
Nic@@
abstimmung
wolle
Kanal
GR@@
Golfplatz
USB
Abgesehen
Bour@@
Spek@@
Zwangs@@
Trennung
Mom@@
fter
startet
ga@@
lands@@
effizient@@
Ruh@@
Schwieri@@
enten@@
bon@@
Business@@
verbesser@@
Diplom@@
Zut@@
Snow@@
wünschenswert
selbe
punk@@
Aufträge
Material@@
begreifen
Kopie
stabile
gemis@@
landwirtschaftliche
ege
View
Schalt@@
-TV
Rio
energie
vit@@
29@@
Skype
schuldig
asiatischen
own
atom@@
AD
Top
Km
Weißbuch
CO2-@@
bot
Acht
High
Kais@@
inien@@
wus@@
iPhone
zutiefst
Index
häuser
Grupp@@
Trag@@
blau@@
Architek@@
Box
Vogel@@
strö@@
verknüpft
Stabilitäts-
format
entfern@@
Gastfreundschaft
Features
Nuklear@@
Devisen@@
ding
oria
Ira@@
Abonn@@
unvergesslichen
gesi@@
bedeutendsten
etern
Zigar@@
Energieversorgung
Argentinien
Seever@@
beglei@@
Fac@@
fristig
ausgestatteten
rum@@
Rechnungsh@@
flotte
Aro@@
Adri@@
Vorbild
dauerhafte
Gebrau@@
verband
Unterhaltungs@@
Governance
Virus
Panoram@@
Defizite
Ausgleich
umfassendes
bestellt
sexuelle
ea
Install@@
ENT@@
Vista
Inneres
63
gewann
PD@@
gegebenen
besseres
vil@@
parlamentarische
ordnen
vorne
Hierzu
indire@@
streng@@
Inhal@@
Glaub@@
Große
großzügi@@
Proph@@
authenti@@
luft@@
Leid
ateg@@
aufre@@
unbe@@
rats
Menschenhandel
zip@@
schätzung
sträger
wurfs
nachvoll@@
bereitstellen
friedliche
ye
schmerz@@
sl@@
geklärt
weich@@
Bay
their
Sof@@
Jahresbericht
Hinsichtlich
Europa@@
Parks
Vorwand
Dur@@
stunden
Fischer@@
beitreten
endo
befriedi@@
interessen
starker
Ty@@
Ton
Blut
Il
umgekehrt
Religions@@
atur
bedeutend
ix
kapazität
Zwecken
Euror@@
mo
Wechsel
optimalen
enhäuser
Schlei@@
wa
ströme
AC
Profi@@
institutionen
Inv@@
Wellness
minutes
Neb@@
stig
Vermeidung
Publik@@
Central
Tunesien
gesto@@
Spielraum
zugän@@
arium
menten
zeitlich
Kart@@
Dolmet@@
außergewöhnliche
leihen
südlich
Altern@@
kunst
Om@@
straßen
setzungs@@
Zulassung
anstelle
mehrmals
gefolgt
E-Mail-@@
Qual@@
SA
müßte
ausgezeich@@
materialien
Geschlechter
Mauer
ham
mol@@
Zubehör
SW@@
azz@@
ßte
Zäh@@
vierung
Zusammenbruch
atte
Meer@@
Erreichen
vorsch@@
ausbildung
korrigieren
atorium
Funktions@@
Thailand
entworfen
max
abgel@@
stün@@
Voraus
Mart@@
Beachten
durchgesetzt
erwar@@
Leistungsfähigkeit
mittlung
erei@@
Territorium
bereichs
Green
ford
getestet
Verein
Apple
geltend
untereinander
gehörte
attrak@@
übrig
splan@@
BO@@
82
wesens
Lobby
chemischen
Befehl
initi@@
wunderbare
betrug
ausgebaut
We@@
tot@@
berger
dei
Standpunkte
benen
vertei@@
unverbin@@
automatischen
mündliche
entschei@@
Zugangs
Wurzeln
Christdemokraten
bereitschaft
Telekommunikations@@
Kunststoff@@
altern@@
bietern
islamischen
ET
Nationalpark
Nä@@
Hintergrund@@
Neuigkeiten
Stütz@@
verbindlich
emandem
erschienen
zeitraum
Ganzes
Barcelon@@
leichten
gesorgt
verglichen
beliebt
Offizi@@
gebir@@
Komponente
vorhandene
Frankreichs
entrum
Netzes
achtung
Abfälle
Peri@@
Vorredner
korrekte
Möchten
Tschech@@
Nord
latt@@
eta
vorangegangenen
sson
Kreis
kompliziert
Ausnahmer@@
ald
wuchs
Rem@@
bles
veröffentlichten
hl
weisungen
Portu@@
Logo
Wohlbefinden
-Sh@@
spezif@@
maßgeb@@
gerichteten
debat@@
gebenden
dol@@
runden
GN@@
zwangsläufig
akten
dauerhaft
Ep@@
archi@@
belegen
systematisch
wozu
glück@@
Lau@@
vers
Grundfreiheiten
Albanien
AR
abends
kurz@@
Gesetz@@
Front
Abstimmungs@@
wen
datum
Zielsetzung
Mode
Anzeichen
Il@@
schwarzen
erschien
Präsidium
schau
Heim@@
Salzburg
Informationsgesellschaft
genügt
Rahmens
weitergegeben
abteilung
NI
wandern
Ersatz
üben
fache
direk@@
Anders
ago@@
CE@@
Cir@@
Kirk
Zuerst
stieg@@
sieb@@
Berechnung
CDs
Formul@@
Priv@@
sun@@
drehen
Arbeitskräfte
räder
nachhal@@
spit@@
Libyen
kauf@@
OR
4-Sterne-Hotel
Ernennung
onisten
gipfel
fischen
ausgewogene
Contain@@
enor@@
rats@@
Ari@@
revolution@@
Captain
hinzuweisen
Hilfen
sozusagen
passenden
Reiseb@@
Ord@@
geschwindigkeit
defizit
netze
diverse
weitem
maß
neter
arch@@
Hoff@@
appar@@
schulen
ammlung
Tagungs@@
Maus@@
pläne
schau@@
gültigen
PDF-@@
haftet
bemerken
Pack
Energies@@
Fertigung
fehlende
Klar@@
unglaub@@
einsei@@
Geschichten
enstein
Semin@@
Versand
Laser@@
Maxim@@
atisi@@
Betrugs@@
ank
einzustellen
geschätzt
förmi@@
langjährige
ware-@@
80@@
qui
EX@@
situ@@
Menü@@
is-@@
Festung
Simbabwe
diente
Original
CHF
unterhalb
UC@@
Internation@@
ination
Engli@@
Mehrere
77
anmelden
Stränden
herunter
ölle
ferenzen
industrielle
Män@@
Erfin@@
Dörfer
Ero@@
Spi@@
gedruck@@
üns@@
Binnenmarkts
cherweise
verbieten
reichende
Mailand
tnis@@
riffs
sters
ausgedrückt
Speicher
kamera
89
Informations-
Energiet@@
Wahrnehmung
fair
def@@
Rock
ide
Mühe
Stimmung
Lap@@
acken
Gor@@
Mitwirkung
Ratspräsidenten
Konflikten
jen@@
Gemüse
Key@@
Lux@@
ж@@
69
Streit@@
vermehr@@
Islam@@
Charles
yp
order
Fuss
Gleichbehandlung
begüns@@
Landschaften
besagt
Klim@@
Liqui@@
lern@@
thaus
auer@@
gebrau@@
Num@@
schreiten
Dringlichkeit
ulierung
bevor@@
wahrnehmen
Reserve
Schlacht@@
Ursprungs@@
ов@@
Sou@@
religiöse
lam@@
Stuttgart
62
Mittel-
Sämtliche
ild
Applikationen
benachteili@@
Nat@@
Verkehrsmittel
erweiterte
stunde
schwedische
DR@@
anstreben
ultur@@
Bir@@
leute
schicht
Solange
anderswo
Auswahl@@
späten
verwirklicht
qualit@@
stufen
samm@@
Konzert
Mä@@
part@@
endsten
geschätz@@
verbreiten
großartige
Det@@
ahl@@
Einladung
kanische
äter
tatsächliche
Univers@@
Grö@@
ING
ц@@
A5-0@@
durchschnittlich
Zentr@@
dbar
tauschen
abgehalten
Vermarktung
Kommand@@
Pfer@@
entwickel@@
wehr@@
Tot@@
Parlamenten
900
büro
stattung
cli@@
м
Unserer
gangenen
Durchschnitt
gische
Ann@@
Swiss
dekor@@
RS@@
Stellenwert
erre@@
indirekt
aktiver
oul@@
Progno@@
fundament@@
Veranstaltungs@@
Pon@@
gä@@
93
statt@@
prüfung
News@@
Besteller
ssige
Verw@@
Sensibili@@
Statt
freundlicher
traditionell
antiken
otten
Petitions@@
ating
Konzerte
vorschlägt
modernis@@
Automobilindustrie
anteil
sichert
Substanzen
Fun@@
Argum@@
Rechtsan@@
Vielmehr
Finanziellen
Etik@@
Porto
deb@@
atemberau@@
KOM
Visi@@
benötigten
defiz@@
U-Bahn
Mitentscheidungs@@
Ärzte
splans
tol@@
Bier
Konkurren@@
Wunder
het
Casa
strategien
73
H-0@@
deutlicher
wickelt
Annäherung
Verantwortungs@@
Schlu@@
NO@@
dent@@
Taxi
ř@@
prochen
bewirkt
Anmerkung
aming
erfreu@@
kalische
Alexander
Indonesien
häufiger
bestä@@
jo
gegrün@@
rise
Kabel
andal@@
eingang
Abend@@
Zellen
Schiffen
verstärkten
vorrangig
betreibt
abzielt
Jahrzehnt
Bestand@@
Beton@@
9,@@
Gefän@@
Toil@@
spieler
EP@@
most
gezielt
Impulse
K-@@
Verbindungs@@
soll@@
Spanisch
loss
Video-@@
berg@@
verbot
gründlich
verschwinden
Aufrechterhaltung
Assi@@
inne
Projektes
Benutzern
Statistik
Lot@@
heil@@
Welthandelsorganisation
FA@@
61
gericht
You
Egal
Board
Mich@@
cl@@
Zugangs@@
ter-@@
Gefangenen
Ideal
fließen
Krä@@
begren@@
Mensch@@
Bö@@
versuche
Digit@@
Coll@@
Poker@@
tiefen
wichtig@@
einbringen
Zentren
Kommentar
eingeben
Umstrukturierung
kommens
Brit@@
Künstlern
Cr@@
ehrte
harten
arien
Literatur
Sicherheitsrat
Kön@@
zweimal
Einwände
Begegn@@
pap@@
aker
ov
zulässi@@
beantragen
Put@@
Drin@@
till@@
star
Gerne
irre@@
deu@@
anfangen
kommunistischen
pack@@
adel@@
Studios
ě@@
vereinfacht
mitglieder
üst@@
Behinderungen
Einblick
stoppen
Berich@@
allmählich
fahrzeugen
Treibhausgas@@
Norwegen
Berlin@@
ausführliche
wende
Sicherheits-
Minderheiten@@
Selb@@
erreichten
Patri@@
iern
Digital
Fokus
after
Schil@@
Kühlschrank
anlässlich
klimatisi@@
ø@@
institution@@
damaligen
setzten
hinterlassen
tat
Ebenfalls
beliebtesten
beantragt
Stich@@
aloge
niedri@@
prü@@
ao
installi@@
andes
Freie
dat
UN
latein@@
bekam
Vorstand
PPE-DE-Fraktion
veröffentlichte
76
fac@@
shof
drücke
Eleganz
pot
verteilen
beeinträchtigen
Interessen@@
timm@@
dänischen
personenbezo@@
äler
benutzer@@
Indikatoren
Räumen
Ansätze
Fristen
befür@@
Schaf@@
ansä@@
Abwicklung
energ@@
ures
äs@@
sever@@
Suchen
Arbeitslosen@@
Kompromisse
schä@@
erfor@@
chst@@
frische
moralische
fähiger
France
Nahrungsmittel
zeitige
beding@@
inspiri@@
porte@@
Gefangen@@
erstat@@
mache
te-@@
ender@@
UNO-@@
Route
vernünftigen
Wach@@
gebo@@
packen
ventionen
Nachbarschaftspolitik
klausel
Gesetzen
Doppelbett
lier@@
licht@@
ink@@
Nero
eau
ektionen
Demokratien
5.000
rechnung
Kommunikation@@
persönlicher
Kosme@@
Operationen
Infrastrukturen
ken@@
mar
holung
Reden
Ev@@
Nachteil
Zeitungen
zon@@
tu
nnen
städtischen
Versu@@
ener@@
zuverlässige
Schnei@@
ms@@
sser
ow-@@
Griff
SL@@
Amp@@
ha-@@
Rats@@
kompetenz
auftritt
eichen
CN@@
Square
nachzudenken
anzugehen
rieb@@
befreien
Generalsekretär
Foren
äuß@@
Spir@@
heirat@@
tem@@
koordinieren
ausgest@@
Lor@@
rom
unen
Direkt
Lay@@
verbin@@
Nation@@
Alkohol
Sicht@@
dringen
Spielern
94
schieden
frühere
gerechnet
touristischen
Airlines
Sortiment
Fertigungs@@
sweise
Gleichheit
Risik@@
gene@@
Rub@@
Hir@@
GT@@
ко@@
Verpackung
gesetzlich
fertig@@
lische
Teilnehmern
Säule
oms
king
Augenmerk
Diktatur
meint
Währungen
Finanz-
geschicht@@
walt
hütung
Forst@@
verhandlungen
Allgemeine
cer@@
air
beweist
Anreiz
ierend
Funk@@
user
DEN
Rap@@
Schiffs@@
Schm@@
Aufsicht
Signale
Verbrauch
optimieren
ML-@@
maßgeschnei@@
überflü@@
Statut
höchst@@
Sofern
Lev@@
ühle
One
Space
faktor
bark@@
unvermei@@
EE@@
lot
Redebei@@
samen
wissenschaften
ital@@
Orientierung
Exek@@
Millenni@@
Pay@@
stanz
itt
Busse
lux@@
cur@@
u.@@
Sol
vorausgesetzt
versu@@
mangelnde
aal
Workshops
Kranken@@
efer@@
c-@@
Hunger
Haut@@
By@@
Loc@@
Human@@
ßes
schäden
letztes
sag@@
saubere
fis@@
zel
regelmäßige
Jahrhunderte
Inflations@@
dene
scho@@
Internetseiten
Very
immerhin
Haft@@
öhnung
Gesamtheit
to-@@
erinnen
Kühl@@
Dre@@
vorhaben
hem@@
ausgeübt
kir@@
Übertrag@@
besichtigen
Spra@@
Kaiser
Glet@@
vorbereiten
differenzi@@
Somm@@
dynamischen
schien
hinzuzufügen
rem@@
но@@
gesetzliche
eft
fikationen
dauerhaften
feier@@
flexi@@
zügen
Institute
Tep@@
träglich
Richard
Alb@@
Black@@
tolle
Dafürhalten
zip
ständ@@
Repar@@
behindert
euert
Sierra
who
einlad@@
78
firmen
Milli@@
ernannt
Passagiere
Rab@@
Jap@@
qm
hotels
Einfluß
Insofern
engagieren
Entschädigung
Lamp@@
koh@@
Solidaritäts@@
dreh@@
berühmt
pfli@@
Konver@@
teres
Bag@@
gelag@@
Point
grundlage
Nichtregierungsorganisationen
Autonomie
Alpen@@
abgestimm@@
kenntnisse
sist@@
aten@@
Bruder
stärke
brachten
enthal@@
produ@@
two
ero@@
into
ison@@
Früchte
Protok@@
einsetzt
umpen
riebenen
stahl
Neu
mut
votes
arme
schaftlich
artigen
dun@@
starb
streichen
Unternehmer@@
banken
herausra@@
Persön@@
Kondi@@
gebor@@
adresse
too
bekräftigen
ord
Provin@@
begab
renovierte
Grafik@@
Infrastruktur@@
Völkern
School
investitionen
ergrei@@
teilte
fron@@
bungen
undes@@
Erneuerung
Termine
ernd
male
latt
verschul@@
facilities
Naturkatastrophen
bezogenen
erkennbar
Geburt
global
fortschritt@@
On
first
serv@@
angeführt
Nachbarschaft
Phili@@
SC@@
englische
neg@@
Anpassungen
andau@@
don
pflan@@
römischen
τ@@
ständiger
Trä@@
poli@@
Einbindung
Rhein@@
identifizieren
air@@
gesendet
Cast@@
Š@@
zugreifen
zunehmen@@
Jav@@
echen
zügi@@
Pharma@@
findung
ziehung
TV-@@
gefügt
vorzubereiten
bis@@
ries@@
xis@@
kanz@@
350
Möbel
llt
Maßstab
Aff@@
kostengün@@
seitdem
ball@@
nen@@
isierten
nd
preises
Lun@@
Main
ро@@
fortzusetzen
wertes
60@@
brut@@
Top-@@
Schottland
Dienstes
chtig
ula
ologen
ernde
sowje@@
ünd@@
Campingplatz
PSE-Fraktion
Beförderung
genes
wachen
mah@@
Privi@@
Mitarbeiter@@
länge
bewundern
stechnik
Joseph
zusammenzu@@
Zeile
webe
Rechtssicherheit
Deut@@
billigen
irgendwo
erzählt
Erstellen
optionen
ION
lichung
91
beu@@
Gefähr@@
Sehen
Kleidung
Kameras
ils
Umgeb@@
Mountain@@
Stellungnahmen
schwä@@
Weihnachts@@
Ganze
Prof.
Music
beglückwünsche
Gültigkeit
heu@@
Hung@@
Sternen@@
ummer
Cab@@
Lond@@
erfassen
IA@@
Pfei@@
genutz@@
tur
Control
GE
ventions@@
festhalten
Stil@@
geholt
Fair@@
Muse@@
ards
tari@@
Hoffnungen
Hist@@
Musiker
Adap@@
acc@@
Bed
abzulehnen
how
Auftraggeber
Resultat
zivilen
kör@@
Netzwerke
illegal
wettbewer@@
eter@@
Nokia
Mitgliedsstaaten
enswerten
Haushaltsjahr
Leist@@
Prü@@
SE
umen
zern
GU@@
Paradies
verkauf@@
ersuchen
erschüt@@
wache
roten
exist@@
wertvollen
PA
Flach@@
karten@@
architekt@@
erfahrenen
Angeboten
Journ@@
Herstellern
Audio
Master
Inanspruchnahme
gefei@@
elli
ordnete
Demokratisierung
Ungleichheit
Quadrat@@
behei@@
Lust
Vergü@@
Ansprechpartner
vielfach
sprüche
Lobby@@
Vorbehalte
Fis@@
strecke
Direktor
echni@@
gesenkt
Entschließungsanträge
Hongkong
Kampf@@
Rohstoff@@
card
fotograf@@
Angebot@@
enster
ungsanlagen
perman@@
tchen
erkenn@@
dynamische
ttern
Innov@@
Explorer
Sozialpolitik
offensicht@@
adet
Erschein@@
Konsum@@
geschlossene
leist@@
Obst
ory
Esp@@
geschmackvoll
Gegebenheiten
bedürfen
Zentralbanken
ographie
Gegenwärtig
Komplexität
Labor@@
bücher
én@@
Preis-Leistungs@@
Executive
TE@@
board
Guide
außergewöhnlichen
V.
Erkrankungen
Gläubi@@
windigkeits@@
kreu@@
Ros@@
English
spunkte
Entschei@@
eß
laufende
medizin@@
führend
rischen
Ganzen
blicke
Real
Infos
länen
ring@@
stabilen
Begeisterung
mobilen
insel
familie
Sevilla
aktivi@@
MA
schätzt
enter@@
Interview
Milch
Formel
alternativen
Ostsee
einstellungen
.net
internet
niedrige
aktions@@
Gebi@@
Italiens
versamm@@
SD@@
Dienstleist@@
modernsten
Schluß
81
gebnisse
Hoheits@@
Streitkräfte
Rücken
world
grundlegend
Redezeit
ausmachen
aufweist
entation
Beschaff@@
transatlantischen
tler
gemeinschaftliche
fläch@@
Kanäle
Rü@@
Persönlichkeiten
diversen
Dutz@@
Konsumenten
Später
koordiniert
Breite
dürften
beobachtet
annehmbar
Fahrzeugen
tschechischen
geschütz@@
westliche
Quartal
unterstrichen
Entwicklungspolitik
Partnerschafts@@
ruf@@
ы@@
Detail@@
Höhepunkt
Aufgaben@@
treibung
Sieb@@
audiovisu@@
tels
sive
geräumigen
rahmens
Peking
kore@@
bö@@
Kalender
BER@@
ji
wiederhole
unternehmer@@
olen
cker@@
unweit
baute
lus@@
bo
Vietnam
verbindliche
dahingehend
Zutaten
Dest@@
ausgewählte
apel
geschützten
manager
kopieren
But@@
benachrichtigt
EA
anwendungen
Tibet
Wör@@
Kurs@@
Linken
Brem@@
elf
bestraft
ín
dy@@
Klick
Störungen
Flüchtlingen
Gesundheitswesen
ér@@
Straß@@
bekämpft
Nichts
elung
Erwerb
amtierende
Stör@@
ode
Forscher
Antrieb@@
vorzuschlagen
sein@@
Außengrenzen
öst@@
Meister
Nutzungs@@
illa
bearbeitung
sensi@@
rüger@@
Kernenergie
Fäl@@
grenzt
attraktive
packt
Mittag@@
dan
ede
Zivilisation
geschle@@
basierend
ated
GO
dd@@
gespei@@
Unternehm@@
abzuschließen
Generaldire@@
Besetzung
Listen
Nachfolger
oberfläche
CO2
lichere
Minimum
gewand@@
verlust
Norm@@
Spann@@
bildungen
re-@@
Beitrittsverhandlungen
massive
sand@@
red@@
Entdeckung
ad-@@
500@@
voranzutreiben
begriffen
Chaos
mas@@
riffs@@
ador
services
Content
199@@
lok@@
atz@@
direkter
fünfzehn
ehl
versetzen
ml
PK@@
Flüssi@@
Ausstellungs@@
inen@@
amtierenden
ausgestellt
car
element@@
vollkomm@@
gründe
hell
abgeschafft
ore@@
Hunderte
Kari@@
ausgebil@@
änderungsan@@
verlängert
beachtet
jenige
duktion
worauf
Zinssätze
Lauf
serie
Lissabon-@@
ört
74
beratung
Landwirten
án@@
Veget@@
Kapitalismus
ax
cas@@
Richtigkeit
Krimin@@
legislativen
dichte
täten
taten
volumen
wunderbaren
IM
ekten
strebt
doppel@@
2,5
klassi@@
glicher
Vertrau@@
Kindes
therapeu@@
zufriedenstell@@
Maastricht
bewahr@@
österreichische
Ran@@
Buchstaben
Nan@@
zulän@@
engruppen
lingen
onds@@
Bundesrepublik
ammern
nä@@
Therap@@
kirche
forderungen
Beispielsweise
verweist
Autorität
Quad@@
Var@@
BM@@
tt
Strafgericht@@
schlags
Saint
Kamp@@
mittel-
dram@@
rang
Teu@@
spartnern
Display
expliz@@
schwäch@@
dorthin
Immunität
preisen
schlägen
Kle@@
beherbergt
autor@@
Horiz@@
gewöhnliche
low
ränkten
hrt
serklärung
fehler
Panorama
vereinbaren
efs
main
warm
gemütlich
trieb@@
affen
Aller@@
freiwillig
massiven
zweit@@
business
zeile
Geschäftsführer
Tanz@@
instru@@
Weiter
europas
verschärft
bewäl@@
Fest
che@@
votre
Zukunfts@@
geber@@
abschließen
Temperatur@@
Sab@@
Publikationen
fix@@
fundi@@
begrenzen
Diejenigen
umm@@
ly@@
ws
Master@@
Zustellbetten
Artikels
einzuleiten
markiert
versprochen
blockiert
indischen
komplizi@@
wertet
flich
religi@@
Ferienhaus
Residence
bedauer@@
Ziels
halben
gefahren
alisch
festgehalten
Ath@@
Kreatur
walk
Fragestell@@
ausgenommen
Jac@@
non
irgendeine
Konvents
Abwei@@
Moldau
rumän@@
kunfts@@
ault
ink
DN@@
Songs
Königreichs
Rechen@@
tierenden
2015
Zentrums
erhöh@@
hang
bedient
iranischen
CON@@
Technology
α@@
angemessener
inwieweit
Rollen
Vertre@@
Anwendungsbereich
schwach
Ära
LA
gemachten
I.
ão
Wanderungen
Free@@
phase
Gesicht@@
ön
Standorten
Anzeigen
tions
fizierten
bereitgestellten
Bestimm@@
Artikeln
aufhören
Lieblings@@
dicht
ce@@
beeindruck@@
team
Tastat@@
Treiber
chtern
Gewährung
87
gratuliere
Beträge
Gutes
Alkohol@@
ANT@@
Turni@@
gesu@@
oth@@
HO@@
bedroh@@
neo@@
künften
Unterricht
Gepäck
ausgeben
Weltkrieg@@
Voraus@@
Gegenden
sämtlicher
dierung
saison
fahrt@@
oter
ney
ý
gestrichen
ausreichen
Olympischen
Geldpolitik
beruf@@
obenen
legend@@
Kamer@@
ć
Akzeptanz
ürzt
vereinbarung
nahen
Pub@@
vez
Gleichwohl
größ@@
abhängen
Aufklärung
herrschen
multilateralen
übertrag@@
schaftlicher
legi@@
bestanden
Gedanke
even
Strecken
einrichtung
Mark
ausgeprä@@
ras
tätigkeit
schiff@@
vert@@
right
such
zenten
Lizenzen
abschluss
Hof@@
cos
diesbezüglichen
Etage
Schließung
kreative
wieg@@
schlimmsten
profitiert
Zucker
Afrikas
gt@@
Glücks@@
sozial
Inzwischen
modelle
Michel
ores
Kloster
rachten
hoff@@
pflegen
Bedürf@@
quoten
Jean-@@
198@@
anspruchsvolle
sus
elegant
Wandern
Hindernis
partner@@
sachen
ermittelt
energi@@
CR@@
Kanz@@
ept
CO2-Emissionen
Kompromiss@@
ер@@
porte
wandeln
berau@@
Werken
Saddam
Musli@@
food
Nikon
ен@@
durchschnittliche
der-@@
Super
männ@@
technologie
beam@@
konkre@@
sparteien
unbest@@
Krei@@
Ama@@
Rohr@@
Schauspiel@@
Account
optimiert
bewegungen
Bedrohungen
Release
Friendly
unmittelbare
ausgewogen
europa@@
fru@@
ausgerüstet
kommunizieren
m.
Norm
terungen
Charakter@@
Schwerpunkte
Rev@@
Europäisches
attraktiven
Zwischenzeit
Verbin@@
Nutzern
aire
Level
Arena
Daraus
Verhinderung
urs@@
Vorsicht
ausgeliefert
cas
artig
B5-0@@
Tagungen
Laut@@
ond
Freizeit
grafischen
gebucht
ан@@
Fülle
Banken@@
christ@@
and-@@
Düsseldorf
Präsent@@
Gewer@@
ertem
diplomatischen
UL@@
pragm@@
Masse
intelligente
folgte
180
Einsch@@
auszur@@
fers
made
gehand@@
bekanntlich
deckung
Szene
usi@@
anzusehen
kunde
Elektriz@@
ond@@
Etagen
Datent@@
pflanzen
Gehir@@
salon
Benutzern@@
ausgehend
wirksamer
vergleichbar
chtige
laufend
Meinungsäußerung
Endes
virtuellen
home
really
ь
kunft@@
Zeitalter
Auflagen
Übermittlung
Wall@@
Ori@@
Ticket
Register
Wissenschaft@@
wirksam@@
zurückkommen
Schätzungen
Jahreszeit
Auslands@@
herrschaft
eventuelle
Monte
mittelalterlichen
reservieren
Stro@@
Therapie
betreut
NE@@
gezahlt
Vertriebs@@
Davon
Balkan@@
selek@@
pflich@@
Folgendes
hôtel
Sitzungsperiode
abzugeben
Schritten
Bestrebungen
Cer@@
then
archit@@
Medizin@@
eras
män@@
TV@@
geräumige
Sozialisten
winkel
stufe
Monats
schriftlichen
Darauf
serb@@
Verwen@@
Spiels
Dienststellen
gerlich
Viel
Befu@@
Epo@@
onte
dell
Brosch@@
Jer@@
unterschied@@
Telef@@
erzeugung
westen
öser
Quart@@
Hyper@@
geschenkt
leuten
ankungen
Recy@@
wirtschaf@@
Folter
langes
Ansprüchen
verhandelt
Erdbeben
wissen@@
morgens
Behandlungen
100@@
Rezep@@
Bonus
gessen
forum
83
lege@@
Genauigkeit
Chinesen
utern
schon@@
erholen
Gil@@
Wäscheservice
scheinbar
asch@@
gerungen
pas
anbieter
genommenen
Ungleichheiten
Pfad
aufrufen
Schwach@@
keiten
Bürgerrechte
Heiz@@
gebot
schaftlichen
verwandeln
zusammengestellt
Nordkorea
Gay
Überleben
zonen
trinken
Zyper@@
Beleu@@
tou@@
people
regelungen
Schlußfolgerungen
betragen
over@@
merken
abo@@
dest@@
dität
Leucht@@
Plugin
110
möglicher
ton@@
selts@@
beunruhi@@
unglaublich
Defizit
Nachteile
Subjek@@
Flächen
Fotogra@@
vermieten
Theater@@
Formate
roffene
einbeziehen
Allein
perfekten
yr@@
bürgerschaft
fossi@@
Isol@@
verdanken
Assozi@@
beut@@
Häusern
versorgen
ttä@@
Visum@@
ego
Erfassung
ungsmaßnahmen
Katastrophen@@
verträge
Toleranz
gewöhnlichen
Räumlichkeiten
privater
genz
Sammel@@
ungsum@@
ados
Herzlich
Hotelzimmer
HR@@
Haltestelle
по@@
Flexi@@
Hochschulen
klarstellen
gebrachten
Konzern
terten
jemanden
ordnet
wehr
themen
eits@@
Bewegungs@@
GF@@
brand@@
beeindruckende
miet@@
erhebt
speisen
eilen
problemen
Übereinkunft
Vermögen
Vorgang
verbundene
erzielte
Modell@@
Tut@@
steuerung
Kriterium
steigende
Berech@@
ho
ace
ettes
ancen
fizierte
spät@@
Wissens
Kyoto-@@
veranstaltet
Berat@@
biologische
age@@
ë@@
Zertifizierung
zulegen
irgendwann
St
traf
Chile
künstlerischen
sichten
Ay@@
umen@@
Bügel@@
herbei@@
Dialog@@
Stabilisierung
Anschließend
Terr@@
priv@@
Interface
amente
Al
gefertigt
Aufpreis
Management@@
Copyright
Pazi@@
Maur@@
Klang@@
le-Distribution
dringlich
wurf
Reinig@@
nig
artikel
illi@@
Schuh@@
itz
Trock@@
smo@@
spunkt
Zuliefer@@
lien
jk
LAN
heimischen
bigen
Network
Blä@@
Palast
Helsinki
läufigen
gh
Instabilität
Finanzielle
Ostse@@
gg@@
Tschetschenien
wirst
HU
wenngleich
solven@@
Tiefe
Gru@@
jet@@
anzuerkennen
radio@@
gangene
untergebracht
Schlacht
Höhen@@
tics
steine
Gemeinschaftsrecht
getei@@
zuführen
italien@@
abschließ@@
Phasen
höherer
Art@@
Source
Desktop
explo@@
Haushalt@@
Erhebung
gels
Erweiterungen
verschlüssel@@
Len@@
did
nähe
exzellente
spru@@
kultureller
berge
Them@@
Felsen
Industriepolitik
einhalb
Mitgliedsländer
Nar@@
quali@@
Migranten
Umstellung
Quer@@
1988
Reichweite
Fischereiabkommen
tivi@@
unternehm@@
eigent@@
überwälti@@
Korea
opf
zugang
lief
Frühstücks@@
riebene
erwarte
add@@
Linux-@@
belastet
Fundament
mord
zusetzen
Eck@@
personen
Arbeiter@@
buffet
Anleitung
Ausgab@@
Begrenzung
bestehend
Verwand@@
Buffet
ueber
zuständige
ington
Dör@@
heitliche
Aufstieg
Co.
Konfigurations@@
zuhalten
drängt
Kohäsion
gieb@@
Benz@@
schwarz
fig
bör@@
eo
standard@@
Verhaltens@@
solidar@@
einrichten
Bandbreite
Louis
Territ@@
ied@@
Funktionsweise
machung
Säu@@
Metro
HD@@
schlicht
stützt
endste
Interpretation
irgendwie
Sign@@
Modellen
Kongo
leiste
Eisen@@
Sprit@@
Leipzig
ukra@@
Eingabe
kritisieren
Ergän@@
Entscheidungsträger
Gestalt
ationale
forder@@
Mannschaft
Luftverkehrs@@
altungen
beruh@@
Zusammenfassung
Basel
stetig
Mittagessen
8,@@
ICH@@
his
LIN@@
†
ergänz@@
gewaltige
auseln
problematisch
schweigen
Begleitung
stärkt
nischer
130
log
No
Lis@@
flexiblen
verlu@@
funktions@@
felt
geld@@
Beobachtungs@@
Datens@@
eri
Place
schlim@@
behindern
ungsphase
nachfolgenden
erhielten
Verbündeten
Finanzminister
Folge@@
vollsten
Zeitschrift
verknü@@
asten
vorgesehene
disziplin@@
Chef
Phot@@
LT
HTML
bathroom
errasse
ehenden
mittelstän@@
tritts
versprechen
sache
ffern
erstre@@
eland
Ven@@
übernahm
Tabellen
cal
erhöhte
Gewerk@@
wahrgenommen
Beibehaltung
SQL-@@
Beschäf@@
Konsolidierung
pflicht
existi@@
widerspiegelt
n-@@
übertragung
Suites
annehm@@
Ausschüssen
Stockholm
exakt
Gesprä@@
konkurri@@
weren
offizi@@
besuchte
Erziehung
einigt
Fund@@
-Spe@@
uch
anerkannten
ettet
ringen
strom
chi
text@@
beauftragte
lasten
Griechenlands
versuchte
enab@@
ake
Sudan
CE
Appart@@
pfei@@
fro@@
cherte
Blei@@
Breit@@
ggf.
Wikitravel-Benutzer
aufhalten
Visa
japanische
01.@@
Stor@@
verantwortung
Ech@@
Erkenntnis
erbringen
sky
zed@@
mietung
aufw@@
Estland
magne@@
Klaren
Warcraft
Hauptziel
pel@@
unzählige
etwa@@
Unterbre@@
Christian
heruntergeladen
Boutiqu@@
Arbeitszeit
aufgeführten
ital
erstklassige
geeinigt
gehalt
Texten
relevant
bilität
Darlehen
Fuss@@
befreit
übergreifende
räf@@
Valencia
Reisenden
cc@@
DC
oph@@
Cafés
Jak@@
op-@@
Rechtsrahmen
trug
lowak@@
unkten
Reparatur
grafische
Palma
Auskunft
aufkommen
Wollen
israelische
van@@
prozessen
Rin@@
Grab@@
ult
Vul@@
Dü@@
gründete
Sec@@
Konvergenz
vereinbar
erlaub@@
demselben
Bestände
füllung
schnitt@@
Militär
debatte
rung
Goo@@
Haupts@@
Rohstoffe
Motoren
potenziellen
d.@@
DVD-@@
kostenfreien
Prüfungen
Instrument@@
Ins@@
Hinzu
Gemeinschaft@@
esenen
rückt
Ih@@
verkörper@@
Prim@@
verursachten
maßgeblich
partnern
Anleger
verläuft
Sozialpartner
ators
christlichen
Gew@@
mediterran@@
turm
Vill@@
korrigiert
emm@@
1986
zwecken
gängi@@
unkte
artier
restaurants
Ly@@
westlich
potenzial
Dolomiten
aufrechtzuerhalten
univers@@
Sekret@@
gter
Versicherung
Plattformen
pension
Fotografie
Shutt@@
Siemens
AM
ttaus@@
Verschlechterung
Zusagen
Passag@@
spläne
holt
urch@@
genetisch
Korrektur
Ministerpräsidenten
total
bahnhof
Erwachsenen
anci@@
vorzugehen
geheim@@
verlängern
Patten
wohnt
Wohl
versorgt
Übersch@@
nos
OK
var
echnologie
asien
gemeint
Nav@@
eriums
Engineering
Lösungs@@
fran@@
zierung
Machen
Ersten
Gebäudes
oll
rot
eingetra@@
Maus
entsprechender
fisch@@
eili@@
wünsch@@
unkomp@@
Besucher@@
älteste
Franzosen
vernicht@@
definitiv
nö@@
folgedessen
blich
skal@@
ütte
Turm
Gremien
Spannung
Nordirland
ystems
schmer@@
KO@@
Kamin
Touristen@@
bedaure
widerspiegeln
Berechn@@
now
begeben
gelass@@
sau@@
utt@@
glichkeiten
Subsidiaritätsprinzip
gängig
positives
Dunk@@
EURO@@
Verpackungs@@
alkoh@@
84
Jan
ott
Behandlungs@@
Kron@@
Diagno@@
akzep@@
Kompetenz@@
Stadium
bestätigung
Müt@@
mächtigen
Öff@@
Flas@@
Emo@@
gelegentlich
verwandelt
nomin@@
euern
andi@@
experim@@
Einsparungen
open
на@@
Konferenz-
Überwindung
anre@@
plung
Ste@@
Vollständigkeit
situationen
aufgeben
zeug@@
Logistik
ties
widmet
entnehmen
zügig
beugen
Appell
anschauen
Ursprün@@
Komplex
reihe
sports
demnächst
histor@@
Erwäh@@
Potential
Pakt
Periode
Leu@@
Sports
zir@@
ali
Wärme
teilten
bilaterale
mutz@@
wälte
verbrauch
reiches
Birma
Sicherstellung
erzählen
Stern@@
Wärme@@
ed-@@
Dresden
tradi@@
schten
Auß@@
dom@@
Run@@
eingenommen
transparente
oberste
Ric@@
Gesi@@
Wagen
afrika
Job
entfernten
Hall
Durchführungs@@
stelli@@
sätzlich
juristischen
stellbar
Herstell@@
Kontinents
ektur
chin@@
Firefox
verteidigt
überdenken
Warnung
stellvertre@@
ku
beheben
arbeitenden
dras@@
bun@@
1945
t-
aufnahmen
sfer
Hypoth@@
Amerikan@@
Tauchen
Wart@@
añ@@
Downloads
Wiederein@@
einheimischen
verwendete
Ermitt@@
Gesetzgebungs@@
plä@@
Preises
Jahrestag
Aussehen
Harmonie
Akademie
Schnee
ule
Fahrrad
Ticket@@
Sandstrand
Tragen
Handhabung
Bemühen
para@@
weiterentwickelt
asser@@
Flusses
mischer
atis@@
stischen
robu@@
Messen
Mot@@
territorialen
definierten
Arbeitsplat@@
üssel
side
Terrorismus@@
Security
Spy@@
schwächen
vorherseh@@
beschleunigt
strukturellen
von@@
Ergeb@@
wall
unterschiedlichsten
Woo@@
Band@@
Geschäftsreisende
vernünf@@
untersagt
Seminare
rass@@
Hob@@
Cel@@
Biokraft@@
Max
disku@@
Karl
beauftragt
beloh@@
icken
Kompromiß
medien
Bibliotheken
Inneren
wit@@
Designs
sh
Windows-@@
hervorzuheben
beunruhigt
privileg@@
steil@@
wöch@@
Verkehrsmitteln
kehrungen
esk@@
Drucker
1980
beihilfen
Viertens
Kommissars
Unser@@
Delegationen
repräsent@@
agte
Angehörigen
Stoffen
limm@@
ränken
alist
Hannover
ht@@
Rath@@
ästhe@@
CH
Konservativen
getroffenen
aktion@@
Blau@@
Viren
chtest
Propag@@
erbe
hochrangi@@
Spekul@@
öcke
Association
BE@@
-Hotel
gewaltigen
Korrektur@@
günstiger
Allgemein@@
galt
restrik@@
muslim@@
Wand
hinnehmen
Schwächen
entre@@
katho@@
front
charman@@
ewi@@
zin
idyl@@
akter@@
Asyl
bedeutender
gescho@@
Lande
nitt@@
foli@@
Daneben
Olymp@@
ausgegangen
anscheinend
sames
Werkzeug@@
multilater@@
extremen
Int@@
low@@
Angestellten
Nachtleben
ę@@
belebung
Leb@@
Chemikalien
aufrecht
einfaches
Mos@@
verläss@@
tic
zufriedenheit
Mineral@@
bom@@
Algerien
Filmen
skep@@
durchschnitt@@
Gewässern
geschah
peri@@
Arch@@
vereinen
Dokum@@
Mitbürger
platt@@
versichert
Momente
toff@@
79
auswahl
Tap@@
club
synchron@@
entziehen
Kollek@@
uneingeschränkte
Gesichtspunkt
Sto@@
anken
selt
schte
Religi@@
A.@@
osteuropäischen
berechtigte
Strafe
Ansehen
Einerseits
formulieren
Beschränkung
euren
blauen
tie
Fax-
Hôtel
Verhaltenskodex
Aufstellung
Gewähr
katastro@@
Kriege
Treib@@
Epis@@
Merc@@
There
Veranstaltungsräume
aufgegriffen
stabil
nächstes
Alter@@
sar@@
Protot@@
Pfeiler
gewähr@@
Freilassung
beginn
glän@@
ova
Nächte
Meilen
birgt
Schulungen
Klassen
polizei@@
Standor@@
belast@@
Netto@@
gekrön@@
stad@@
spiegel
Sw@@
sprachige
Halt@@
ogra@@
mitzuteilen
ultur
Damals
territori@@
zucht
höher@@
Kontra@@
bestimm@@
agenturen
Stab@@
Interventionen
gewichte
appelliere
Streben
Genau@@
Durchschnitt@@
Eff@@
Schluss@@
Verwenden
horizont@@
entscheidungen
Unregelmäßigkeiten
alige
gründet
schaftliche
Verpack@@
anschließ@@
Löhne
erzeugnisse
ask@@
ava
dner
Lieferungen
Gemeinschaftsebene
unternimmt
Einleitung
Garanti@@
Exempl@@
herkömmlichen
nov@@
amp
schär@@
abgedeckt
annter
Volkswirtschaft
verarbeiten
1985
tien
Multimedi@@
read
iPod
unzureich@@
freu@@
belastung
betreffende
Erwachsen@@
access
Zo@@
Vin@@
Impul@@
Dauer@@
kenne
litten
wissenschaftlicher
Ausgleich@@
Commerce
onal
entdeckte
Keram@@
ouver@@
geehrter
Welle
gänzlich
Dav@@
wünschte
stellern
bürgerliche
Schuld@@
ul
roler
easy
zusammenhän@@
veranlassen
ehrgeizige
Schulz
Avi@@
repräsentiert
Nigeria
teilnehmenden
komfort@@
Rechtsprechung
shaushalt
Ents@@
stechnologie
Aufteilung
à@@
Disk@@
Gegen
Schwanger@@
haltest@@
gewahrt
station@@
bestrebt
Hab@@
erium
Leser
grundsätz@@
Gesetzgeber
einschlägigen
Befürchtungen
gangen
Demon@@
Blumen
dimension@@
isierte
passi@@
Psych@@
IE
Oper
Terminal
Werde
в
gemeldet
verbesserten
brin@@
iel
Autonom@@
Elite
1987
elektrischen
eas@@
Einfach
Inhalts@@
Auszeichnung
bil
Ausserdem
vertrieben
reinen
ordnungen
tü@@
dachten
Klausel
Sym@@
Plätzen
Sul@@
lieferung
tica
train@@
Gemäl@@
parking
Freihandels@@
maxim@@
Heb@@
Jerusalem
Spiegel@@
Edinburgh
herauszufinden
zivi@@
loten
Franc@@
zweites
ami@@
Aufbau@@
wiederherzustellen
geplante
Eis
beliebige
pä@@
keln
Entschul@@
wirtschaft@@
Seel@@
roll@@
vorüber@@
bester
Sauber@@
agement-@@
Riviera
ń@@
Palästinen@@
β@@
gekürzt
Jon@@
überwachung
zweier
vorwiegend
Wohlergehen
Exporte
Hen@@
KG
Tou@@
UNESCO
ο@@
Politikern
Anstatt
steil
Deutsch@@
beach
schwachen
nein
aya
igte
Schauen
anf@@
handelte
Reisende
modus
Ausbruch
Gleiche
Erwärmung
num@@
Schriftliche
Wellnessbereich
obliegt
Wechselkur@@
Lom@@
Regier@@
tsprü@@
Münzen
komplex@@
er-
deutsch
sil@@
veränderten
häufigsten
verlor@@
enttäu@@
Genfer
geprä@@
steigerung
Gründer
Variablen
polnische
win
Tempel
house
Germany
Solarium
Heraus@@
umfangreiches
aussieht
Botschaften
unverändert
angekommen
Spaniens
hofft
band@@
Chef@@
double
OLAF
lebens
verse
spektrum
Symbole
grö@@
Times
Toskana
tseite
Autovermietung
fur
GUE
halts@@
Gefühle
aufgeteilt
Übersetz@@
Sili@@
éri@@
Marco
Nei@@
Anpass@@
Verstöße
gedenkt
uft
stuhl
historischer
Aufstockung
Armen@@
geschlossen@@
Mobil@@
Quark
unum@@
wachstum
Diskussions@@
zyklus
zeugt
weiß@@
Herzegowina
behilflich
Größen
Trainings@@
Festivals
Wiederaufnahme
Tank@@
ihrerseits
lagern
überschritten
Verhältnis@@
faktoren
ows
FC
Unfall
einräumen
obgleich
terte
sensiblen
Persönlichkeit
temperat@@
Anbau
fasste
sphase
Evaluierung
Genehm@@
Protektionismus
denzen
tier
verlaufen
ähnlicher
abzustimmen
Flugzeug@@
äne
Bron@@
sé@@
Varianten
ь@@
besorgniserre@@
zeitigen
großzügig
kab@@
Besatzung
verweigert
Einwander@@
AIDS
Nahrung
äres
Ashton
Lebensbedingungen
Stärken
folgendes
untersu@@
echtes
Bestandteile
lägen
stitu@@
älen
unterstützten
Galax@@
befes@@
Photo@@
verzeichnis
Obst@@
super@@
Holiday
Applikation
ganzes
UR
unüber@@
Invest@@
anik
diagno@@
einwand@@
hinausgehen
igkeiten
gerei@@
richtete
ischer@@
Erzeugnissen
afri@@
gewöh@@
sn@@
unterrichtet
Gross@@
Meeres
gängigen
Beantwortung
prüft
ebung
isen
Belastungen
Vic@@
300@@
befürchten
folgend
eda
Verzeich@@
halbe
vergabe
bud@@
olf
rüstung
tilien
Erdgeschoss
Badewanne
Bonus@@
AND
PC-@@
schlu@@
Anmel@@
ual
distan@@
mem@@
Lettland
ühlen
eus
Risi@@
stan
sitzt
organisator@@
ethnische
einzeln
Berichterstattung
Teilnehmer@@
nette
Acc@@
away
Vot@@
angebot@@
orientieren
Misch@@
QU@@
Vergabe
bitt@@
unt@@
studierte
ains
schrecklichen
rede
europaweit
Vern@@
liter@@
erledigen
verfü@@
rechnet
Verfas@@
gie@@
Wunder@@
Blair
geni@@
Pflan@@
ici@@
verfasst
Alliance
unglück@@
vermei@@
räsidenten
evo
loc@@
Kohle
Planet
Sem@@
Filter@@
räumt
wesent@@
längeren
Erleichterung
daraufhin
Stoff@@
Fut@@
Kolumbien
Fische
Kä@@
virtuelle
30-@@
arz@@
üpp@@
Flair
sont
gere
Schriften
Brun@@
risk@@
zwingend
Teils
effizi@@
Jean
Vieh@@
Paar
ägyp@@
price
Villen
Rettungs@@
Wäldern
fachen
zurufen
sahen
beeindruckenden
etta
Minim@@
Experten@@
Schienen@@
ückt
gerweise
Sün@@
migr@@
schwar@@
rez
Fahren
Serviceleistungen
Leiden
Fili@@
Organ
gefährlicher
operieren
ausschließ@@
derartiger
zusätzlicher
hielten
ophi@@
nisch
gnet
sofor@@
ky
arta
gekl@@
Biom@@
einfluss@@
Dienstleistungsrichtlinie
Streit
Füßen
justi@@
Verheugen
Auseinandersetzungen
persönliches
unvergleich@@
gleicht
befin@@
exportieren
ción
quiet
Editor
х
überarbeitet
richtlinien
Größen@@
ehrgeizigen
ellen@@
direkt@@
zwecke
Patente
var@@
Befreiung
Gebäu@@
begannen
Südtirol
ermutigt
dum
fortgeschritt@@
ruppen
Kürzungen
ätten
Logistik@@
Müller
html
transport
Gescheh@@
konkreter
nachkommen
schäd@@
befindlichen
Zertifik@@
herrschenden
kaner
abhängt
Währungsfonds
Rücksicht
lebte
portal
SK
SDL
wäch@@
zögern
Verurteilung
dest
unterstützte
FI
kommend
Freund@@
Road
Downlo@@
Richtungen
skraft
Gerü@@
Instanz
PAR@@
erklärung
Brüder
Gour@@
Bat@@
einzigartiges
ray
Blue
Club@@
near
offers
W.
schil@@
fürchte
empfehle
präsent
läufig
konvention
vorgaben
Cit@@
Zufall
Kyoto
alisierungen
Züge
Stabilitätspakt
Süß@@
Eigentums
entierte
grü@@
restlichen
omen
Chal@@
å
zia
Schauspieler
alog
Konsequenz
komplizierten
angehört
schöpf@@
Durchbruch
ktur@@
transeuropäischen
bezir@@
Sogar
titel
gesteuert
sts
nischen
agu@@
unberühr@@
-Sterne-@@
SAP
Abfahrt
Samsung
willen
Mitentscheidung
haltens
Weihnachten
Akteuren
AKP-Staaten
Hans
Auslieferung
hon@@
Bestreben
Demokratischen
trak@@
sprit@@
etts
Schulung
Zusammenhalts
jeglichen
Sied@@
Behauptung
GVO
First
östlich
Sing@@
fasst
video
bettzimmer
läßlich
Erlaubnis
bevorzugen
fehlenden
gelt
freiwillige
auto@@
Privatisierung
Pestizi@@
Spiegel
kub@@
thos
Dün@@
Tool@@
GA
anmerken
versicherungs@@
möge
seinerzeit
BSE-@@
anspruchsvollen
Tradi@@
schlafen
nördlich
ano@@
ck-@@
Set@@
Oase
Ausgewogenheit
nachteili@@
reichsten
Mü@@
Hygi@@
verfassungs@@
inu@@
aktuell@@
comm@@
Kali@@
Sozialdemokratischen
Klärung
erledigt
Theat@@
Milliarde
geschäfte
nder
sprung
Dorf@@
prop@@
Saint-@@
das@@
umgewandelt
Tech
URL
ernsten
andal
140
Tier
unterzeichnen
Gestern
ernähr@@
beanspru@@
gl.
deinem
Meerblick
sozio@@
Forschungs-
esses
allgemein@@
Symb@@
Ausdehnung
Dienstleister
raffin@@
ärten
Öffnen
berechnen
o.@@
Kupf@@
ires
enta
Fotokopiereinrichtungen
leisch@@
utes
offenkundig
zün@@
essel
Körpers
Friedensprozess
-Seiten
Jazz
umfassender
verordnung
gestei@@
währung
malen
setzungen
ziehungs@@
reflek@@
heiligen
Kh@@
Gall@@
arti@@
firma
zuvor@@
Kirchen@@
what
inkl
Erläu@@
Abstimm@@
it-@@
ktions@@
Konsum
CA
ih@@
Informationsschalter
arr@@
ritte
positiver
herbeizuführen
marken
unterricht
zo
Time
Allah
sole
Betrieben
herum@@
ankommt
il-@@
auszubauen
stenten
funden
phi@@
jenseits
Jesus
rank@@
TS
Anf@@
Geträn@@
luxuriösen
Mitglied@@
ähi@@
begrüß@@
augen@@
gesetzgebung
ließ@@
schlug
park@@
meisterschaft
Kohäsionsfonds
haush@@
juristische
holz
Fahrzeu@@
historisch
urop@@
duk@@
diesjährigen
Param@@
Camping@@
Innenhof
cul@@
Laufzeit
staates
Vorsorge@@
Solana
wählt
mittelalter@@
voranzubringen
dritt@@
feu@@
vertiefen
Oster@@
lindustrie
einander@@
Fischler
egr@@
Gastronomie
äume
shop
ränkungen
Vö@@
voraussichtlich
Cham@@
schot@@
emin@@
verhaftet
Cy@@
Ski
Themas
etter
afft
einnahmen
Akt
Bearbeitungs@@
ε@@
erholsamen
kontinuier@@
wichts
Unrecht
allgemeiner
ielt
emark@@
schätze
langjährigen
Mitgliedstaates
Nachweis
kontinuierliche
soviel
Extra@@
shi@@
sendung
verlin@@
absoluten
ehemal@@
Neg@@
chtsdest@@
Ideologie
lieferungen
sprechende
Posten
Standorte
Profil@@
osen
zusammengefasst
Tennis
biblioth@@
großartigen
schritt
bräu@@
erstattet
Loch
genten
Wag@@
Lärm
cour@@
Streitigkeiten
gebern
Beschluss@@
Č@@
Unfälle
Ansonsten
Weitergabe
Entsor@@
Erholungs@@
abri@@
Development
schloss
kapital
dehnen
Rücktritt
Errungenschaften
Haushaltsausschusses
ordentlich
Mär@@
blieben
ankommen
anna
Portfolio
Meinungsfreiheit
hafen
Blü@@
überschreiten
EWG
Fachleute
tempor@@
denz
Vormittag
elektro@@
Diversi@@
siv
anta@@
angezogen
Zuschauer
scha
Verknüpfung
Bier@@
leger
Fußgänger@@
down
ika
Gesundheitsversorgung
Lagerung
ischerweise
agnen
Auswirkung
Kommunismus
endere
ohl@@
hundert@@
Folgenab@@
Fotografen
Professional
Österrei@@
As
aufgegeben
Dimensionen
schiffe
vorant@@
Haftbefeh@@
Montenegro
rank
leck@@
öffn@@
pole
bürger@@
Haushaltskontrolle
räte
höchstem
Koalition
æ@@
oden
Frühling
FR@@
Fitnesscenter
Reservierungen
Bedauern
operativen
konzentri@@
Öffent@@
beurteilt
FIN@@
Konzeption
Wunsch@@
angem@@
stationen
offer
GP@@
einziger
gesetze
bring@@
güter
Renten
Verts
Rock@@
exklusi@@
Song
Anfänger
promenade
Wortlaut
Telekommunikation
Glückwunsch
Kommissionsmitgli@@
übereinstimmen
Einigkeit
elligkeit
Ernst
ermögli@@
solle
türk@@
rol
web
unbesch@@
Terror
Arten@@
Strafre@@
geschaff@@
effekt
jahres
kontra@@
Expan@@
Kohlendiox@@
Abent@@
Skul@@
make
siedlung
initiativen
ausgeht
Erwägungen
reichend
risiko
massiv
NATO-@@
IX
ligkeit
mark
verursach@@
many
auszuführen
ümm@@
Kampagnen
ausdrück@@
Naturschutz@@
likationen
lässigkeit
Jeden
Wit@@
Zoll
etabliert
wörter
boot
Research
Inc
phone
aket
erneuerbarer
breiter
Küh@@
ungen@@
Info@@
Masch@@
energie@@
Tun@@
Zeichen@@
dion
Telefonnummer
Kombin@@
lenstoff@@
ausstellung
dere
Riesen@@
Dank@@
Atlantik
droh@@
entu@@
afrikanische
Ausflug
Ry@@
Rhyth@@
Ref
Qualifikationen
Schwäche
acher
Hav@@
Kraftstoff@@
stechnologien
Haiti
schwarze
konver@@
GEN
ED
ecker
ION@@
Support@@
vernehmen
Roth@@
kombinieren
Note
Dom
ouse
10.000
gia
Strafen
Fro@@
beträchtlichen
Diplomatie
Auswertung
21.@@
Prozessen
erwarteten
Messung
errei@@
bir@@
J.
Ring
behindertenfreundliche
buchs
imstande
Zivilisten
zusätz@@
renommierten
Einmischung
griff
Jahrhunderten
befand
Liebhaber
Tarifa
Messe@@
ат@@
fragte
gangs@@
gepflegt
angesprochenen
Oft
sofortige
graus@@
Aktualität
überraschend
Echtzeit
Familienzimmer
ль@@
Käl@@
amerikan@@
Enttäuschung
bein@@
beherrscht
Strö@@
Länder@@
Mehrheits@@
Pad@@
Lav@@
show
inische
essor
Dil@@
verschieden
ausreichen@@
ban
Zertifikat
weitergehen
Bewerber@@
kündigen
Rüstungs@@
moralischen
rahmen@@
Singapur
Branchen@@
Auftreten
liberale
offener
übersehen
dienstes
Dev@@
Brot
farbe
Instand@@
Dynam@@
teur
bulgar@@
Krebs
Echt@@
ance-@@
Gehäuse
gesamt@@
wässer@@
Seitdem
Diesel@@
Krankenhaus
palästinensische
pakete
fikations@@
PCs
finnischen
Handlung
erschein@@
Bewirtschaftung
Stück@@
begehen
herausragende
lossene
strengere
entlassen
wägen
Lebensdauer
Käse
Auftritt
Beteili@@
3000
Pressemitt@@
repar@@
bewusstsein
cr@@
BA
WE@@
Übernachtungen
Mill@@
Brau@@
British
Tarif@@
Umstand
tivere
Balance
Schwi@@
Vie@@
Straßenverkehr
giert
Beitrittskandidaten
vorsehen
Blin@@
erweist
unken
intensiver
Parlamentarier
Gaza
grundleg@@
Zuwanderung
Kuli@@
José
telefonisch
privat
dal@@
UP@@
tücher
Gäste@@
verank@@
bevorzugt
Kodex
stürzen
wieso
Änderungsantrags
Umwelt-
Yor@@
gelieferten
onische
sers
Daniel
Zell@@
ver-@@
Universitäts@@
faden
Bezirk
Ausflug@@
wettbewerbsfähig
erkt
angestreb@@
worf@@
extreme
Bildes
attraktiv
ermaßen
liebe@@
eingetragen
Golden
ofes
gestanden
Spitz@@
warme
Speise@@
élé@@
thal@@
Vorgän@@
trieben
Kampfes
transparenter
öne
prei@@
schnellstmöglich
Ford
Län@@
LK@@
ate@@
Erforschung
rote
katastrophal@@
Gedank@@
Kro@@
Glan@@
at-@@
Mar
wohlhab@@
strategischer
Bestand
interven@@
entschied@@
sha@@
Bevölkerungsgruppen
Russen
ref@@
ARE
Dun@@
Stücke
GM@@
USB-@@
gelder
ärz@@
Erfahrungs@@
kus@@
yk@@
ütten
Beobachtung
riffen
üblicherweise
stehend
Francisco
Kommissionsmitglied
überleben
übergreif@@
kunft
wovon
entschuldigen
versteck@@
Kompl@@
trenn@@
aufgezeigt
gischen
Verschlüssel@@
ile
Bisch@@
CO
ungarische
strikt
artik@@
netes
Fundament@@
akadem@@
anim@@
Klei@@
ALDE-Fraktion
leich@@
Venti@@
Überschwemmungen
Schengener
demnach
schränken
Bezug@@
Verstoß
Typen
Verlei@@
FL@@
Abreise
Bell@@
TO
9001
koennen
Aufschwung
ktion@@
Vertiefung
Gewässer
tam@@
angrenz@@
Kommen
auslän@@
wie@@
ausschlag@@
fuhr@@
Pakets
Christus
wunderbar
Mehrwertsteuer@@
Model@@
Magazin
Treffpunkt
folg
niedrigeren
See@@
ommen
Dé@@
nett
afgh@@
EZ@@
ot-@@
water
beziehe
Etiket@@
Beförder@@
Gehen
stattfand
gesandt
ar-@@
yn
gin
nötige
Geduld
Erinnerungen
17.@@
flan@@
gig
keit@@
En
Sponsor@@
Tisch@@
Steck@@
beizubehalten
geist
multinationalen
gleichnam@@
Lob@@
thiop@@
Resultate
1979
tritte
strecken
Lock@@
Beschleunigung
Defini@@
Unterscheidung
lich-@@
iegen
lauten
Company
Übersetzer
CL@@
Mön@@
setzbar
ält
wohin
Pfund
grä@@
beschäftigung
Stufen
wärtigen
Kling@@
Bestes
Anim@@
Slideshows
ordnungsgemäße
hebung
weites
bean@@
Tätigkeits@@
spartner@@
gebil@@
Kooper@@
eröffnete
archä@@
find
Spass
müßten
öten
Minister@@
Kommando
Wörter
Vorder@@
anführen
achte
value
Geburtstag
Publish@@
Frau@@
reichlich
freiwilligen
ansprüche
manip@@
where
Hochschule
SL
Servern
überwunden
gerte
unabhängiger
Schir@@
geradezu
springen
orn
Diagnose
Wat@@
respon@@
ausch
Händ@@
Navigation
renomm@@
-Sterne
Snacks
luxuri@@
klagt
verschle@@
Etappe
vertik@@
prinzipien
Jacques
Konsultationen
eds
ruhe
Logos
Ras@@
Garage
Reader
dies@@
Entscheidungsfindung
Umweltpolitik
übergreifenden
doppelte
willigen
Gesetzgeb@@
aufrichtig
Beschäftigungspolitik
Umfrage
Stabili@@
barem
umin@@
Audio-@@
Schaltfläche
UM
tiefer
wanderung
punkt@@
Einträge
Fehlern
Jungen
them
AP
DS
Jugendherberge
Spaziergän@@
Wäre
EU-Bürger
transportiert
zwingt
Kürzung
Stolz
prob@@
erschwert
Him@@
kümmert
Mili@@
niert
Japans
Radio@@
ski@@
strand
antas@@
Tampere
Sichtweise
bestimmtes
aums
Stri@@
Day
irakischen
HD
Games
Controller
Interie@@
bedingten
ez@@
Zentrale
rent@@
heitlich
verfolgung
extern@@
besi@@
eindeutigen
erem
zugewiesen
übersetzen
entschied
Jubil@@
ness
Ratspräsidentin
anfän@@
gasse
dic@@
Foot@@
geograf@@
1.000
file
Partition
Dampfbad
Zusage
Gebiet@@
draußen
stehe
beginn@@
äumt
Beamte
sim@@
moder@@
köni@@
door
beeindruckt
Drittländer
mediterranen
Gründungs@@
Oberflächen@@
Emission@@
jü@@
Finger@@
erc@@
Kino
Handbuch
Clu@@
Bettwäsche
beteiligung
Male
objektiv
Ris@@
gebend
Kalten
Green@@
experten
gep@@
Straftaten
ernsthaften
EIB
Seef@@
Haushaltsmittel
gezielte
städte
dringende
Unger@@
kommerzi@@
CI@@
Platten@@
point
around
Grundstück
Fußball
Bedauer@@
Fracht@@
Aussprachen
erfolgreicher
How
klingt
Schwein@@
Wertpapier@@
genossen
exi@@
veranlasst
Hochzeits@@
400@@
Sri
rechtlicher
schied@@
indert
bespre@@
ethischen
rägern
Block
Perf@@
Rumä@@
Umsatz@@
platte
sea
Muss
A4-0@@
Vertrauens@@
höre
sinken
Kreis@@
angegriffen
tnismäßig
äuser
Stress
Brust@@
rün@@
eite
brasili@@
ländischen
Fluggesellschaft
feinen
CP@@
vergnü@@
Bilder@@
ouren
geäußer@@
drastisch
geringeren
Etw@@
Waffe
integr@@
reserven
klusi@@
available
Sn@@
Vulkan@@
Platten
Französ@@
bewährten
philosoph@@
beschädigt
steck@@
feldern
beziehungsweise
verbreitete
HIV
Mahlzeiten
formation
emperat@@
Sant
az
С@@
geleistete
flexibler
träch@@
schütz@@
Liga
Zehn@@
Republi@@
tener
Ortschaft
radi@@
Andr@@
ief@@
elektrische
Finden
ME
Button
mail@@
eistungen
unabdingbar
Personals
Entsch@@
herzlichen
Feder@@
informellen
eintritt
jüdischen
öhne
Verband
Besatz@@
undene
gewohnt
Stern
Black
book
Anlaß
brauch@@
Zugeständ@@
gültige
beugung
SY@@
Israelis
Verschiebung
verantwortlichen
tin@@
Kontinuität
benachbarten
Volk@@
His@@
ads
Schnittstellen
Pass
Leder@@
King
t.@@
veränderte
veran@@
verweigern
Verwirrung
Autob@@
nachhaltiges
Bund@@
Roten
vin@@
sk
Good
Zauber
Internetanschluss
apartment
esst
vermark@@
Komment@@
egenheiten
außergewöhnlich
Welthand@@
iden
glücklicherweise
ALE-Fraktion
Leh@@
Kast@@
.ch
Präsident@@
ession
Vollendung
bekannter
dik@@
phe
existierenden
Asylbewer@@
facto
uner
bien
Vorteilen
sey
Südkorea
ye@@
minute
sinnvolle
Nationalen
graf@@
Verfü@@
Rang
Gent@@
Past@@
If
e.V.
formuli@@
unterzogen
zuzustimmen
verschärfen
Behinderung
sert
thei@@
nahmen@@
appellieren
Flughafen@@
erkrank@@
Trocken@@
lab@@
umliegenden
Zuhause
Hydro@@

Renovi@@
Vaku@@
zukommt
ehr
wäsche
Rindfleisch
Schlag
annäh@@
Rechtsetzung
Europäern
chner
Geburts@@
spakt
aps
Medium
Hans@@
potenzielle
Mitteilungen
EM-@@
operative
komplexer
beliebte
eva
Österreichs
aches
hänge
summe
alb@@
Eingab@@
Repres@@
gelistet
lität
Zun@@
Bol@@
Vizepräsidentin
Metho@@
auferlegt
Umstruktur@@
ätigkeit
verbände
Freiwilli@@
flucht
riebe
stische
büros
neutr@@
Alumini@@
Ken@@
opf@@
deuten
Reihen
Handels-
getauscht
legungs@@
Label
Kinderbetreuung
Schönheits@@
Schlussfolgerung
Adv@@
airport
oriums
Schre@@
entzieht
etze
Zeilen
Maßstäbe
Investitionsbank
neun@@
Kolonial@@
Don
Kalifornien
lokal
kurzfristige
tigere
chtlinie
Schriftsteller
dreißig
Eingliederung
Tax@@
muster
Public
Kollektion
MP3
vorschrift
zufällig
realistische
sprecher
Sendung
erfris@@
Rez@@
Materials
Glo@@
mächtigungen
Ke@@
garage
Ky@@
touren
Auschecken
vertrete
mangelt
geringfü@@
hä@@
themati@@
Recher@@
Wartungs@@
kompon@@
Adress@@
gastronom@@
Rabatt
Veranstalter
Kel@@
zugenommen
hindern
Vertrauens
eich@@
anzeige
erschwing@@
kum@@
Botschafter
verspricht
Schuhe
Jes@@
Substanz
Andernfalls
sozialistischen
diesbezü@@
Dür@@
kehrt
intellektu@@
Student@@
identifiziert
tiz@@
standardi@@
gängen
person
much
Bonn
verletzen
treffend
Zonen
qualifizi@@
jenem
Mitgliedsländern
zipiell
wirtschaftliches
entwicklungen
urt
produktiv
elektronischer
aku@@
itu@@
strahlung
weiße
spr@@
stücken
Andreas
geografischen
Spenden
Residenz
Tode
fielen
Alli@@
Volumen
kostspiel@@
Tabak
gül@@
deter
alischen
Intel@@
atisierung
willigung
Line
Corporation
möbli@@
mußte
dramatisch
Vertreterin
meister@@
kreativen
igt
ners
Sav@@
wächt
tschaft
dokumentiert
genz@@
virtu@@
definierte
knü@@
schal@@
weile
ports
Alber@@
grundsätzliche
sohne
Differenzen
Neur@@
como
Urlaub@@
FÜ@@
Cala
aur@@
Bedeut@@
außer@@
ECO@@
tot
lon@@
beautiful
Fitnessraum
Lücke
unnötig
Straft@@
arm
Nähr@@
entf@@
ministers
Sinn@@
internation@@
slowen@@
ariat
eingeschlossen
Inspir@@
einsehen
gesper@@
romantischen
ames
Speicherung
alg@@
field
197@@
cam@@
ι@@
Maustaste
luß@@
Bezüglich
gebot@@
Nationalismus
ermordet
Nutzungsbedingungen
posten
menschen@@
enswür@@
Meldung
list
IBM
läng@@
IR
Langzeit@@
gescheitert
breitung
Lar@@
Stehende
Verbesser@@
Akti@@
Ort@@
Holland
Nag@@
eingebettet
Paket@@
Jack@@
Anleihen
sla@@
Souven@@
TA
enkt
nachzukommen
portugiesische
äuft
entwicklungs@@
gelö@@
Kompati@@
Homo@@
aggres@@
SS
inien
ädern
Fitness
befaßt
Mehrzahl
zumeist
sätz@@
einmaligen
bon
Las@@
polis
Stationen
einseitig
bezo@@
demonstri@@
bürgerlichen
Single
Crew
JP@@
Pixel
Thematik
gefü@@
feindlichkeit
innovativer
zugeschnitten
Andalu@@
Wertpap@@
beides
ografie
Fan
Toten
gedrängt
Verantwort@@
Versuchen
zuversichtlich
Wohnungs@@
skap@@
Demonstrationen
Standpunk@@
Vervielfäl@@
Vortrag
po
ш@@
Panoramab@@
Verf@@
auslösen
schädlichen
archie
ASP
Rahmenbesch@@
Vermitt@@
schädlich
getrennte
Auff@@
Biotechnologie
ICH
у
zufügen
tschaften
geehrten
jähr@@
aufer@@
Regisse@@
Sus@@
United
Kuns@@
Authenti@@
Ermäß@@
geänderten
Amsterdamer
Öffentliche
Ökonomie
Informationsaustausch
illegaler
unverzichtbar
Great
vereinigung
stem
still
flügen
genie@@
little
ssel@@
Ré@@
gelad@@
ermuti@@
lor@@
Einwanderungspolitik
mauern
scher@@
schungs@@
Versamm@@
Vier
Lärm@@
Cho@@
Vorgänge
angemeldet
saf@@
Johannes
Verschiedene
Gur@@
cio
Turnier
Olympus
Lob
gegensei@@
strich
sit@@
bungs@@
zweck
Zuständigkeits@@
ller
erhöhten
rer
Assoziierungsabkommen
agog@@
Hunde
kompati@@
Flä@@
antwortet
bewaffneten
Hubschrau@@
Unterri@@
Rund
BL@@
Frühst@@
Siedlung
Anzei@@
13.@@
Verschmutzung
entstehenden
dahin@@
bloß
OSZE
nahm@@
töten
sent@@
later@@
tres
prior@@
durfte
blick@@
digungs@@
ränkte
vorsitzenden
annimmt
bequemen
quer
beschriebenen
Kok@@
bene
carte
Check-@@
Hybri@@
legal
gelei@@
unab@@
Kolleg@@
dramatischen
rangi@@
verschwunden
haltungs@@
mittags
ausgeweitet
Arzneimitteln
studio
Geschm@@
aufenthalt
Köst@@
Kind@@
Garden
Ltd.
Anzahlung
stilvolle
KDE
relevante
größer@@
seid
getä@@
Finanzdienstleistungen
Niederlage
Einstieg
Swi@@
nummern
misst
Layout
Börsen@@
vorab
uts
soziales
drän@@
einsatz
unterworfen
tropischen
Bit@@
ś@@
ит@@
strukturelle
Einstimmigkeit
dition
Region@@
Obergrenze
nuklearen
vermin@@
univer@@
element
erfolgreich@@
Big
Neut@@
Akte@@
Van@@
Fres@@
Produktpalette
Upgrade
fallenden
schock@@
üstet
organe
Rasse
imperi@@
lizen@@
Schnitt@@
thand@@
bet
William
ep
weitergeleitet
eingesetzten
zusammengearbeitet
Vorgänger
Anschein
zehnten
ausrüstung
gefä@@
Mittelalter
werdet
Bayern
Laufenden
am-@@
AKVIS
genügen
Binnenmark@@
Pflicht@@
ration@@
ümer
Aktionsprogramm
erlangt
Daß
gekehrt
Rückzug
Vorsitz@@
rüh@@
niederländische
Pensionen
izz@@
Verfassungsvertrag
Scri@@
disziplin
inspiriert
Erfordernisse
igungs@@
intern
auszuarbeiten
einladen
Mauern
Nachrichten@@
brach
Türk@@
Freihandelsabkommen
ish@@
eichert
komponenten
beträchtlich
Monti
Asy@@
sos
eventu@@
ergie
ny
Ortes
professionell
Terrassen
reichhaltiges
Auffassungen
Schichten
inhaltlich
stir@@
spannende
ally
unzähligen
ambition@@
namentlich
Zir@@
theater
Tam@@
cat@@
South
ect
mässig
Palacio
Rout@@
Zweifel@@
geleiteten
Wertschö@@
anerkannte
Angeb@@
haushalts@@
kurzfristigen
demonstrieren
jeher
zitiere
Säulen
efel@@
aters
geschi@@
fien
aka
Kompon@@
next
verleih
Meldungen
befrist@@
sorgungs@@
langfris@@
gebi@@
begriff
Meil@@
D.
blickt
Santiago
istik
wohnheiten
Soli@@
ammer@@
Train@@
CEO
finanz@@
einzuräumen
Sozial-
lächer@@
Rats
untersch@@
etrie
idsch@@
Eltern@@
ützen
Pariser
stage
D.@@
DL@@
salle
einleiten
Synergi@@
Kleine
ris
ücken
gespräche
ungel@@
Wissen@@
bedingte
Besondere
ool
Roman
450
North
Erscheinung
Mein@@
Einzelpersonen
NGL-Fraktion
cir@@
Nordamerika
vision
Jobs
Vorjahr
oga
Cle@@
trop@@
benachteiligten
dlichkeit
Verlu@@
allererst
auszuschließen
vertraulich
Gig@@
SQL
umstritt@@
Ressourc@@
Beschei@@
abler
bestmögliche
ert@@
Freundschaft
Verkauf@@
lierungen
ie-@@
fle@@
verwöh@@
Consulting
large
Cup
DIN
gl
2000-@@
Verantwortlichkeit
tbar
Diskrimin@@
Anna
ppen@@
Silber@@
pflanz@@
maximalen
akter
werter
angenommene
Erwar@@
nacht@@
nachgewiesen
Oran@@
lieg@@
Südameri@@
1984
Abhängi@@
zzo
egu@@
White
Feedback
Cin@@
halle
should
hierher
Schande
erbracht
stanzen
emotion@@
anhaltende
anhaltenden
verab@@
autorit@@
beliebig
Feind
Ambitionen
reibern
Präzision
eister@@
Seminar
esch
steigen@@
Codes
äufers
Neuen
Entschließungsan@@
Überzeug@@
erwor@@
Ökonomen
dum@@
erstklassigen
Nice
Zeichnungen
Speichern
.-
swi@@
voranzu@@
administrativen
verbindlichen
Neuse@@
altes
gestrigen
ça
natürlicher
Wissenschafts@@
stattfindenden
as-@@
cz@@
3-Sterne-Hotel
niveaus
Urlauber
transparenten
Eigentlich
bat
ungsergebnisse
dür@@
gelun@@
gesetzes
Tschechische
Lissab@@
Geschäfts-
utz
360
Sonnent@@
klingen
benennen
wachstums
inhaf@@
Gleichberechtigung
Organismen
dustrie
einstellung
wischen
lub
Amat@@
hauptstadt
Domain
atemberaubenden
Benach@@
findest
Menüs
gos
werks@@
staatsan@@
angesiedelt
engere
erwartete
bisweilen
benötigte
schlüssel@@
Rahmenrichtlinie
heber@@
undet
Prestige
Figur
Bug@@
Pferde
Intel
Ressource
äufer
opfer
fungen
speicher
Proteste
zurückgreifen
bedau@@
orik
ereien
Ron@@
1990er
ausdrücken
Produktiv@@
zeitlichen
rent
phar@@
Invasion
zertifiziert
Deskt@@
verdeutlicht
Bruttoin@@
drittens
bisherige
ätzen
höchstens
Befürworter
Franz
Technologie@@
konserv@@
Eintrittsk@@
angegangen
spart
veren
ardi@@
Medikam@@
Schal@@
Veröffentlichungen
Sup@@
Distribut@@
ны@@
tiefgreif@@
dän@@
ersucht
aufgabe
großzügige
Shar@@
Krebs@@
älern
Brok
och@@
zeitiger
gemeinnüt@@
Patent
ota
stitution
Wellen
Herunterladen
l.
eindeu@@
Veter@@
warnt
Roma-@@
public
kauft
Null@@
übergehen
Bananen@@
noten
Autobahn@@
oberhalb
plans
tischem
spezielles
Belange
allgemeinem
Finanzrahmen
Abwesenheit
Siedlungen
Explo@@
anpass@@
Getränken
progno@@
igem
Nordo@@
Medik@@
link
EVP-@@
befugnisse
ommene
Austausch@@
widersprüch@@
Lücken
Einsatzes
tismus
raums
chers
gesundheitlichen
Embry@@
00-@@
exklusiv
konfiguriert
Cubase
Ja@@
komplizierte
vorübergehend
Gremium
kleinste
lernt
blin@@
gon
fremden
manuell
Saudi@@
used
pran@@
öffentlich-@@
anerkennt
Verdacht
folgen@@
besonder@@
Bäume
ers@@
Vernichtung
konstruktiv
skri@@
Vorzüge
Investment@@
ité
institute
fahrung
wohner
schwerwieg@@
Wahlkreis
raschen
verstößt
Synchron@@
Auflage
nec@@
enseite
Smart@@
amo
East
Kongress@@
eingehend
getra@@
Strukturreformen
klassen
90@@
Grenzwerte
Athen
Haartrockner
Navigations@@
Mitgliedsta@@
Wettbewerbspolitik
übri@@
risiken
zivile
otro@@
immt
kristall@@
qualifizierter
ecksil@@
hinten
separate
Temp@@
NE
amas
messungen
Verlag
fir@@
Geni@@
unlau@@
Liter@@
Pferd
widersprechen
rechtsk@@
gestell@@
Konten
1978
angaben
surfen
exzellenten
Registrierungs@@
rock@@
alla
Erlebnis@@
cle
ре@@
schallisoli@@
Verlagerung
dex
Gemeinschaftsrechts
tim
vorzustellen
1967
Aufnahme@@
wöchentlich
ichts
Para@@
Ark@@
häre
sedatum
TER@@
Dringlichkeits@@
zerr@@
ausfallen
verzichtet
fällige
wahrschein@@
spartei
fut@@
Bedar@@
kapazitäten
Hur@@
cro@@
2007-2013
strategisch
mitunter
Gesundheits-
obersten
vergrößern
Kriegsver@@
spreis
xe
Rauchen
klick
Rosen@@
My
ausdrückliche
egelungen
hinnehmbar
Verweis
gehoben
national
leiden@@
grupp@@
Etwas
lot@@
Noten@@
Angeles
Buchten
aufgreifen
lebten
Tom
Cyber@@
vermu@@
spi@@
Einreise
ham@@
winden
Produkts
ossen@@
Kopien
wissenschaftlich
Überraschung
Business-@@
Set
bequeme
halter
Belieb@@
hilfsbereit
Aluminium
ň@@
Premium
liesslich
eingetreten
vorbeh@@
thema
fik
rag@@
fertigte
Istanbul
geschm@@
Müll@@
Dereg@@
chtigkeit
brücke
Buchungen
profil
tour
statistischen
vorgelegte
Büchern
Geschi@@
termin@@
Phänom@@
Eisenbahn
Ful@@
typen
Seeh@@
spezifischer
Rechenschaft
shil@@
Sicher
Wohnsitz
Anlage@@
Labor
Kambod@@
windigkeiten
Agr@@
Arabien
Anforderung
rh@@
Darfur
play@@
effekte
Handelspolitik
ehren@@
emanden
esisch
ls@@
DH@@
pot@@
Palazzo
Anhän@@
Geltungsbereich
ausmacht
quasi
Umweltschutz@@
kontinent@@
langwieri@@
WWU
Befra@@
vergangen
Jed@@
heitlichen
Gehör
FOR@@
abhalten
bewährte
pa
Klein-
Flugzeugen
Besten
Hussein
ruhi@@
Bequ@@
Engine
Transit@@
Radik@@
Ozean
jahren
Initi@@
Mund
urer
billiger
Bearbei@@
automaten
HP
hellen
nes@@
Ses@@
ingu@@
legungen
Rettung
grenzüberschrei@@
gewöhn@@
wachs
Elektronik@@
vention
jedermann
Geheimnis
Überra@@
Span@@
space
queren
Paare
gru@@
sec@@
Fraktions@@
detaillierten
Notwen@@
fernen
verschlechtert
INTER@@
Linke
modells
studieren
Cra@@
block
Fon@@
Psy@@
Chat
musik@@
ODER
Weltmarkt
Geltung
doppelten
Gedächtnis
bauer
Zeugen
Ohren
Modells
pos
handel@@
Industrien
qual@@
Nahrungsmitteln
Finger
ental
entum
Umwandlung
Defiz@@
erhäl@@
öffnung
ion@@
R.
Ensem@@
Tanz
Ansatzes
schwerwiegende
Betä@@
stant
Ausfuhr@@
empfehlenswert
Mobilfunk@@
In-@@
perfek@@
reif@@
Schokolade
Irr@@
aß
Brunnen
ega
Aktionäre
gesamm@@
Pel@@
Aussteller
dul
gaben@@
Himm@@
VI
Hund
Organisations@@
Kak@@
äqu@@
verpack@@
Sonnenunter@@
forderung
belief@@
nationales
ungsweise
utzutage
Hinter
Screen@@
Tok@@
spiegeln
Import
etto
ungstechnik
som@@
Grafik
peti@@
besetzten
ahr
sentation
Buchen
länder@@
1982
Neuerungen
örde
Santer
ädigung
gesprä@@
hot
gesund@@
blüh@@
Rate
ind
Freundlichkeit
Arm@@
Schüler@@
BS
S.A.
r.@@
nfalls
gewiesen
Dim@@
ammens@@
Ot@@
resp@@
schmu@@
begeistern
zione
aken
läufi@@
Antonio
Rati@@
ka-@@
Vernun@@
Erkrank@@
zugesch@@
fleisch
ähnliches
Philos@@
key
To
EK@@
SMS
musst
Lieder
Geschäf@@
massi@@
grab@@
split@@
Fax@@
achel@@
Rog@@
vul@@
Blog@@
haut
reformen
option
infrastruktur
Front@@
Wellness-@@
Ball
sty@@
high
Leicht@@
Pause
minuten
angekün@@
nerin
Itali@@
äck
vos
Grün
Flora
Lös@@
rebt
Rad
splan
ffer@@
dou@@
Solutions
Frühstücksraum
angewand@@
bol@@
angenen
pe-@@
Madeira
mitte
kontro@@
ular
Conn@@
Bem@@
09.@@
ordn@@
Einwanderungs@@
nier
Holl@@
hn
put
Mittler@@
avo@@
Ferr@@
Archit@@
steam
Klo@@
Download@@
Ment@@
liebt
geopoli@@
Grüne
vis
ameri@@
Fat@@
Seu@@
Motivation
arom@@
dre@@
dec@@
Algorith@@
tick
̈
Pro-@@
keits@@
befri@@
stim@@
VO@@
Sequ@@
renovi@@
ida
vri@@
aks
Nobel@@
exp@@
N-@@
Cont@@
C5-0@@
ausreich@@
Alm@@
extra@@
Administr@@
Mw@@
ssier
fel
hilfs@@
aqu@@
149
Kilom@@
Signal@@
Malaysia
nom@@
Mix
Moh@@
Salon
gehensweise
Gemü@@
ope
Ima@@
Fels@@
verur@@
homo@@
Dub@@
Donau
Dau@@
malerweise
Frankfurter
pper
Ble@@
Zerti@@
istan
eira
exo@@
Kei@@
nachts
ian
T.
vir@@
ture
Finanzi@@
Föder@@
Koso@@
dus
Universum
Ungar@@
Soft
Elektronik
beschä@@
sprin@@
Pierre
Urspr@@
anke
möglich@@
rid@@
revi@@
rix
Modi@@
because
Opera
beauftragten
proch@@
Anstreng@@
edo
mail
Galileo
Dou@@
val
ST
EST@@
Legitim@@
bay@@
enken
MAR@@
management@@
nir@@
Smith
CM@@
ux
Bla@@
1975
lia
16.@@
Whit@@
ständigkeit
Hemm@@
liest
Übri@@
aille
MS@@
anger
Diagr@@
vorsitz@@
dei@@
herein
ois
auses
gosla@@
36@@
eute
Finn@@
techni@@
OP@@
bucht
19.@@
Latein@@
Kun@@
aust
Interoper@@
Andro@@
College
Min
Sender
ne-@@
Kür@@
Spr@@
v.@@
Panasonic
venti@@
alarm@@
Gh@@
raum@@
Untern@@
Net
Monitor
Sounds
ech-@@
Tai@@
Venezuela
War
Transfer@@
35@@
Arznei@@
glas@@
downlo@@
festival
angemess@@
erweiter@@
Sard@@
human@@
Antibio@@
vergröß@@
permanent
Präz@@
BSE
austr@@
hause
6-0@@
Hän@@
vermut@@
filter
quar@@
legislative
Force
iz
Bezir@@
Nit@@
Kohlen@@
Provider
18.@@
row@@
Gepäck@@
Exchange
Court
Village
shower
LateRooms.com
ßer@@
Quality
glas
DVDs
republik
protes@@
Eigent@@
life
Bill
att
ony
partement
onym
täu@@
probe
Equ@@
Histor@@
lec@@
änd@@
Sher@@
co-@@
Künst@@
tails
SV@@
expan@@
dez
kommunikation
Demonstration
Georgi@@
Trainer
Grande
pools
baum
Außer@@
Buenos
Aires
lev@@
Updat@@
ind@@
cap@@
beschreibung
fit
örper@@
fühle
1970
Raf@@
Copy@@
od
Lodge
Feu@@
auern
ander
amb@@
MT@@
ор@@

Fusion
1976
IS-@@
IL
ebo@@
amme
OG@@
Jury
70@@
tico
Integ@@
euerung
Investi@@
echische
Ring@@
fabrik
Friedrich
Sac@@
aton
gefas@@
Erleb@@
gbarkeit
gramm
Cri@@
Cav@@
schlei@@
player
content
digkeiten
Technologies
uer
--@@
eth
esa
,5
Disk
Juan
Elem@@
ology
Sarkozy
original
Regist@@
ehem@@
KL@@
Migr@@
ammen
ograph@@
UK
cri@@
enburg
Nationale
Palästinens@@
Financial
Revolu@@
spitze
Entfern@@
spiritu@@
Skep@@
eicht
Domini@@
Artik@@
för@@
did@@
Vereinig@@
Assist@@
Import@@
eb
act
Juni@@
tas
Lanzarote
geleg@@
ritter
zlich
spräsi@@
Trin@@
sah@@
ble@@
macher
ograf@@
Nomin@@
Resol@@
Kass@@
ergi@@
Formu@@
yo
ò
Tis@@
ş@@
Server@@
Promenade
cha@@
Evalu@@
rut@@
Fed
send
schaft@@
annen
Simul@@
tent@@
ille
money
ssa
Kell@@
uz@@
ude
Stellen@@
investi@@
Know@@
mittler@@
schwung
Rav@@
Ara@@
Residen@@
Clients
vere
1968
uma
Orch@@
ash
RI@@
dh@@
Keller
Chemie
rif@@
landen
operation@@
autonom@@
-Sti@@
Nachhal@@
Hart@@
Lido
akis
leg
diff@@
tage@@
For
aciones
Game
Megapi@@
quantit@@
Lange
gesti@@
funk
Urlau@@
einm@@
Location
spazi@@
Workshop
lastung
23.@@
schiede
schied
UK@@
kus
ard-@@
toll@@
äußert
ommenen
Virtu@@
Camp
Up
équi@@
Shanghai
Siena
Nachfol@@
DR
15.@@
Heli@@
ups
enhaus
telef@@
fon@@
Market
qu
up-@@
onder@@
Haag
beauf@@
ish
Südti@@
L.
orial
Jackson
Kinnock
nation
hausen
gm@@
KE@@
TEN@@
eit@@
Lul@@
ago
sequ@@
Klaus
etri@@
Yu@@
Patch
Exist@@
herstellung
ämpfen
Aufenth@@
vorh@@
Highlights
Visu@@
absurd
western
elektr@@
Clear@@
wechs@@
Marine
erseits
bour@@
europ@@
hit@@
Wissenschaf@@
68@@
unabhängi@@
Stabilitäts@@
natür@@
Schrif@@
Registri@@
tro
baden
Büh@@
bequ@@
Haush@@
CAR@@
3,5
stütz@@
cket
Ibiza
media
об@@
Wiki@@
ld@@
eph@@
Stere@@
CAN@@
σ@@
ziplin
Action
audi@@
Kath@@
splatz
Produ@@
Roc@@
Mini-@@
Philipp@@
temp@@
autom@@
substan@@
motion
xel
Museums
Camping
.jpg
Bevölk@@
zb@@
equ@@
klus
Wolfgang
Cop@@
z.@@
überschrei@@
sens
Frag@@
ù
Superior
lica
Junior
NEW
spont@@
IK
Äu@@
konkur@@
tivitäten
delle
anwes@@
semi@@
ares
Wu@@
hof@@
reisende
-Sterne-Hotel
hn@@
stren@@
erfolgrei@@
thes@@
Ji@@
ath
angsh@@
terr@@
ollah
Py@@
stro
Nich@@
Vall@@
220
11@@
Profile
GPS
Spam
heart
unent@@
eher@@
Treff@@
schrau@@
lik
kers
Taliban
style
Reich@@
exzell@@
gegn@@
KM@@
Renaissance
River
Clar@@
enza
emma
erforder@@
pau@@
endi@@
vent
ehmen@@
Alex@@
muy
rale
ande
Depression
ovo
Victoria
need
stau@@
Sun
Science
Domain@@
walking
erwäh@@
Rus@@
Adel@@
erreich@@
lli@@
Mio
aga
size
Barack
mysq@@
derar@@
agiert
umb@@
1981
Frank@@
Vergnü@@
Sites
abor@@
ommiss@@
lug
Konkur@@
Romanti@@
Absol@@
less
maj@@
line-@@
elson
cen@@
Monum@@
Main@@
floor
situated
ynn
Pur@@
Ele@@
visi@@
Miner@@
etings
Knei@@
ity-@@
Our
perfect
Arbeitsp@@
Us@@
sia
oom
Azur
Frank
Zusätz@@
RE
Chat@@
frau
Dame
3.0
Schluß@@
deli@@
GA@@
Côte
Beob@@
codes
`@@
brun@@
на
Verantwor@@
Hack@@
Beobach@@
blas@@
S-B@@
Stadtz@@
Castell@@
rus
ρ@@
entin
Health
LT@@
170
Adria
Gn@@
Beweg@@
ich@@
lis
St.@@
High-@@
emo@@
elem@@
Konzentr@@
roh@@
flächen@@
th-@@
journ@@
Gep@@
owski
2014
Jord@@
urban@@
1983
esco
modul@@
feder@@
transpar@@
loss@@
pur
Perform@@
Plen@@
Harmon@@
ENT
abstra@@
Entertainment
pur@@
administrative
islat@@
Ve@@
telefon@@
building
otels
Ani@@
times
Dal@@
enkung
Ultra@@
24.@@
hom@@
Servers
Orienti@@
Naz@@
Human
estr@@
Regi@@
Iran@@
State
ward
Computers
Arti@@
s.com
far
Mitgli@@
einzigar@@
erstklassi@@
ña
lon
Check@@
debi@@
Beam@@
Kommissionspräsi@@
Tol@@
1973
ame@@
Avenue
med
ament@@
one-@@
XML
Entschließ@@
Kommission@@
tragung
brief@@
ma-@@
tron@@
PN@@
may
Friedrich@@
Г@@
tout
privat@@
denti@@
Tourist@@
ony@@
ean
196
Bran@@
HA@@
Offic@@
central
Quot@@
Zeh@@
verlei@@
Cent@@
ving
adas
works
Apache
gigan@@
20.@@
entsprech@@
ò@@
Opf@@
anony@@
Wahrschein@@
ask
Göteborg
index
days
come
ordnungsgemä@@
ultim@@
int-@@
eci@@
timme
vorange@@
echnet
1500
quality
mobil@@
Evangel@@
Over@@
Malware
Hein@@
beschleun@@
Abu
Films
Cube
Converter
tner
1974
Peru
Cot@@
Sun@@
PE
Komplett@@

schend
sle@@
dauer@@
unverzicht@@
Jeg@@
-P@@
196@@
well@@
language
F.
Napol@@
Chief
Shopping
Special
vene@@
Cook@@
master
Deluxe
Erweiter@@
umstr@@
Fab@@
full
го
ühungen
11.00
opro@@
Sir
Bungalows
té
ategorie
wicklung
Glau@@
arier
Maj@@
Mech@@
chef
Anonymous
Marbella
spacious
perio@@
Transpar@@
Plans
É@@
mé@@
Mitarbei@@
Krak@@
SH@@
Waff@@
kind
tail
ING@@
Bali
verän@@
konzip@@
stock
ï@@
a-
og
03.@@
Treibhaus@@
Dup@@
moment@@
nik
Rind@@
Schaff@@
dium
enture
bonus
Arran@@
Mang@@
ection
shopping
Bremen
krati@@
Deri@@
achen
ji@@
DI
Robo@@
EST
bra
support
va@@
0,00
accu@@
ühren
verschied@@
sichtig
ja@@
migration
ical
massage
ache
risen
span@@
Klu@@
letzt@@
fahrens
Premier
ause
Classic
unsten
E-Fraktion
echtigkeit
Kub@@
humanit@@
Geburt@@
eger
Stars
red
President
ft-@@
email
bewu@@
ardo
Brut@@
geschmack@@
Bern
oration
GP
Barro@@
DER@@
zep@@
125
year
Hz
fan@@
22.@@
cot@@
atmosp@@
Bestä@@
Ox@@
stars
before
Ell@@
Gün@@
defin@@
irak@@
Immun@@
Lou@@
Un
reception
servativen
tat@@
Nahrungs@@
Jä@@
Donn@@
tit@@
p.@@
Manhattan
BC
unser@@
bend
Großbritan@@
Nazi@@
wirtschaften
herkömm@@
ito
ovi@@
pic@@
Nep@@
hot@@
G.
Frattini
č
Staff
prof@@
Iron@@
Aur@@
Class
Sli@@
stößt
jün@@
map
Merkel
disp@@
Deep
ни@@
Picard
getrenn@@
Barbar@@
lektu@@
Pod@@
Wi-Fi
Wales
GBP
back@@
außergewöhn@@
Sho@@
Konfigur@@
o.
Head@@
ymn@@
Wid@@
Mé@@
einzur@@
wässer
Gesund@@
bec@@
acks
Store
beträ@@
Clinton
Bres@@
Verbün@@
pré@@
Rede@@
Dic@@
Lake
ue@@
Rotar@@
Word@@
LateRooms
gekenn@@
Act
NG@@
land-@@
between
table
Benjamin
PX@@
Animation
Hä@@
ning
asis
Zustell@@
isation
within
arri@@
kriti@@
Favor@@
NOR@@
jour
lez
adem@@
Abgeord@@
help
Mosk@@
Maison
TU@@
asser
Anhör@@
iser
iken
ladimir
Ce@@
etti
med@@
Teneri@@
liess@@
And@@
Sant@@
Library
Acces@@
Voyager
quite
Walter
RT@@
ook
adt
Drive
thalten
Generalsekre@@
Images
safe
COM@@
ет@@
bieren
These
besich@@
through
64@@
uneingesch@@
Training@@
sensible
level
stabil@@
Milosevic
bou@@
Tin@@
züglich
CF@@
AV
BA@@
FAQ
ohn@@
eten@@
Schatten@@
pil@@
computer
Flex@@
DM@@
ы
Immo
arran@@
Agen@@
Magn@@
Ben
print
entre
â
enc@@
asses
Wertsch@@
illu@@
sing@@
Nick@@
CAD
deh@@
thi@@
adres@@
irs
nia
mail-@@
ý@@
eso
beziehung
sibili@@
ery
motor
aufs@@
ational
aki
μ@@
stration
dopp@@
Tony
Carlos
Stran@@
bag@@
City@@
Tibet@@
Dien@@
schlaf@@
tus
Val
street
Marin@@
Flor@@
Market@@
erial
FS@@
Nürnberg
gli
opoli@@
tun@@
onnen
Wall
Sci@@
lässlich
Quar@@
Nas@@
enland
verhand@@
qualitative
behal@@
mati@@
ohlen
dge
Elek@@
Oc@@
Stefan
IND
undern
5000
Afghan@@
Laeken
wohnern
Appar@@
1969
sorg@@
Mou@@
Show@@
Gat@@
PRO
sme@@
Dri@@
anerk@@
mand@@
Chicago
each
Everest
Buff@@
од@@
1977
wom@@
ering
Domin@@
IMM@@
E.
ż@@
Austria
Rimini
strafe
lings@@
H.
mond
Ägyp@@
08.@@
MD@@
family
azione
SK@@
Antivi@@
zwan@@
berichterstat@@
fassungs@@
got
ALL@@
eile
BAS@@
Outlook
Installer
Maastri@@
atten@@
Lud@@
estens
Koll@@
ail
х@@
shire
ila
iner@@
Is
again
Aparthotel
Schengen
Vizep@@
aison
single
isse
mant@@
Enter@@
intui@@
fing
Aer@@
äuse
Jugendher@@
register
Watson
Federal
Cannes
petit
Sex
EX
32@@
trav@@
κ@@
gangen@@
Algarve
flor@@
Partners
fabri@@
Dampf@@
John@@
fix
Brand
agement
OECD
uses
Kaff@@
eed
vice
willi@@
ademie
völk@@
Energy
Limited
ser-@@
Rol@@
Dres@@
photo
totalit@@
ehrten
Gewin@@
rist@@
gramm@@
drucks@@
la-@@
läss@@
Airways
dio
adidas
oi
trage
Has@@
Broad@@
Print@@
ature
oten
shor@@
edes
Ped@@
digital
vie
Mun@@
Mid@@
Arbei@@
onale
Brei@@
rep@@
Sty@@
ю@@
Anreg@@
kler
entdeck@@
Michel@@
begrü@@
ston
Split
eon
Multi-@@
Deleg@@
ria
π@@
Vorred@@
gerecht@@
long
Protest@@
Adam
data
fa
any@@
ел@@
Kil@@
hang@@
soft
Eco@@
cu
CC
Verona
pez
Mix@@
want
jn
press
geleist@@
sell
hilfrei@@
ollars
w-@@
dal
ás
alia
perf@@
module
ĺ@@
vente
CAD@@
Schwä@@
Allgem@@
Cash@@
ennis
Canaria
Budd@@
ring
RES@@
SIM@@
EGF
Arts
nör@@
invol@@
Based
Impl@@
gni@@
propri@@
Max@@
....@@
B.@@
mani@@
wich@@
Wh@@
hung@@
50-@@
iten@@
Exp@@
org
Lanka
Konsult@@
Terrain
dis
Vorberei@@
aufmerks@@
FF@@
agenda
.....
Division
ismo
baro@@
take
alphab@@
atin
lagerung
aca
porno@@
End
Feli@@
enstadt
Direc@@
ESS
MAN@@
Loy@@
verstärk@@
Ny@@
Geor@@
America
Potenzi@@
¿
Punta
shaush@@
staun@@
Feed@@
barri@@
Sie@@
better
Scan@@
gen-@@
Monit@@
Dubai
ühen
sche@@
tweit
ids
Access
hum@@
verein
Administrator
MM@@
BIL@@
RAM
Texas
Erdbe@@
mischung
DP
wood
ox
lings
airo
API
lio
Oxford
WM
cz
SC
ν@@
ßig
noti@@
Pilot
15-@@
Johann
fin
Boli@@
Bike
ieden
dex@@
I.@@
Bulg@@
más
UPS
С
grat@@
142
Karel
emis@@
24-@@
one@@
DJ
от@@
Erneu@@
bevölk@@
Cany@@
harm@@
RF@@
zy
Granada
Facebook
figuration
NCC-@@
Barnier
Hitler
inken
Jam@@
freiwil@@
Kroati@@
entur@@
every
lossen@@
Besor@@
gesam@@
begeist@@
e.com
Lama
Immer@@
sekre@@
emi@@
Johannesburg
SIS
Word
Magic
beträcht@@
sprüchen
Piet@@
resi@@
Social
ju
heik@@
werben
pho@@
ira
villa
entwick@@
wig
überwach@@
Hai@@
Smart
Old
Ash@@
half
Zap@@
très
habit@@
đ@@
potential
raft
agr@@
ee@@
Secur@@
during
Ã@@
XX@@
Integr@@
stra
Auftrag@@
Do
distance
ext@@
lies
uß
astro@@
eim@@
14.@@
profit@@
Erfahr@@
including
Maximum
COM
Feh@@
sab@@
Resp@@
enfor@@
ów
uno
levard
website
zon
cent@@
alls
öffnete
They
everything
IER
klärt
äten
Baby
neur@@
ym
ases
check
TAC@@
schafter
ausgestatt@@
zipl@@
Kim
put@@
kern@@
Oslo
P.
128
Effizi@@
Walli@@
alu@@
Ramblas
words
Laman@@
schritt@@
jeg@@
timent
Trade
Jack
wel
HN@@
thotel
tera
LI@@
Mau@@
bike
ŕ@@
α
e-mail
TEC@@
cuisine
bia
gente
Dyn@@
FS
Beispiel@@
Aber@@
sung
Petersburg
File
ehmen
cling
äst@@
Doha
fu
coffee
SOL@@
usa
WHO
aufhin
biom@@
desk
Pis@@
eim
ry@@
konstruk@@
Gesell@@
koll
MIN@@
Innsbruck
HOTEL
Sep@@
Ign@@
parall@@
Geschen@@
fair@@
lek@@
U.S.
Swoboda
wässern
simple
Luxem@@
Ökonom@@
ör
ej@@
ij@@
egelt
Henry
Chor@@
few
EI@@
direct
ingo
Messenger
Pots@@
NT
aro
unch
pler
Tunnel
nobyl
Boh@@
Sofia
Focus
Stan@@
Baro@@
Memory
Script
onom@@
gor@@
ity@@
1972
profile
nel
yo@@
PER@@
NT@@
Awards
Div@@
RSS
Albert
Call
Köl@@
spannung
sprü@@
lock
Shops
tras
word
Framework
alle@@
ationalen
Gipfel@@
play
ades
act@@
щ@@
ordin@@
Finan@@
Berlusconi
Vali@@
Nikol@@
atic
Travel
02.@@
Visual
exe
problems
Frem@@
universi@@
stall@@
ā@@
ohn
uter@@
League
drau@@
blog
A5-00@@
uk@@
jap@@
orthodo@@
ways
sili@@
lj@@
Astronom@@
PT@@
leur
Bev@@
han
tise
It@@
Schien@@
Tob@@
ichten
Learning
amin
38@@
tory
beds
gegeben@@
ember@@
Medina
Asp@@
efe
Harbour
Willi@@
Soft@@
merk
Mario
ay-@@
Buil@@
ort@@
gipf@@
Mut@@
Überna@@
Project
amos
не@@
ignano
Reicht@@
1960
cle@@
cha
lav@@
aliz@@
bab@@
Banglad@@
Hill
veget@@
AST@@
gewach@@
ehende
dah@@
Bewus@@
ison
Evolution
Eas@@
Erika
rei
behinderten@@
real@@
sli@@
Earth
RI
Road@@
andin@@
Budgets
kos
Controll@@
FT
Vegas
dumping
Stabilität@@
thof
List@@
mon
age-@@
course
Print
ğ@@
Cour@@
kommens@@
our-@@
verring@@
computer@@
Eurob@@
tain@@
motor@@
Zoo
pts
ted
Language
unterbrei@@
zwin@@
phen
vic@@
Eurostat
ays
Phil@@
Boutique
15.00
Society
ECHO
tom
Info
stable
eron
TW@@
MB@@
Lief@@
06.@@
HS
Excel
Laur@@
Befür@@
ing-
1950
Reserv@@
künf@@
wag@@
verzi@@
Geo@@
Harry
esh@@
Water@@
Burg@@
Of
Wolf
utili@@
endorf
tion-@@
Giovanni
Laser
wind@@
fft
woo@@
GL@@
gross
PM
eden
gehens@@
trol@@
Od@@
12-@@
oly@@
SD
DEN@@
Director
profi@@
pret@@
zufried@@
Mex@@
being
Conference
Florida
PA@@
hir
Oracle
strateg@@
wind
Report
iga
enda
Argent@@
Pavi@@
ASA
RS
amento
IST@@
erschi@@
4-0@@
bilater@@
sums
ensive
cy@@
ret
oper
isc@@
provo@@
verli@@
vorhand@@
Palais
aires
music
Mozilla
Gibraltar
Deli@@
Hong
short
Graphi@@
ка@@
absur@@
tan
Sak@@
Schwe@@
ght
Zah@@
Small
sofa
found
plötz@@
israel@@
Cruz
Jet
nehmern
Corn@@
geseh@@
clubs
750
Brasili@@
DE@@
ying
Cancún
Rose
Commander
fund@@
post
local
wi
aan
ded
OL
Dog@@
näher@@
schrank
NH
outs
region@@
E-mail
oli
Flo@@
Premier@@
sto
Bluetooth
train
ли@@
ien@@
sicherungs@@
ign
due
eme
Manuel
gon@@
Wilhelm
Academy
wirtschaftung
Kong
Erdo@@
route
jpg
TNG
laub
Guatemala
Pent@@
gebäu@@
spe@@
Relax@@
ervice
mel
zeugung
plur@@
anti
Neuer@@
Ax@@
sse@@
both
details
flow
magaz@@
Photoshop
zukünf@@
Bangkok
äte
Eri@@
wid@@
Advanced
ü
stark@@
beteili@@
Mahl@@
wärmung
quer@@
ran
eno
geo@@
fat@@
Assoziierungs@@
anta
GEN@@
ever
Down@@
anto
IW@@
Zar@@
uta
Bridge
dialog
Nom@@
sor
Clau@@
Au
Oliver
ри@@
Wikicars
utive
sko@@
ährt
reiter@@
boten
Lyon
eilungen
atri@@
asi
grande
Engine@@
iti
browser
ا@@
Rum@@
progres@@
verwei@@
instruments
rieb
ples
Holding
cial
optional
gan
liner
näch@@
leister
Telek@@
Lufthansa
gallery
Stal@@
inten@@
ème
immobili@@
Seattle
tär
list@@
Alarm
otive
Hay@@
HR
af
SM
market
yle
zar@@
Viol@@
cont@@
én
Damp@@
dena
pla@@
php
~
genü@@
äfen
Volkswagen
aba
cin@@
04.@@
camp@@
Spani@@
BB@@
sons
Rica
TRA@@
echno@@
ärkte
Look
contr@@
£
jung@@
How@@
Agent
Game@@
WW@@
stab
xes
Chris
Fix@@
Georg
sting
Hub@@
DB@@
lovely
Blizzard
Simp@@
defini@@
Ratsvorsitz@@
eters
til@@
eman@@
inas
agon@@
CC@@
sup@@
Gebur@@
Vig@@
Rech@@
peline
pol
Crist@@
Liv@@
07.@@
Porsche
Hilton
Fle@@
Erhol@@
Panel
Country
gur@@
working
convenient
bars
Universi@@
mari@@
amentos
destabili@@
Mugabe
TA@@
graben
Cross@@
tut@@
Kit
And
Guantánamo
tea
dank@@
Ps
otte
Watch
22@@
ärm
SU@@
1971
Monaco
λ@@
Kohäsions@@
geförder@@
edt
spre@@
Hou@@
Markus
Alpha
ve-@@
loy@@
Zwis@@
geschei@@
Reli@@
Rain@@
Govern@@
Book
ebook
sympath@@
aman@@
run
betreuung
Gate
Bill@@
Kompro@@
rigor@@
mos
oleranz
hoh@@
deleg@@
wegs
Conc@@
Carl
E.@@
Magazine
Spo@@
ThyssenKrupp
edes@@
centr@@
05.@@
chterung
wan
blen
ells
achteili@@
partei
offenkun@@
Food
llon
THE
Full
amendo
zwungen
wis
Som@@
lv@@
tickets
oro
gran@@
Posselt
Claude
Steph@@
Arn@@
cam
ELL@@
SPA
ф@@
Niel@@
neutral
Journal
kes@@
ATA
Track
Coun@@
Go
dor
tox@@
Motors
bad@@
losses
ardin
eas
hing@@
Schmi@@
promin@@
geom@@
sed@@
,000
ense
18-@@
ket@@
ution
Crow@@
mund
hardt
Anth@@
Slowak@@
Valley
aging
ą@@
infra@@
Komplex@@
Aar@@
Prov@@
apar@@
Bak@@
teams
Leonardo
été
kon
fine
look
Pisa
Mini
Kontrol@@
ühm@@
Turk@@
Jahrzeh@@
fts@@
without
Zak@@
Lig@@
int
onia
Twitter
YORK
Gonz@@
läne
einger@@
Korre@@
Bosni@@
voor
ilit@@
Spit@@
Eurex
gik
wacht
Nass@@
Ds
Kons@@
Gy@@
io@@
mom@@
ени@@
hou@@
itts
Franç@@
Pakist@@
Präsi@@
angt
erns@@
promis@@
Resour@@
Dolom@@
screen
Car
Prior@@
integ@@
Ali
Heinrich
effizienz
LED
Di
2050
inson
Alz@@
ability
agn@@
Frontex
Leon@@
erkennung
arin
Per
Elektron@@
Light
ial
ship
Turin
Monitoring
eiro
Ludwig
zial@@
cus
athon
aine
Torre
Begrün@@
iller
lätz@@
Schokol@@
vote
adap@@
MI@@
Marx
Speci@@
Double
ke-@@
years
Lago
Spock
DS9
stechn@@
Cards
chungs@@
inv@@
REACH
ção
lov@@
hydrau@@
Search
Pom@@
Herb@@
jan
Roman@@
cons
jur@@
schlimm@@
rey
händ@@
gehöri@@
nar@@
Somalia
ept@@
IVE
VP
lexi@@
Vinc@@
by-@@
Brin@@
oba
Hem@@
CV@@
ICA
stayed
timmen
105
uk
former
Burma
Á@@
unic@@
ktor
mans
Buddh@@
linder
ASS@@
unterbro@@
veh@@
orn@@
Rosa
Officer
4000
CP
Jür@@
Jas@@
sin
estu@@
trolle
Materi@@
Sea
tax@@
Balkans
Til@@
gerade@@
based
Equipment
GMO
ield
enzo
ech
1200
Baj@@
ML@@
gla@@
sparungen
einstimm@@
kit@@
Pes@@
Phar@@
Mare
Instru@@
rest
Congress
tech
Schließ@@
Jor@@
Ambi@@
plas@@
uc@@
nous
Mercure
kosteng@@
trauen
bedro@@
Schrö@@
orium
Aven@@
Touch
Solar
partment
SSL
101
Befrei@@
Manchester
mee
know
ment-@@
awa
ill
itation
ae
Universal
design@@
poly@@
extre@@
Karri@@
jan@@
promo@@
Photo
hes@@
installation
diversi@@
flag@@
Flücht@@
Stockhol@@
Rights
Kolum@@
Josef
rts
YouTube
Core
games
XL@@
control
Iz@@
nica
Heidelberg
1956
esen@@
always
Rooms
vre
cla@@
ernen
zona
Sydney
Check
ills
enti
vign@@
45@@
Isch@@
Thessaloniki
repub@@
ahme
nommen
Davi@@
haupt
Gan@@
Scre@@
mais
Aufre@@
fairer
ström
mg
atti@@
cell@@
road
Wies@@
Shuttle
CMS
Ala@@
DO
getau@@
must
ISA
horn
Vati@@
Investment
Málaga
thur
ect@@
Eurocopter
Guest
fres@@
anschluss
Font@@
Astrium
cache
License
Wallström
Bör@@
operation
populi@@
supran@@
Gül@@
RA
Christop@@
resist@@
São
³
fred
Al-@@
за@@
alisation
CT@@
ä
Statisti@@
Prix
chambre
pher@@
Jahrest@@
pots
wärtige
Catalunya
Sour@@
SilverFast
vertr@@
Liikanen
Alicante
Pyren@@
dot@@
rem
Cardiff
NA@@
AB
QuarkXPress
.NET
Speed
Bolkestein
ränkt
Sir@@
lenst@@
Sell@@
ato@@
fürst@@
Lyn@@
verletzungen
1900
Eig@@
A1
Play
Vorbehal@@
jour@@
instre@@
Solidar@@
burg-@@
kilom@@
1965
Leop@@
KON@@
php@@
й@@
Dire@@
Euros
lied
ral
Gewähr@@
transatlan@@
kammer@@
using
read@@
Crus@@
Sank@@
KS
ssiers
beein@@
eing
reserv@@
tif
evi@@
zh@@
Directors
Castle
German@@
Atmosp@@
chio
Elisab@@
1957
Überwach@@
ART
Rett@@
001
000@@
Cru@@
moment
fr
oler@@
rupp@@
Alexand@@
administr@@
Sky
spot
ć@@
mium
besor@@
Holoc@@
Will
Angola
Hinder@@
Bow@@
veaus
uten@@
oot
ading
Gab@@
gets
onna
ambots
grades
Lee
sees
ple@@
Sisko
Verfass@@
NAT@@
Thal@@
Nichtraucher@@
core
kW
Area
Metal
files
Verständ@@
erinn@@
schuldigen
veröffent@@
jer@@
base
Rober@@
mbo@@
Emm@@
agua
cho
cast
experience
Kis@@
tima
enni@@
Effek@@
Chirac
Esc@@
Fok@@
Fit@@
kommunik@@
schalter
bler
hne
Eben@@
group
prochenen
sön@@
Grü@@
Ze@@
gue
COD
Galici@@
ürlich
wich
Bah@@
bat@@
Docum@@
.com.
Dalai
Lord
uis
FO@@
boot@@
WE
boar@@
Parlam@@
115
tiz
but@@
10.00
voc@@
Radisson
1.1
assung
stop@@
Reguli@@
uel
vin
gemü@@
Prac@@
enberg
½
Convention
ui
1948
chtlin@@
regime
Brown
nien
Kör@@
tap@@
PV@@
Channel
MID@@
Creative
Reding
GAT@@
Toul@@
ktur
adar
Conil
ferenz
11-@@
Proc@@
dit
volta@@
ffs
Cann@@
ART@@
king@@
Poettering
param@@
ao@@
fans
relative
Nepal
Jar@@
village
bio@@
DC@@
fied
Activ@@
KB
him
Verpfli@@
lobby
1964
Are@@
-in
Mic@@
NA
led
pedi@@
û@@
soci@@
103
Beitritt@@
9.00
Fou@@
cy
Bologna
jus@@
out-@@
Key
Pit@@
Stub@@
ascript
regional
CNS
tax
ro-@@
jar@@
Zivili@@
refer@@
hen@@
Day@@
rab@@
ev
oma
geschoss
cking
sti
LabVIEW
sono
bels
FP@@
Salvador
Mercosur
loyd
cra@@
Adam@@
Christoph
48@@
Centro
pal
Weih@@
endums
Stephen
ICE
ographi@@
hab
1962
vent@@
Bös@@
Gom@@
chmal
Mr.
zusagen
besetz@@
zio
emann
Symph@@
1961
ı
Collection
Ausgang@@
endt
entscheiden@@
Empire
abetes
Arz@@
stop
ation-@@
Simon
zza
Tower
date
Secure
essimis@@
ussion
Carmen
Out
major
making
estro
lift
Wireless
reichen@@
Castro
Ans@@
Austr@@
rum
vio
Freiburg
asso
elier
shot
Series
Gallery
mine
1966
Lady
Mr@@
Days
ister
case
Lac@@
Fort
1939
Linz
Bai@@
Program
Swiss@@
quo
Jen@@
CD-ROM
spo@@
Sey@@
Smi@@
Moz@@
мо@@
і
ücke
diver@@
häufig@@
dam
Kreativ@@
ssi
World@@
e.
œ@@
album
ل@@
ORE
respek@@
VE
Bauer
rauch
Capp@@
Jarzembowski
itar@@
elimin@@
acci@@
Polo
Capital
ometer
SER@@
aris
Provence
Pun@@
SG@@
Corbett
Baroness
gelief@@
Che@@
ór@@
Andrea
Que@@
Asset
Comfort
EURO
evalu@@
allmäh@@
ladung
Press
Cambridge
lus
-in-@@
History
PayPal
metho@@
Dell
Angela
Hus@@
those
cion@@
anks
Verhäl@@
Rotterdam
rea
II@@
Non-@@
Farm
ury
CIA
a.com
enem@@
Dän@@
Archive
arib@@
Map@@
egi@@
krä@@
kategorien
SR@@
fluss@@
Basic
Lak@@
hist@@
Chianti
BSD
regelmäß@@
Apar@@
Mountain
abs@@
135
ime
Let@@
vel
K.
Wäsch@@
Geri@@
Eric@@
August@@
ACE
oud
Eden
apartments
Fund
ahrt
wonderful
face
Italia
dom
different
Verfassungsver@@
wn
Modern
IO
three
Tunes
EOS
arbeitung
Lamy
extremis@@
Byr@@
240
ush
raf
ITE
accommodation
kraten
absor@@
Schätz@@
Häus@@
Quint@@
sit
shops
sing
ate-@@
Wär@@
oo-@@
Sag@@
BG
Cost@@
Files
Acrobat
Kommiss@@
Whi@@
Campo
throp@@
Son
ogni@@
G20
Daim@@
pleasant
Jus@@
Jugosla@@
mails
empfeh@@
INI
230
Visit@@
sourc@@
120@@
MAN
enna
TM
atico
190
multin@@
gesand@@
Consult@@
ima
unt
enough
onto
Carlo
rigi@@
Sowjet@@
tests
impl@@
ticket
Titan
Magaz@@
dec
chil@@
Tay@@
OEC@@
Kenne@@
PE@@
Reprä@@
ances
counts
800@@
Admir@@
spark
direc@@
morning
outside
integration
essenti@@
Arafat
poth@@
xy
Brutto@@
Gerichtsh@@
andern
unruhi@@
pause
Veri@@
Soci@@
game
lack@@
Weber
CAM@@
HT
gewäh@@
Miguel
Inclu@@
IF
mware
esc@@
WM@@
EAD@@
2.1
ς
fortable
izer
Vitorino
Landwir@@
Verhalten@@
Council
ves@@
orient@@
MR@@
acion
klärung
eler@@
1949
Valle
STO@@
1944
Graz
kit
C.@@
aiss@@
Zend
lib@@
österreich@@
ld
stät@@
Ukra@@
unique
Quick@@
Model
1.0
ICEcat
guests
tia
iter
bird
vali@@
heimer
Patrick
extremely
anti-@@
ROM
cannot
Mars
läubi@@
OM
fried
Ast@@
videos
Borg
lov
Virtual
GIMP
übung
hygi@@
Meeting
Leone
Konjunk@@
inner
Dir@@
formul@@
premi@@
Jesolo
Easy
GOL@@
Margar@@
junk@@
do-@@
alien@@
taire
ßen@@
Din@@
ites
least
Malaga
Asia
ket
Steinberg
Währ@@
haupt@@
blan@@
opath@@
ogo
ima@@
Electron@@
liked
с
spannen
Zuverlässi@@
usin@@
toler@@
beck
gezi@@
Yam@@
1.5
ă@@
Underground
Lieutenant
oos
IMO
onym@@
unabding@@
Pé@@
Stunden@@
650
eling
aar
asso@@
omo
Pho@@
ő@@
Pep@@
tv
Montreal
2.2
CR
Gui@@
Viz@@
gements
Unit
film@@
training
Proven@@
cop@@
Automation
bedroom
bury
Gon@@
Servi@@
grand
34@@
nez
280
Termini
thil@@
ough
simp@@
Harv@@
ining
Zagreb
1933
uit@@
Canal
ered
care
DSL@@
law
Romagna
beher@@
Cohn-Bendit
ize
toll
ening
Liechtenstein
note
kön@@
AVI
Credit
WiFi
ici
ector
formal
uls@@
Natura
Erei@@
Nahr@@
quantitative
stöße
ritz
scar
has@@
sure
Lab
OF
Modernis@@
amkeit
Andre@@
cit@@
Matthias
zufrieden@@
hierarch@@
evol@@
ott@@
Joint
brief
patri@@
mir@@
ques@@
brand
M.@@
Dubrovnik
MHz
SEO
schlä@@
spir@@
Hollywood
wy@@
Bibi@@
solo
zeige
25-@@
Scott
mmer
LL@@
э@@
ungsch@@
bekistan
eriode
card@@
Gord@@
tras@@
sites
ères
smopoli@@
inia
work@@
Cash
Me
At
WordPress
ск@@
Ministerr@@
Sahara
Carri@@
jet
ño
emb@@
Expo
Sla@@
clim@@
eingerei@@
wachst@@
folios
zab@@
senal
Family
jun@@
non-@@
apo@@
Love
Châ@@
toil@@
Zerstör@@
asmus
pedition
wing
Werner
auto
Archer
Ferrari
Greg@@
head
pers@@
didn
Myanmar
tob@@
timedia
ysi@@
Subsidiaritätsprin@@
wunsch
lation
personen@@
AU
lor
alis
Elys@@
Bristol
anton
Beau@@
Motion
hours
recy@@
Uganda
1958
no-@@
Å@@
1963
aer@@
deck
Gastfreund@@
Connec@@
class
IX@@
favor@@
itte
mos@@
Otto
Ecu@@
Func@@
stav@@
looking
TT@@
Evans
Eurojust
rout@@
Verfol@@
Gul@@
emberg
Mitch@@
entino
pps
Challenge
P.@@
Ubun@@
efen
amerika
Norweg@@
tick@@
seen
mins
1930@@
Ferrero-Waldner
egenheit
polizei
Flori@@
vern
pit@@
Young
Nau@@
Marc
try
Abbas
micro@@
fusion
PVC
jub@@
Louvre
lee
Partn@@
ciano
love
ą
Infineon
Elba
bewaffn@@
ende@@
damp@@
izza
row
chrom@@
ños
HE@@
Style
vot@@
organ
avier
Sv@@
anas
kin
oping
oppel@@
tile
Mike
Bob@@
Karls@@
Applik@@
IRC
Translation
Marie
Paulo
tizen
otechn@@
possible
Yo@@
active
Excellent
halts
Sebastian
zutage
Poll@@
tili@@
lingu@@
Four@@
ürf@@
Just
Records
Palm
bath
Ankara
Karlsruhe
Delta
DB
Step@@
40-@@
Suu
marketing
transform@@
Mannheim
pero
cca
Barón
Tragö@@
hydro@@
175
Review
Jahrhunder@@
early
Carl@@
Istri@@
Sales
portfolio
useum
shots
Event@@
Terme
Cox
addi@@
befürwor@@
dings
atie
late
UB
CPU
proph@@
tast@@
wai@@
say
ely
U.@@
vá@@
encia
esso
Beta
milli@@
ehlt
budget
Gaulle
terran@@
scape
kontin@@
Stream
import@@
Provi@@
Dinner
PM@@
andinavi@@
Traff@@
Ai@@
Co
giore
ergän@@
Garc@@
Donald
kno@@
variable
VA
mpft
Lehne
Committee
ching
ole@@
Monter@@
enix
Jones
Lum@@
Kapaz@@
special
Hamp@@
Roy@@
Gabri@@
Pad
Orange
enny
nau@@
Nicolas
Shin@@
Novotel
Iber@@
Überein@@
iedelt
UNES@@
grade
ido
ries
Fam@@
Centr@@
CSS
Romp@@
FORM@@
plate
kommuni@@
blocks
Nevada
symp@@
ems
ango
sexy
dence
Ž@@
UP
Beauty
verschär@@
Carol@@
Cô@@
pay@@
lots
ley@@
ADI
trip
108
ermo
137
Economy
orio
Pedro
Senior
the-@@
1947
Manu@@
Classi@@
From
tionary
ungal@@
Wikic@@
5-00@@
blind
oul
Alan
han@@
change
pay
medium
aud
With
model@@
−
INE
included
gebilli@@
McCar@@
Kyi
Bangemann
Slo@@
Andor@@
Cum@@
PPE
isen@@
js
sphäre
elev@@
Nami@@
AID@@
phas@@
ief
wick
caf@@
Wä@@
rest@@
oth
ATE
Si
ENG@@
Mary
Kev@@
Com
TRO@@
of-@@
Princ@@
Parc
WB
Cardassi@@
bsp@@
liqui@@
rand@@
spieg@@
SP
Langu@@
Ray
wild
ality
õ@@
Veranstalt@@
O.@@
Supp@@
Town
Rome
download
boa
propor@@
rage
Interpre@@
1940
Ces@@
Ausnah@@
Alba
Urugu@@
wien
365
Ple@@
aching
Map
1930
think
ror
FTP
LCD
feel
relax@@
BugTraq
Crespo
rücke
anza
veri@@
schiebung
He
Var
eingericht@@
range
ю
persön@@
mili@@
magn@@
chal@@
worth
1.2
Scal@@
traktionen
ASPs
џ@@
Jim@@
Kris@@
Econom@@
Medical
power
Heathrow
thing
allo
sho@@
1959
neut@@
ises
dist@@
sigkeit
inj@@
otto
Biblioth@@
Banking
ree
Philharmon@@
i.@@
KUKA
Fontaine
allgem@@
Mittelmeerr@@
Malm@@
pertoire
Cart@@
wat@@
Second
Ec@@
Inten@@
hosp@@
Besit@@
aser
sko
teb@@
Xi@@
stream
zn@@
Inc.
bedded
к
ex-@@
haupts@@
Wech@@
entures
geschritt@@
ESA
number
bing
atar
Schü@@
pression
GS
visit
ehrter
Slowen@@
atisti@@
sted
fem@@
ingham
asa
boards
dson
Mall@@
Nig@@
Long@@
mina
Sah@@
112
tei
ZO@@
Autover@@
California
Sm@@
1920
District
she
ě
Can
parlament@@
margin@@
mid
asymm@@
redi@@
Respon@@
amen@@
Wik@@
may@@
equi@@
Pub
pm
Yahoo
cad@@
Linu@@
zul@@
barbar@@
lug@@
Martini
sation
pet@@
view@@
befeh@@
ber-@@
tschrift
atmosphere
Erhöh@@
SI
ASE@@
gement
paper
DNA
Phi@@
cky
Nordic
events
Your
root
Milano
ACK@@
gesundheit
Herman
stadium
soft@@
NC@@
Hyde
atin@@
When
LIN
grenzung
Morgan
utzt
forts@@
GV@@
Steve
ί@@
Photos
-Benz
ww@@
signal
bewaff@@
Parag@@
gee
WS
metro
belt
frank@@
kni@@
wh@@
generation
Soll@@
Eintritt@@
2-3
Lon@@
ï
ISS
noise
ML
Hear@@
ming
som
PP
Vancou@@
HER@@
Hat@@
Schicks@@
öch@@
porter
eper
rett@@
Application
Coff@@
Brava
riterien
wra@@
Böge
frau@@
Annan
Chic@@
ood
pir@@
ological
ress
ful
duc@@
dres@@
door@@
otti
Mexico
Cris@@
beit
utter
Oomen-Ruijten
unds
Co-@@
ergonom@@
spa
type
fantastic
Affiliate
ов
Verschied@@
Hop@@
ärk@@
ding@@
lehnung
stattfin@@
600@@
TP
dev
bor
Mandriva
zügigkeit
Erinn@@
polit@@
alts@@
Keyn@@
aco
Care
ths
ì
П@@
provided
stal@@
materials
sortium
ingrad
Queen
allas
rome
MSN
conf@@
Imaging
prov@@
visit@@
What
ic-@@
33@@
pedia
SOFT@@
finan@@
diglich
benö@@
yl
ähri@@
wait
Vermark@@
Mozart
olz
tail@@
vie@@
menu
mode
→
räsident
Chemik@@
sanit@@
energe@@
lander
rhyth@@
ock
lic
Garda
ions
Continental
though
VII
inger@@
Verknü@@
satelli@@
ancy
coll@@
Wild
Spirit
SQ@@
bekräf@@
pru@@
choice
Base
omas
eBay
week
ghts
Casi@@
robots
vision@@
Navig@@
Valu@@
Kaz@@
Balk@@
Geltungs@@
Vinci
mun@@
ehmern
quad@@
Eric
Johann@@
Tourist
GB@@
Gates
Zubeh@@
Pocket
After
beantwor@@
monop@@
deaux
Empfeh@@
olls
sev@@
Guar@@
Guinea
anos
terms
Pacific
-up
nick@@
Ligh@@
taxi
ű@@
aligen
sere
ark
Ear@@
Islands
Birmingham
Fuerteventura
ple
alto
itali@@
achtungs@@
Building
sof@@
arts
roff@@
gebro@@
relev@@
mur@@
Kap
ency
ger-@@
Clin@@
Boston
wide
que@@
lu
Active
Fujifilm
ärkten
Bos@@
mbol
hetero@@
Ljub@@
party
Order
2008-@@
DES@@
LON@@
Walking
comfort
Stru@@
thro@@
revolution
sourcing
anche
Future
anol
Produc@@
Austrian
enhof
ATION
features
unnel
aim@@
Situ@@
Direct
PO
Utili@@
VIP
stimmung
arios
ues
proxim@@
226@@
Finance
contact
host@@
gano
leyball
Azer@@
Happ@@
yes
eries
Chil@@
geänder@@
14-@@
DF
Tokyo
Church
atter@@
plays
ae@@
Relax
ached
tio
mid@@
down@@
ype
anni
while
goo@@
rupt
therap@@
gress
Long
Points
ieder@@
avi
rue
aggressive
athan
embry@@
gelist@@
track
garden
designed
recommend
ärkt
ping
schwe@@
pro-@@
dak
kov@@
estelle
mini
especially
swimming
yen
phen@@
Peter@@
products
ud
gy@@
Errungen@@
16-@@
FIFA
May
mix
Hot
ommer@@
Night
drive
zeln
Cadiz
Ankün@@
berechtigung
brutal
Rac@@
Electri@@
poor
acro@@
expensive
Erwä@@
immen@@
quis
österrei@@
ASEAN
Arc@@
TCP
BBC
LIFE
ru
timedi@@
ARC
company
thers
Romul@@
pris@@
exc@@
Belgi@@
A4
Rah@@
Policy
List
left
lay
3.1
pop@@
tons
Höhep@@
Certi@@
erry
exqu@@
Peru@@
Pier@@
Vienna
strong
kat
Non@@
pag@@
stone
guide
asur
besei@@
hes
booking
French
Loun@@
tures
Griech@@
marks
Vietnam@@
Augu@@
children
walls
tical
You@@
Puer@@
veau
Ruß@@
Anges@@
enn
alta
King@@
Latin
Dez@@
condi@@
erläu@@
jenigen
Bürokrati@@
Af@@
ladi@@
proj@@
astronom@@
Zau@@
differ@@
mad
isl@@
true
ant-@@
Prime
nou@@
υ@@
another
load
paradox@@
arro@@
COR@@
gum@@
Fox
jac@@
tschaf@@
lement
born
femin@@
oral
cool
ych
POR@@
Stärk@@
etor@@
nesty
Peters@@
cool@@
Twin
tranqu@@
Reception
king.com
miner@@
berühr@@
tops
Auth@@
Bec@@
metro@@
tration
County
areas
Wikitravel
nights
zusammenarbeit
intelligent
Labour
minimal
Develop@@
going
palette
haltet
HI
welcome
Ltd
resort
enjoyed
einschlä@@
Nachricht@@
inser@@
stron@@
Under@@
ram
chise
States
program
Ethernet
Belast@@
auft
rob@@
pse
aries
fam@@
seb@@
Disney
vac@@
ń
enjoy
Page
uropä@@
attet
Sow@@
Britt@@
senti@@
E.ON
places
shuttle
folgerung
läß@@
staats@@
gst
ingungen
tradition
umph
bah@@
pon@@
anno@@
meg@@
Jose@@
event
η@@
until
geschnei@@
В@@
Äußer@@
warm@@
ories
inhab@@
ove
ę
Age
hion
dates
lounge
palästinens@@
wiegend
unnels
iles
general
action
immern
lay@@
mittl@@
punc@@
tribute
api@@
ave
aver
export@@
Impro@@
index@@
es.@@
Gedächt@@
Major
Joh@@
ismus@@
Andrew
hai
points
voir
books
Racing
since
noisy
Tours
IDE
ziplin@@
LAF
ücks@@
Begren@@
mers
ächlich
Möglich@@
mont
dungst@@
chec@@
added
immense
Entscheidungst@@
shall
racht@@
proc@@
FF
rac@@
dev@@
pes
CRM
onic
thy
erör@@
garde
chill
dial@@
Type
PG
bres
Mount
Package
Bahrain
substanti@@
Syri@@
news
1950@@
echo
Window@@
Unix
never
hall
damer
milit@@
veranlas@@
Water
bridge
Columbia
plates
Total
verhin@@
POS@@
Thai
dial
sauna
valent
Mec@@
fully
unas
Economic
NET
ī@@
2.5
includes
pages
ista
monum@@
wellen@@
Made
radio
Process
designer
ACH
Munich
Affili@@
ießen
ront
infl@@
ffel
rement
open@@
relaxing
Part
Konflik@@
than@@
lla
cab@@

Р@@
enzimmer
second
liance
Department
Sad@@
dow
cons@@
Next
install@@
Eleg@@
Chan@@
Studies
neum@@
fy
umping
gewo@@
wers
tsprin@@
richt
box@@
Stalin
taste
BE
museums
so-@@
important
ooks
SERV@@
GNOME
ет
wäs@@
ption
ufen
assis
Us
δ@@
More
Legisl@@
äußerung
analog
Chur@@
Cotonou
PR
Communications
VIS
equipped
ample
``@@
steri@@
parameter
AA
arian
Silver@@
ALL
-Ster@@
stock@@
Energiequ@@
Fair
Associ@@
job
bu
ι
Janu@@
Commission
side@@
Commons
search
tool
Miles
uung
rant
ßnahmen
tis@@
gate
Industrial
ili
By
passive
appelli@@
lit
Irish
ower
But
orca
mile
Works
genheit
Vermögen@@
Gastronom@@
Champion
does
kitchen
Gericht@@
professional
spac@@
ook@@
jack
Spazier@@
juris@@
ICE@@
µ@@
charge
ides
things
Swe@@
Sharon
aw
People
berry
direction
Jacuzzi
zeh@@
HOT@@
neh@@
bal
benach@@
Stef@@
Wis@@
give
kking
Gipf@@
kland
gam@@
smu@@
hall@@
non@@
G8
ails
Clean
Customer
bemüh@@
thor@@
NG
ASE
intuitive
riterium
mini@@
unterst@@
Klär@@
rit
Montre@@
Behand@@
Canada
host
dinner
luxury
Beitrittsk@@
ränkung
NGOs
katoren
era@@
Law
needs
ONE
eless@@
Little
з
thumb
exempl@@
tnisse
logan
epide@@
isition
boy
decorated
include
unfair
Koloni@@
..@@
Race
tice
eel
ours
pod@@
Welthandels@@
Auswei@@
moral
atory
Stop
satlan@@
esien
gence
sul@@
studios
hängi@@
wart
state
definition
Mig@@
buil@@
BAE
end-@@
shows
oft@@
enze
Dut@@
own@@
Veranst@@
Fußgän@@
pers
tools
sensor
stations
fact
ped@@
ules
Erasmus
bey
ì@@
abu@@
Vice
gy
sions
reads
river
sound
Conci@@
low-@@
Telec@@
entru@@
yan
vide@@
Work
provide
av
cc
º
lossenheit
E-Ma@@
EFA
dump@@
Pear@@
anya
nature
coun@@
UT
Silver
ERS
please
arrival
ernsthaf@@
Os
call
GM
Cross
was@@
pun@@
Italy
Estate
seeing
Head
Addi@@
Unterdrück@@
four
lier
Electronic
squar@@
htt@@
shi
niture
denschaft
Appl@@
Alkoh@@
schem@@
emand
istic@@
cross
Smo@@
Н@@
Writ@@
Color
fere
berücksich@@
quanti@@
oods
figer
lé@@
Adres@@
Nev@@
follow
Erinner@@
viol@@
poker
cat
т
dimension
now@@
mäh@@
Apri@@
ead
Cher@@
Infra@@
ness@@
once
Stuttgar@@
terminal
xim@@
oh
current
quick
activ@@
went
Ever@@
FOR
Relations
Ameri@@
Schen@@
hine
urity
social
benachbar@@
tini
bac@@
plac@@
Most
letters
evening
attractions
höhen
endant
destens
ALE
ketball
aph@@
phot@@
speed
Ms
ů@@
belief
150@@
navig@@
ameter
lac@@
although
Located
zeption
ynam@@
rel
Emer@@
WT@@
performance
poli
etch
equipment
partic@@
provides
HTTP
Java@@
ventive
new@@
lieb
bak@@
window
Trading
š
Koh
brow@@
Ocean
Sax@@
Vac@@
logs
unge
coni
holiday
pictur@@
ew@@
Four
sourcen
Expl@@

ötz@@
Commun@@
fly
distri@@
break
said
pdf
erlau@@
ush@@
fication
Lic@@
ph
dose
image
travel
office
î
outh
gestri@@
having
WAR@@
propose
entei@@
Spanish
recep@@
pack
biotechn@@
isse@@
past@@
country
guest
pose
Ultim@@
Hindu@@
acy
cel
Fire
living
Ÿ@@
hypo@@
heres
Guine@@
ú
Natural
Share
ن@@
ehrs@@
Milliar@@
bunal
fit@@
gold
yet
hat@@
İ@@
Quark@@
ď@@
privati@@
sorgung
sible
sus@@
beau@@
dian
otype
inter
learn
3.2
ê
icker
touch
bieter
Chri@@
power@@
rock
inion
legisl@@
gau@@
source
essive
riv@@
olas
ily
stom@@
round
Gardens
famous
smit@@
tra-@@
shar@@
Berichterstat@@
acon
Anla@@
oning
something
uan
sets
euro
pieces
sail@@
Regierungsch@@
Africa
Rüst@@
even@@
Desk
U-B@@
perform@@
Break@@
pd@@
tude
symb@@
etschen@@
litt@@
Defence
forts
trac@@
cultural
needed
Knowledge
edge
absich@@
ermin@@
Konsu@@
frieden
perat@@
isons
buff@@
Bath
booked
›
gemeins@@
Steel
ael
transfer
tages
Coton@@
oo
lust
Platt@@
esis
post-@@
acqu@@
Australi@@
gent
ended
given
nav@@
lines
utation
Beijing
Rail
Low
offline
futur@@
ausgewäh@@
rl@@
zard
fun
Demonstr@@
castle
tram@@
mosp@@
Ansprech@@
elling
Elec@@
cost
Dalmati@@
Get
school
below
niederlän@@
öder@@
Pek@@
nehmenden
kein@@
oun@@
ateway
Environment
elec@@
Week@@
cco
writing
bedrooms
katastrophen
kurzfris@@
term
schnellst@@
einzi@@
destru@@
zept@@
Nur@@
app
.m.
twin
create
Machine
Krem@@
Cau@@
militar@@
ammen@@
sprechung
Verab@@
Seven
anch@@
figur@@
Feb
Nachbarschafts@@
spots
amor@@
zahler
sour@@
mind
vas
Imperial
fax
mia
satellite
Â
deriv@@
urch
erland
w.
ty-@@
edia
rik
Implementi@@
Implement@@
Colum@@
paid
ct
Swimming@@
Only
force
fts
tering
use@@
pit
losoph@@
obil@@
2.4
basic
apart@@
beauftrag@@
Education
elek@@
Atlantic
festivals
orange
conn@@
Eiffel
green
Aug@@
cru@@
uting
Cons@@
several
windows
loo@@
1.3
Please
chermaßen
marking
kanen
Motiv@@
gle
Vereinfach@@
psycho@@
Remo@@
liv@@
Bang@@
osc@@
terns
senses
assungen
watch
unc@@
Verletz@@
tian
logo
3.5
golf
reserve
laubnis
ämpfung
mysteri@@
Army
dine
IFA
Doc@@
images
along
students
mens
hervorzu@@
Saudi
bod@@
myth@@
theat@@
zing
winter
done
following
staatlichkeit
reb@@
stres@@
share
bay
faces
pin@@
eat
ο
select
Befürwor@@
fish
product
mp
squ@@
quet
oa
history
progressive
idi@@
compl@@
interface
alpine
phy
Sis@@
anhal@@
trade
empfehl@@
Communication
Forest
iPo@@
ž
sp
parad@@
ursprün@@
friends
confi@@
tique
Women
Change
ö
tube
bition
intim@@
Christi@@
Privacy
Pay
ful@@
festyle
Luxembourg
sleep
sq@@
Submitted
Program@@
gewandelt
esh
lak@@
Verstärk@@
key@@
took
transeuropä@@
horiz@@
asked
stopp@@
credit
vei@@
Edit
phones
disc@@
acier
multip@@
unmittel@@
glo@@
aup@@
Colom@@
century
arrived
balcony
appl@@
scri@@
gui@@
Hospital
±
Or
USE
horizontal
impro@@
Palästin@@
Industry
Thail@@
culture
Orchestra
--------@@
hostel
Untersu@@
kann@@
Entsteh@@
spec@@
ateur
lam
on-line
NO
March
simul@@
ã@@
Welcome
124@@
Ernähr@@
inclusive
called
К@@
ece
Lib@@
Product
batter@@
account
actu@@
okol@@
groups
across
wanted
essions
agers
Hongkon@@
Spazi@@
story
Betru@@
Erlei@@
mac@@
nuklear@@
asts
sym@@
sun
ún
eption
Establish@@
Platform
Ç@@
symbol
suites
princip@@
Parking
Vergangen@@
imagin@@
deri@@
transplan@@
store
October
aders
tac@@
study
dle
sug@@
solution
Cultural
Vermö@@
dice
hour
CAN
pository
Princip@@
Recovery
Spring
έ@@
inclu@@
Conven@@
esthouse
wine
mere
ismen
strichen
ILO
gradu@@
Tali@@
zwöl@@
dil@@
Ital@@
development
parts
oring
Tenn@@
×
flä@@
Diskus@@
considered
wech@@
1.4
ior
limited
nearby
aint
security
r.
sement
aces
cover
Debi@@
geno@@
rd
vement
ects
ords
Now@@
Books
clean@@
fresh
gher
speci@@
attack@@
vation
Now
genöss@@
ices
Property
γ@@
ziem@@
wage
plen@@
illeg@@
ground
2007-@@
Sever@@
research
nic@@
ked
complete
istics
unstable
Way
vod@@
extrem@@
Mayor
mean@@
psy@@
drinks
en-suite
panoram@@
helpf@@
Phone
today
wieweit
labor
Heidel@@
Summer
café
produc@@
wireless
commun@@
sex@@
balls
forums
ved
bewertungen
Wash@@
poten@@
unilater@@
Defin@@
arch
nam
thri@@
required
convert
lektion
Wilhel@@
rights
portugi@@
itate
Marok@@
tät@@
obs@@
ligh@@
Satur@@
Busin@@
akes
ν
Products
function
^
unto
string
hope
Wun@@
pati@@
provin@@
mbH
connection
thought
klusive
spartn@@
cap
aboli@@
ght-@@
return
Chap@@
nothing
property
historic
liness
square
Protection
human
atus
sels
rar@@
mouth
sy
ump
ū@@
Theatre
adise
summ@@
auc@@
Opport@@
Schott@@
ategorien
ane@@
Wolf@@
nüt@@
lets
räsi@@
hold
wr@@
eill@@
Leip@@
edy
historical
ckets
Grafi@@
project
Back
Räum@@
Applic@@
geben@@
enseits
gefähr
Commer@@
acces@@
tension
terrace
casino
offering
Doctor
fluß
enteils
ensei@@
Bemerk@@
Liby@@
bian
bas
robust
ete@@
Contact
Sehenswür@@
eway
rational
Monten@@
cing
uba
mare
graphi@@
tex
reci@@
conditioning
furnished
cali@@
emotional
wall@@
Reduzi@@
pure
clu@@
exper@@
chat
bron@@
cum@@
eks
told
Cold
Temple
Düssel@@
م@@
sec
Gender
virus
chmals
cards
fül@@
rings
happy
Nature
ged
exclu@@
Year
sav@@
ό@@
stry
Two
bitter
Inkraft@@
budgets
Vermei@@
Wahrnehm@@
learning
sort
jobs
boom
ram@@
Retur@@
round@@
court
Rass@@
Austau@@
ingent
senz
gall@@
lost
reas@@
Nap@@
Cul@@
Nichtrau@@
Peace
¡
Trav@@
almost
Come
popular
MIDI
Course
present@@
euros
cold
üssel@@
anders@@
Königrei@@
India
epi@@
Sett@@
easily
vill@@
group@@
diox@@
transfers
hing
muse@@
Click
Close
ň
Tube
gu
exquisite
endor@@
Ü
24-Stunden-@@
sat
bag
guy
überwäl@@
Agent@@
terrain
ō@@
whole
rays
Exec@@
built
Nordi@@
Biotechn@@
delegation
aran
oriz@@
raft@@
acio
Technical
led@@
Production
hormon@@
Gali@@
Children
Agri@@
winning
itar
Antoni@@
held
Jordan
entry
cultur@@
relax
rov@@
Ihr@@
public@@
bizar@@
peace
institution
beeinflus@@
bile
ş
camera
vivi@@
ahe
rose
Russian
Czech
final
however
clients
`s
ject
Result@@
weitet
either
Agency
Sept@@
eve
Fine
sent
Luc@@
amazing
english
Agreement
network
setting
tiqu@@
personnel
coa
assi
photos
aged
structure
Large
Ö
Paper
Extern@@
anspru@@
Read
Gift
Pressem@@
rub@@
Chinese
impul@@
covery
fee
adop@@
plant@@
you@@
supp@@
Prec@@
continental
hill
prostitution
Völ@@
deal
Money
pping
Americ@@
Notes
conver@@
script
Galile@@
films
Resi@@
FRE@@
Exc@@
Chann@@
till
stic
above
generator
YO@@
Ökon@@
Sunday
Mäd@@
scheidung
phi
After@@
charming
prices
variety
fahrens@@
chance
zzle
difficult
hybri@@
bourg
0.00
Men
Train
decor
traditional
metres
occ@@
ezu
Erklär@@
isco
natural
display
acu@@
struc@@
offered
write
capital
wild@@
tiques
dameri@@
Federation
duzi@@
erige
apping
big@@
wards
mögli@@
June
stress
welcoming
Ambass@@
unzur@@
multination@@
closed
obs
Gemä@@
chips
sed
rather
complex
rhetor@@
Veränder@@
policy
erle@@
ision
law@@
aver@@
conc@@
Common
ready
getting
Bluet@@
mental
Dutch
song
tourist
ε
amount
profes@@
unny
ر@@
leisch
main@@
Veröffentlich@@
dation
easing
gra
hyper@@
bration
О@@
That
getest@@
fan
ischen@@
aments
ady
baby
ears
came
owner
beglück@@
Enttäu@@
session
erigen
Coast
bags
iri@@
click
scanner
condition
Conver@@
Kommunik@@
ships
rug@@
Sciences
greg@@
ussy
Culture
Frankfur@@
sky@@
obile
later
korrigi@@
Chairman
pipeline
panorama
clo@@
ά@@
stering
stav
bikes
inside
Check-In
Millennium
Beträ@@
Europe@@
slo@@
glu@@
drum
emen@@
distribution
reading
client
dir@@
ulative
scheinend
dereg@@
Evol@@
gegenwär@@
Nob@@
flows
schlie@@
Living
thus
viewer
burgh
staying
Veg@@
amenities
.The
polite
expected
loved
degra@@
Friends
fare
environment
simult@@
Excell@@
check@@
algorith@@
ouses
˙
laub@@
demon@@
process
Beschleun@@
atem@@
speak
vierungen
west
Cz@@
cast@@
drink
conditions
wear
humane
already
unentgel@@
preci@@
against
Climate
Civi@@
lake
break@@
Be
propos@@
record
lion
umps
dining
laration
diam@@
minimum
report
itan@@
Florence
ussel@@
determin@@
eps
Catal@@
camp
Venice
keep
coff@@
Blizz@@
‑
Sog@@
Tschetschen@@
protection
cars
designs
М@@
Imag@@
bec
young
Any@@
θ@@
Milose@@
nan@@
hop@@
Some
application
machine
maker
ĺ
vic
zipien
tain
smart
cup
tone
package
Pos@@
Charter
Member
fire
hire
assist@@
idea
print@@
buy
pg
Voraussch@@
acquis
Government
Upper
plug@@
air-@@
fession@@
fast@@
alone
thodo@@
middle
cant@@
-to-@@
reh@@
servers
toilet
path@@
Maßstä@@
Má@@
yers
rain
sci@@
water@@
ITY
others
audio
¬
н
Save
lash
endgül@@
evolu@@
gues
Let
Aviation
ë
placement
might
doz@@
district
riteri@@
ilt
Sorg@@
Milan
Cape
languages
created
definitely
wasn
Infin@@
Zim@@
tatsäch@@
dire@@
girl
Players
color
emble
β
obj@@
moun@@
quest
Bezieh@@
regimes
error
native
oting
leave
alifor@@
sale
shore
Italian
editor
ي@@
rebungen
Biok@@
rs
latz
tiers
technology
ulate
ehnt
sense
limit
fier
tant
request
names
Exhibition
ced
reservation
Änder@@
kömm@@
Sebas@@
amed
zed
mix@@
Prince
indi
Whe@@
Thir@@
proportion@@
obo@@
cent
Kontinu@@
Safety
Frei
ism
Nürn@@
champ@@
Athens
bug
weekend
stylish
ā
LIF@@
him@@
export
users
Christ
tival
Ó@@
Continu@@
mming
makes
install
queries
gewid@@
Authority
sibility
future
disk
anning
unk
Switzerland
controller
`
duplic@@
ō
arrest
eholder
Northern
hill@@
demonstr@@
sight
various
traffic
standing
coming
reasonable
Manufac@@
jects
series
foot
couple
gave
cheap
steps
renovated
wave
º@@
alition
hard@@
wealth
Proto@@
illing
nehmer@@
mmt
Medic@@
sales
ecture
doc@@
Prob@@
Championship
superior
Stay
arena
Youth
kne@@
Amster@@
exten@@
Aufmerks@@
Preis-@@
body
Consumer
depen@@
Smar@@
energy
Singapore
bling
ē@@
charged
layout
Т@@
mou@@
handle
Einstimm@@
multi-@@
bish@@
Zin@@
enko
options
Virgin
Guant@@
ective
luxurious
Prague
Scot@@
commer@@
relation
figh@@
eye
zation
add
mic@@
Tw@@
san
Six@@
peaceful
July
Bavaria

worten
konfron@@
Regional
meeting
EW
roll
written
magazine
auber@@
Malay@@
tium
ellers
Card@@
organiz@@
turing
Perfect
Well
atom
erzeit
update
However
lows
iling
Blu
agna
bathrooms
modular
section
л
örder@@
prosp@@
liberal
repressive
beeinträch@@
right-@@
Í@@
Australia
together
chest@@
known
apor@@
efficient
meet
eservice
stairs
busy
alty
build
längerung
playing
sand
willing@@
timmung
Compl@@
stages
Wäl@@
maritime
c.
ω@@
tzimmer
д
و@@
gleichheit
sound@@
argument
bezieh@@
uniqu@@
ignor@@
reach
women
politan
commercial
else
Voy@@
ography
address
five
ambiance
plane
span
beur@@
kits
Salv@@
reben
singer
semin@@
vies
lack
Strategy
soon
В
directly
engine
downtown
hinnehm@@
off-@@
Sustain@@
texts
farm
ł
child
pretty
PPE-DE
Verschle@@
Ministers
Franzo@@
Aid
prompt
present
Funds
Ten
Date
cosy
recently
Apart
head@@
wortern
sex
rets
ition
Price
Loo@@
towels
behaup@@
clear
boys
allows
orig@@
speaking
white
questions
photo@@
upon
day@@
german
forge
assist
gehö@@
Souverän@@
ünf@@
Bereit@@
lehen
African
taking
blue
ő
Nür@@
flight
itself
songs
common
Bolkest@@
säm@@
enthusias@@
Mehrwert@@
Canc@@
bizarre
step
means
cos@@
model
program@@
production
Cust@@
casts
false
Ђ
wunden
haven
divi@@
Forder@@
leys
cone
Heritage
informative
lower
serve
vac
Ś@@
hair
Ł@@
taken
scap@@
outer
propag@@
ast-@@
guar@@
rav@@
oes
compar@@
anything
actually
Here
Custom@@
Local
parties
fai@@
anspruch@@
thank
anni@@
ghs
χ@@
conference
stanti@@
Baron@@
review
mild
Bureau
bility
‹
rain@@
ettbewer@@
period
Use
tours
allo@@
bass@@
dents
wei
Seb@@
surf
hear
auth@@
Subsidiar@@
lend
community
Southern
aves
lou@@
served
unci@@
huge
contemporary
administrator
superb
step@@
Liban@@
pension@@
often
administ@@
Round
Police
especi@@
codi@@
А@@
collection
2nd
ient
ording
seuropä@@
urteilung
Bolog@@
Lett@@
itable
ench@@
urities
aggreg@@
geb
nachten
Uni
leading
expect
array
pet
PSE
Indon@@
chart
Verhin@@
gressive
senschaf@@
manipul@@
höch@@
dirty
top-@@
nor
stance
twi@@
numer@@
writer
selection
sights
interior
powered
Holi@@
Auseinander@@
issue
cham@@
Independent
surance
talter
cep@@
Early
Consu@@
talk
destination
example
Zurich
definitive
ementi@@
fil
lst
Rail@@
Infl@@
swe@@
comes
hero@@
excep@@
Univer@@
Dr
furniture
turn
title
eting
Algeri@@
aid
label
professor
ehmer@@
anen@@
Stunden-@@
gun
activities
essing
well-@@
geh
exclusive
offensive
indu@@
Ø@@
Everything
Help
classic
worked
ї
mainstre@@
blicherweise
präsent@@
chtert
quot@@
excellence
raff@@
seek@@
sac@@
flat
Beautiful
Although
scre@@
meters
received
ectiv@@
season
shirt
illi
practice
ending
erstör@@
Mechan@@
result
Twi@@
moon
island
outdoor
January
latest
Б@@
hosts
rics
Her
Select
à-@@
wün@@
nächst
eed@@
church
expl@@
Ibi@@
FREE
inet
erner
riften
pist@@
trends
insi@@
bla@@
stit@@
dimen@@
a.m.
mu
Foreign
cock
anding
britan@@
solutions
Enjoy
overlooking
query
÷
ŕ
ishing
telephone
illion
dup@@
health
eline
ric
certain
individual
looked
1st
Exclu@@
itätsprin@@
countries
ising
manipulation
Coh@@
tum@@
mill@@
Chi
gest
folio
bring
multiple
pictures
kernel
unterladen
aven@@
Elektri@@
transfer@@
ilom@@
Plätz@@
partners
Nations
Arri@@
particular
craft
azza
translation
etal
television
asy@@
call@@
attri@@
excell@@
continu@@
Д@@
move
Six
enco@@
contains
meal
construction
vian
programmes
fat
ieve
ZE
button
release
contem@@
ancing
offic@@
highly
yar@@
Überschw@@
5.00
kilomet@@
container
Mountains
dden
seller
summer
Experience
emerge
veter@@
Jub@@
uli
December
Protocol
why
Its
Telekommunik@@
Astri@@
Environmental
f.
industry
esti
impres@@
results
Communities
piece
egg
ermu@@
hygiene
pling
maximum
Tick@@
ograph
Sob@@
spons@@
iny
positions
boat
ъ@@
duction
She
emet@@
Indian
testing
tains
Equi@@
free@@
Organization
ull@@
lassi@@
prior
pig@@
matter
complimentary
connect
zwangs@@
stande
regierungs@@
Brussels
temporary
frame
Managing
levels
Alpine
Enter
friend
mini-@@
fruit
friend@@
Ú@@
default
subsidi@@
labor@@
Verzö@@
fixes
players
pre-@@
tow@@
ences
residence
movie
world@@
edition
ilation
derzei@@
zipiel@@
elements
cip@@
segments
entertainment
gardens
Belar@@
dating
Ladies
Railway
ή@@
count
database
looks
Users
cript
ت@@
distribut@@
unterschei@@
genu@@
schrei
tri
customer
wish
issues
Copenhagen
emer@@
öss@@
skills
doors
Are
become
dden@@
от
gul@@
Tamp@@
doing
monitor
Wine
clar@@
verage
ssel
keys
solar
Barcel@@
anyone
recommended
plenty
animation
ب@@
reader
ellschaft
Konsolidi@@
rating
Aspek@@
takes
scope
February
pac@@
ists
ù@@
Middle
Cub@@
critical
chy
orph@@
maps
interest

leisure
behind
camping
tices
past
electronic
ľ@@
girls
changed
someone
configur@@
coup
terne
gram@@
verwirk@@
ingung
related
ölk@@
iting
ehol@@
Repub@@
Inner@@
gir@@
uty
accessible
weather
running
azzo
vely
famil@@
isine
intervention
retro@@
pick
invest@@
Apa@@
ruption
panel
sign
simulation
Meas@@
copy
cil
useful
wanne
Mazed@@
segment
reli@@
erospace
Sarko@@
older
η
beat
cover@@
seemed
stuff
emals
atum
unzäh@@
backs
passes
event@@
gewünsch@@
struction
companies
aling
Siem@@
book@@
placed
dental
fying
particularly
luggage
dark
appointed
Situated
3rd
everyone
won
mass
Nichtregierungs@@
balance
unik@@
visa
Contrac@@
Imm@@
aware
corner
spiri@@
science
jack@@
boutique
cost@@
roffen
ural
ghäfen
Cathedral
leader
own-@@
w.@@
consi@@
vend@@
choose
occup@@
kids
sounds
Fotok@@
counting
Tourism
ction
Su
construc@@
changes
category
Friday
ameworks
pron@@
Ratspräsi@@
etero@@
cash
isol@@
class@@
months
vy
attle
attention
dog
probably
arrangements
cut
architecture
ently
villas
month
com.
ungsperiode
spark@@
gift
omin@@
loading
flus@@
guard
No.
Dig@@
lian
ά
Would
ented
interesting
pop
Timor
Israel@@
commerce
poin@@
yang
Annehm@@
Who
cian
secure
Wed@@
sources
ع@@
Saturday
beaches
Oil
pus@@
DG
Haushal@@
neys
suff@@
Strasbourg
extensive
nut@@
fiz@@
estic
necessary
cable
visiting
bath@@
feeling
layer
particip@@
tunnel
imper@@
Singap@@
shel@@
communication
black
tivity
oon
additional
Völk@@
eck-@@
Spain
ride
smoking
räsidentin
flat@@
Over
resol@@
navigation
domain
privacy
lap@@
understand
Chall@@
ø
Servicel@@
tennis
icon
automation
market@@
Ä
dentin
rug
alism
cases
won@@
deci@@
wed@@
eval
dering
Nos
icks@@
opport@@
political
Wohler@@
ression
ermor@@
elite
bands
third
Child
daily
upgra@@
upgraded
Acro@@
award
alqu@@
German-@@
literature
Dring@@
evision
mathemati@@
sharing
priced
Eastern
lun@@
Make
alth
proximity
tories
urant
throughout
stuck
itement
5th
bly
coin
gehol@@
Paragraph
insp@@
eal
kept
tly
borne
Â@@
providing
orian
Scientific
minal
vou@@
tables
movies
Why
spoke
Л@@
Demok@@
financial
emission
ommission@@
-how
artet
Better
inu
gal
burn
Freedom
specific
ç
Georgia
forms
save
Giov@@
feed
amid
instead
cross@@
couldn
Berücksich@@
listen@@
iev@@
dimensional
rene@@
Baltic
dership
cut@@
abul@@
Three
path
voice
remote
member
refurbished
patio
desc@@
Thanks
turn@@
stup@@
Verring@@
stat
diesel
latter
self-@@
pin
ė
express
message
further
surroundings
υ
moderate
freiheiten
master@@
acity
alarm
passion@@
opportunity
Sark@@
Conserv@@
bright
formats
giving
reason
metal
registered
article
tips
classi@@
free-@@
Tip
starts
flora
ernet
Shang@@
Take
raising
glass
match
opened
programs
ather
fitness
teen
usual
staff@@
camps
Einw@@
Rule
million
Republic
marine
gn
stitutes
members
allow
bone
fici@@
elect
0.5
newly
istic
types
character
secur@@
Storage
Ђ@@
gnen
Annäher@@
ächt@@
provider
Maritime
getö@@
capit@@
¹
Fif@@
hardware
logos
essi
underground
tracks
foreign
categ@@
complet@@
reichs
Thank
with@@
yard
Yes
cryp@@
portra@@
dance
show@@
atics
chose
gesamt
payment
Ireland
invent@@
inary
ichte
lead
eign
items
tram
suit
courses
conveniently
upgrade
attractive
lady
Ћ@@
aufrechter@@
estri@@
mend@@
defen@@
beer
mentation
liederung
believe
dependence
costs
miles
prec@@
adults
password
alu
similar
posted
getr@@
hole
fundamental
ürfen
Summit
posite
long@@
arding
ected
lights
applications
ingly
explosion
expres@@
Zusammens@@
linear
alternatives
railway
administration
slow
Christmas
offer@@
OME
iron
dated
servi
minibar
bound
Ausser@@
empl@@
sprüch@@
Besat@@
ohl
addition
time-@@
chip
Century
Born
meetings
alization
powerful
inal
Lisbon
Other
Many
Room@@
GIM@@
goes
facility
Venezu@@
nose
casting
chat@@
innovation
ited
keeping
aking
flash
decor@@
Five
tell
Even
ored
stunning
Educ@@
bow
Ñ@@
thanks
Where
question
vine
nied@@
sugges@@
ween
Russia
awa@@
hosting
delete
drop
Tus@@
yourself
simply
nicely
surrounded
Learn
Ø
gives
ihr@@
Wün@@
population
opping
render
chain
persons
Treas@@
Partnership
dney
Canadian
Monday
immediately
poss@@
surfing
trying
spend
About
estate
Olympic
demokraten
illustr@@
HO
high-@@
aff
tank
eco@@
succ@@
acts
docum@@
suitable
grounds
completely

split
sett@@
owns
polic@@
trust
ongs
enses
etry
Umwand@@
Häl@@
Working
ţ@@
tip
versions
started
Found@@
Due
accommod@@
handy
driver
metal@@
channel
ahren
bezü@@
thou@@
counter
Philosoph@@
sci
agno@@
Cuba
Moscow
kest@@
econom@@
lish@@
tyard
attentive
أ@@
И@@
Today
self
drama
archive
accomp@@
Presi@@
iden@@
obsol@@
reference
rail
flation
lays
student
earn
nic
tual
‟
studies
conci@@
quickly
trips
meals
ately
Cardi@@
Obj@@
libr@@
prises
vereinfa@@
subject
raph
knowledge
shared
acking
Jerus@@
haz@@
God
otyp@@
regular
seminar
longer
ched
check-in
presented
entrance
cleaned
theme
articles
ż
fire@@
tanks
scale
hows
0s
laun@@
oblig@@
Still
Vict@@
Struc@@
Hour
Exhi@@
concept
Syst@@
ographic
gone
cleaning
light@@
motions
Tosk@@
anium
informations
projects
drücklich
folk
nur@@
orders
Oz@@
Making
ive
contri@@
atro@@
point@@
lists
iev
helps
analysis
Any
mountain
Australian
passage
lens
mist@@
besti@@
rid
candi@@
holi@@
thes
activi@@
feature
customers
four@@
hoc
digkeits@@
würdigkeit
quick@@
tle
Nuclear
seems
Edin@@
climate
niti@@
yed
Cologne
ό
emark
Have
Argentina
updated
ة
plug
wins
Ѓ@@
Bedroh@@
alleg@@
ollar
organs
stockung
enon
mö
acco
broken
Istan@@
educ@@
families
pain
relaxed
coast
centrally
Goth@@
د@@
quests
secured
coach
certain@@
whi@@
foo@@
fia
beauty
aher
terminals
Zealand
open-@@
ė@@
fugen
tree
anced
ican
maybe
gym
saw
affili@@
fridge
smell
fting
Nordir@@
promp@@
Iris@@
Legal
tigh@@
papers
oil
oti
iness
asks
Too
astic
directions
spent
overall
requested
wire
bow@@
controll@@
remo@@
oly
requ@@
ultra-@@
planning
oxy@@
rupt@@
grid
Facili@@
willing
Zufried@@
transportation
laser
forest
athed@@
Official
Innsbru@@
dges
doesn
ously
cell
except
visitors
angle
previous
َ@@
correc@@
jeder@@
langt
Verhaltensko@@
unger
intermedi@@
Annual
Kingdom
amaz@@
Add
fields
φ@@
hairdryer
cookies
locations
û
jewei@@
bilateral
statement
aper
ergy
recent
safety
facing
velop@@
estim@@
ungalows
opposite
receive
entire
wife
according
syst@@
governance
geplan@@
corpor@@
sponsor@@
eby
Right
alized
ů
Bear@@
thouse
websites
ancient
trum
centers
cau@@
allowed
technical
Assembly
Berlus@@
interpretation
comb@@
leng@@
Hosp@@
hit
sometimes
pick@@
agent@@
cafes
owners
bute
galax@@
perfectly
starting
color@@
dispos@@
є@@
government
spot@@
bund@@
portable
spectac@@
yacht
document
ή
connec@@
wonder@@
tiny
venue
Terrace
roof
dise@@
sm
spectacular
Eurocop@@
tness
beda@@
cies
lä
Civil
constitu@@
taine
xen@@
henfolge
comment
inning
ety
watching
ен
endar
semi-@@
Ano@@
tried
checked
e.g.
delicious
higher
virtual
six
ections
partments
betreff@@
ember
À@@
sensus
Ankar@@
unning
ear
demand
Competition
ly-@@
asking
official
Amer@@
managed
õ
Wirks@@
agement@@
inflation
onial
absolutely
hur@@
rev@@
lood
developed
monit@@
Consi@@
Klimawand@@
icip@@
focus
custom@@
whether
trendy
urban
Near
instruc@@
presi@@
Slides@@
usually
Danu@@
Description
highest
З@@
surface
prepar@@
ential
Scotland
dominant
jury
woman
eget@@
contra@@
embedded
floors
ن
scan
largest
plu@@
weeks
wav@@
њ@@
Willi
opt
Parliament
Kathed@@
enteil
asing
fits
catch
tiles
Ż@@
cane
ensure
perto@@
VAT
Liecht@@
feeds
tool@@
streets
explore
piano
Nor
Dimen@@
requirements
computers
beautifully
cked
moved
sue
sightseeing
dress
illumin@@
released
topics
ﬁ@@
p.m.
interview
Gegeben@@
elop@@
investment
ämlich
models
Japanese
Geneva
temperature
description
combin@@
alyst@@
perc@@
Zimbabwe
amps
planes
exchange
gency
education
Rim@@
engineering
origin
splen@@
р
egro
memory
versity
ared
airs
pped
YOU
aded
south
channels
perfec@@
font
Like
Arbeitn@@
society
Helsin@@
transi@@
beginning
police
convenience
Anbet@@
Clim@@
interested
functions
gging
Each
mountains
4-star
outstanding
desktop
ghter
Geb
odation
loan
umes
ك@@
NGL
rehab@@
Muslim
mittelt
enorm@@
aland
routine
guil@@
slau@@
accounts
adv@@
forward
heard
dry
urement
join
luck
among
Proper@@
Hanno@@
advanced

enjoyable
waiting
tudes
associ@@
biking
ultin@@
Zivi@@
intoler@@
muts@@
Scandinavi@@
zero
ease
scar@@
foc@@
profitable
äu
Affairs
Bav@@
just@@
pair
fiel@@
ύ@@
etic
bits
colour
hospitality
sized
consider@@
gaming
Gothic
check-@@
wrote
weight
eces
س@@
therefore
irregul@@
agreement
pays
gess@@
lägt
Liz@@
coo@@
visory
domains
wrong
äft
require
Compar@@
nest@@
fixed
ization
loud
accom@@
writ@@
﻿
inch
simil@@
published
``
sorge@@
expansion
universal
interoper@@
continue
reports
sow@@
currently
sheets
calm
eating
moments
detail
exactly
library
guest@@
advance
4th
guides
rental
import
gün@@
contro@@
ints
langu@@
etus
foot@@
rare
reviews
ã
charter
suppl@@
stär@@
rail@@
gno@@
ideas
effects
jacuzzi
schecken
pleased
masters
diving
dly
travel@@
combination
spati@@
economic
motiv@@
Third
beherber@@
zei
boarding
storage
Veröffent@@
functional
environ@@
i.e.
ampli@@
typical
news@@
Since
tations
igar@@
limits
Democracy
chtlich
impact
puts
eligi@@
-and-@@
drivers
fell
author@@
ô
¨
talent
sian
item
Under
cription
appreciated
Every
umbr@@
Once
magic
surrounding
artist
ideally
elled
checks
sprün@@
neo-@@
essors
notes
vibr@@
purpose
gram
facili@@
bai@@
eag@@
oked
sitting
vell@@
oftware
actual
Nothing
manifest@@
compared
helped
pha
ер
Find
ű
novel
Überschwemm@@
road@@
redund@@
rou
caus@@
race
agent
approach
correct
advis@@
agre@@
evolution
aspects
Sier@@
pilot
prise
rors
controlling
setup
accessed
despite
fashion
updates
Hostel@@
meaning
ِ@@
Е@@
Cairo
wood@@
demonstration
Swedish
understanding
eness
ailing
respect
stick
Î@@
Bettw@@
minor
scann@@
Nobel
advice
chair
seconds
says
properties
pub
buildings
cigar@@
г
embargo
vel-@@
devi@@
fühl
Orig@@
Forts@@
hear@@
spektak@@
Asian
lean
independent
ned
she@@
Aca@@
conv@@
medical
selected
6th
device
encing
Subsi@@
lament@@
expertise
states
ill-@@
inners
clos@@
lags
exceptional
quarter
eyes
ovi
Section
profi
treatment
average
acious
adequate
feet
ably
turned
laptop
finger
esque
bri
ÿ
stories
imes
revision
Regulation
portu@@
arms
executive
While
uttle
markets
improve
Then
picturesque
dryer
lunch
homes
monitoring
Mens@@
Verwir@@
profit
packages
junior
ped
effective
tible
teen@@
prime
Slov@@
WIT@@
cris@@
exit
score
biggest
downloads
certainly
mming@@
experi@@
dule
firm
everywhere
charts
prepared
finish
whe@@
ommis@@
pec@@
propaganda
Änderungsan@@
dustri@@
anon
economy
iko
technique
Vereinbar@@
rules
Justice
requi@@
Turkish
dehnung
dau
noble
cause
otherwise
ă
serious
titude
Britain
awar@@
maintained
tastefully
nois@@
brought
cles
aissance
began
plastic
represent@@
Ÿ
sensitive
industrial
windigkeit
hund@@
arc@@
activity
Richtlin@@
Greens
equivalent
tonn@@
behil@@
chosen
recycling
fees
hands
guys
east
admir@@
oming
Netherlands
aty
target
NOT
occasion
During
smoke
heating
buses
opening
secon@@
vals
ف@@
trademarks
practices
finding
fiehlt
immediate
kontinu@@
Ş@@
resources
antly
sleeping
Fish@@
seem
bread
vacation
feedback
ceram@@
ñ
י@@
myself
upper
principal
infin@@
Far
cts
nin@@
Fähi@@
sham@@
vigil@@
Krupp
inc
anx@@
spaces
jazz
artists
ined
messages
uxe
shell
stri
atures
У@@
login
ر
communic@@
commerci@@
ÿ@@
dentschaft
corporate
Swis@@
Kalifor@@
Scottish
Political
lear@@
scen@@
deep
consider
produce
Bulgaria
impossible
Deposit
oned
difference
slightly
furnishings
Visit
documents
orama
xels
←

rifft
losen@@
Perspek@@
ausel
Fotokop@@
resolution
opho@@
competition
background
ellec@@
aring
Kompet@@
cocktail
Prize
adventure
checking
shut
bottle
pleasure
covered
charm
wellness
dedicated
Ado@@
ground@@
brilli@@
arrive
Lt@@
deposit
trockner
literary
ektionismus
judi@@
actor
Göteb@@
itting
mount
promotion
Supreme
Mediterranean
joint
Rotter@@
Ý@@
Johannes@@
processing
week@@
rows
mieden
Croatia
towards
totally
discount
comfort@@
travelling
supports
connected
plugin
ried
finance
entries
harbour
support@@
laws
revol@@
miss
ellow
integrated
two-@@
cluster
effect
trees
Ţ@@
wast@@
unte@@
stores
Benj@@
isn
fabulous
palace
properly
strip
spell
confer@@
catering
ي
risk
bench@@
records
visual
Vertief@@
indoor
maintenance
intro@@
pressive
Manhatt@@
ised
É
Nether@@
success
sheet
Create
comments
affordable
shown
familiar
prestigi@@
object
purchase
Ќ@@
џ
black@@
unity
eless
role
bitions
relief
supply
restru@@
develop
zeits@@
trading
posts
Before
exter@@
tired
clock
announced
subscribe
tensions
edit
fruits
loaded
inqu@@
persist@@
asters
ased
accounting
Phi
cities
moving
Constitu@@
beyond
spoken
experienced
subway
mean
mentioned
compos@@
therapy
resorts
became
electron@@
bid
Ques@@
ť
●
susp@@
reti@@
Handhab@@
Appro@@
alogue
erior
avig@@
Terms
Rural
eir
timet@@
sector
descri@@
draw
appro@@
effort
Beyond
crow@@
ized
techniques
played
magnificent
tub
trouble
pleas@@
plain
iled
advertising
contract
kitchenette
creative
recip@@
Febru@@
screen@@
agency
border
thinking
orer
icals
rul@@
snow@@
animal
progress
lea@@
thwest
Purch@@
regarding
ansa
workshops
stops
worldwide
operating
night@@
icop@@
license
generally
ICHT
linen
Fi
holidays
search@@
renovation
north
claim@@
loads
none
cancellation
skin
า@@
care@@
acci
motivation
binsel
business@@
planet
method@@
calls
stu
dogs
apply
ults
jing
investig@@
Algar@@
Fuji@@
photograph@@
sorry
need@@
Ê@@
tropical
availability
leaving
straight
demo
bugs
Through
ит
ك
Å
factory
rec
escal@@
Ф@@
nun@@
task
unit
boy@@
bul
tioning
bass
handling
talking
agri@@
crew
ambi
Α@@
medic@@
lown
titles
ilers
lling
larger
fairly
schools
switch
travellers
pets
custom
electronics
decoration
Discover
artic@@
ны
dive
ince
izing
Э@@
azi
delines
genab@@
facilit@@
less@@
bottom
wet
bella
phs
icious
Scienti@@
ź@@
unless
Caribbean
staste
altar
smaller
adverti@@
listed
advantage
impressive
obli@@
aked
residential
dedic@@
ώ@@
His
signed
usage
resource
practic@@
Foc@@
müs@@
quiet@@
fragile
fauna
recovery
rupp
remove
writers
hase
soli
aluminium
lish
referred
brilliant
indic@@
answer
consult@@
[...]
