the
,
.
of
and
to
in
a
is
that
for
on
with
The
are
be
as
I
this
it
we
by
have
not
you
will
which
from
or
an
at
(
)
has
can
our
was
all
European
:
also
-
&quot;
s
your
&apos;s
its
We
but
would
more
their
In
been
one
This
’
It
should
Mr
&apos;
Commission
must
very
they
there
new
do
other
only
like
time
about
/
us
President
?
these
who
so
up
if
Union
no
any
out
Europe
into
people
Parliament
were
such
-@@
what
States
countries
report
–
than
use
Member
!
need
ing
when
my
his
most
some
A
now
;
well
first
Council
work
make
them
important
many
ed
between
EU
able
take
because
way
re@@
made
hotel
information
years
If
support
just
...
am
had
two
un@@
those
world
he
where
over
es
policy
being
o
system
may
even
S@@
de
year
right
order
y
in@@
area
c@@
good
market
You
place
part
through
here
“
see
possible
after
same
As
own
p@@
political
%
There
C@@
economic
used
er
could
development
want
For
then
within
ation
rights
against
both
”
therefore
B@@
how
s@@
find
much
2
ers
1
does
P@@
country
under
point
public
without
t@@
me
T@@
number
international
services
still
al
available
different
fact
great
free
social
b@@
ate
say
course
Hotel
view
already
d@@
believe
future
last
That
M@@
before
today
know
too
products
D@@
end
But
H@@
room
cannot
L@@
case
think
process
service
get
t
A@@
set
data
level
day
offers
3
Commissioner
e
human
F@@
G@@
financial
quality
o@@
ated
e@@
city
during
debate
issue
example
national
means
said
high
question
g@@
proposal
best
every
However
y@@
m
since
including
Our
rooms
help
situation
dis@@
small
en@@
f@@
each
business
R@@
k@@
long
K@@
N@@
offer
clear
access
E@@
particular
&#91;
areas
measures
give
V@@
&#93;
common
i
agreement
few
provide
next
Committee
citizens
energy
taken
i@@
ensure
v@@
based
put
problem
go
large
All
On
again
further
security
three
her
di@@
h@@
come
problems
company
W@@
change
5
position
4
necessary
why
while
far
back
given
however
using
shall
de@@
m@@
cooperation
O@@
With
al@@
vote
To
ating
form
needs
life
They
less
a@@
group
always
j@@
At
n@@
d
hope
located
law
And
ch@@
stay
action
down
&amp;
10
United
better
an@@
What
or@@
ro@@
le
main
real
u@@
protection
around
power
working
production
l@@
become
current
ar@@
did
special
ations
ts
present
whether
together
particularly
When
These
terms
co@@
trade
Group
ic
another
l
systems
legal
result
children
el@@
.@@
Mrs
House
full
per
open
Community
conditions
issues
ly
companies
k
centre
state
certain
si@@
r@@
experience
role
women
I@@
ti@@
second
control
various
z@@
industry
old
el
sector
en
whole
basis
especially
government
li@@
matter
water
e-@@
health
em@@
done
ted
ri@@
on@@
account
making
site
specific
look
create
local
at@@
respect
budget
ent
really
region
st@@
research
page
US
er@@
ad@@
million
line
ous
going
ar
major
days
con@@
es@@
Germany
et
close
ings
global
continue
project
something
itself
rapporteur
several
German
resolution
ates
6
crisis
th@@
ting
name
management
often
regard
programme
away
ant
gentlemen
J@@
w@@
wish
modern
der
range
ask
rules
general
growth
least
directive
third
p
He
following
20
30
welcome
fully
tions
single
environment
subject
once
am@@
hand
towards
institutions
software
transport
customers
money
Madam
found
start
product
als
age
price
until
location
things
th
excellent
little
increase
food
ab@@
individual
lo@@
off
ally
list
le@@
thank
opportunity
3@@
Treaty
&apos;t
him
private
2009
rather
activities
field
personal
approach
family
op@@
No
aid
interest
resources
staff
call
7
China
forward
economy
quite
U@@
provided
technology
building
yet
Members
period
agree
let
solution
might
is@@
decision
la
members
taking
ladies
home
include
among
So
proposals
value
costs
side
se
amendments
town
having
allow
play
c
After
framework
key
ra@@
safety
points
times
reason
due
adopted
design
8
progress
S
State
led
makes
im@@
&apos;@@
it@@
called
ur@@
sp@@
effective
enjoy
ac@@
as@@
C
content
legislation
n
words
difficult
projects
favour
et@@
others
opinion
provides
left
website
results
responsibility
light
ding
minutes
policies
application
version
known
above
One
attention
simply
concerned
addition
behalf
contact
groups
ors
show
questions
15
air
x
importance
non-@@
ist
strategy
Z@@
society
easy
greater
ans
text
short
Al@@
ine
Y@@
complete
environmental
beautiful
cultural
standards
ability
T
she
2@@
est
po@@
principle
training
World
natural
ve
along
recent
les
required
step
ec@@
ary
pages
ap@@
authorities
clearly
meeting
Con@@
Internet
deal
qu@@
century
address
technical
ago
4@@
man
achieve
sea
12
kind
In@@
2010
over@@
des
wide
bi@@
heart
solutions
Russia
employment
essential
past
serious
directly
sure
D
months
developed
needed
bring
risk
responsible
proposed
currently
related
markets
enough
longer
nature
history
interests
requirements
thing
feel
via
Please
2008
rate
land
house
pro@@
internal
50
ter
events
comes
guests
inter@@
&#124;
parties
mo@@
car@@
os
themselves
visit
efforts
involved
regions
democracy
voted
From
competition
young
regulation
user
please
changes
person
implementation
sh@@
ds
ance
views
ment
central
online
te
cases
lot
freedom
ded
keep
facilities
extremely
New
never
strong
positive
language
EUR
network
um
ex@@
force
democratic
under@@
upon
peace
car
res@@
negotiations
near
four
event
b
developing
ol@@
9
prices
though
consider
either
education
que
X@@
ever
International
created
ag@@
war
us@@
states
om@@
regional
art
total
success
funds
se@@
improve
ch
almost
true
request
vi@@
situated
ul@@
share
held
thus
care
live
night
additional
unique
looking
works
climate
team
per@@
fundamental
effect
g
meet
di
act
according
foreign
seen
parts
E
km
music
sc@@
pay
top
early
designed
standard
soon
breakfast
cost
Presidency
everything
file
actually
famous
space
ver@@
receive
term
idea
5@@
understand
try
comfortable
type
road
later
accept
lead
date
ma@@
x@@
pre@@
O
included
appropriate
workers
turn
France
French
takes
restaurant
ni@@
living
capital
investment
ons
station
‘
und
red
users
ce
beach
be@@
18@@
procedure
program
bar
majority
reach
amount
outside
features
ity
tri@@
direct
doing
2007
tax
u
etc
Mar@@
100
communication
guarantee
throughout
significant
took
certainly
friendly
men
plan
for@@
week
existing
hours
bed
bo@@
11
ways
*
across
reform
run
big
aware
mentioned
By
traditional
25
Turkey
relations
concerns
pl@@
context
connection
final
ideal
ic@@
active
American
com@@
writing
leading
B
member
P
pool
tra@@
military
customer
hi@@
low
How
2000
ves
knowledge
performance
impact
hard
6@@
re
rates
apply
programmes
book
add
body
ci@@
five
committee
established
built
completely
population
reasons
decisions
America
remain
agreements
concerning
although
perfect
professional
community
nothing
Since
allows
Government
7@@
ties
no@@
tic
media
par@@
ty
+
moment
card
tion
includes
original
equipped
game
basic
y-@@
practice
end@@
ence
partners
sense
TV
values
jobs
culture
model
ator
ets
My
demand
develop
objectives
19@@
ass@@
received
send
choice
applications
read
regarding
entire
holiday
package
ob@@
table
equipment
Let
party
benefit
2006
move
quickly
Lisbon
agricultural
fight
concern
aim
ke
walk
out@@
style
to@@
successful
focus
ative
function
objective
stage
Here
material
below
reports
files
integration
goods
sub@@
treatment
simple
test
Court
seems
stop
board
face
ze
governments
00
_
M
achieved
image
contains
Finally
ent@@
den@@
potential
8@@
ge@@
gh@@
An
ha@@
indeed
euro
return
recently
St@@
initiative
é@@
prevent
mean
web
levels
English
ge
keyword
ins
beginning
increased
h
May
est@@
coming
huge
answer
June
dialogue
series
Co@@
mind
internet
ia
la@@
check
consumers
R
everyone
st
guest
presented
center
agreed
Re@@
lack
Ar@@
so@@
z
reviews
sustainable
asked
job
East
higher
added
Affairs
su@@
carried
F
ones
places
Some
highly
cor@@
balance
nuclear
9@@
enable
choose
office
amendment
South
press
commitment
whose
rest
Therefore
principles
shows
note
ality
effects
shown
complex
perhaps
direction
�
An@@
$
ad
ou@@
possibility
ness
matters
ders
X
computer
ying
ber@@
ir@@
latest
considered
Now
ling
lines
da
opportunities
24
thanks
forms
ep@@
increasing
travel
promote
setting
reduce
closed
size
ut@@
Th@@
actions
previous
pressure
response
floor
ten
behind
reached
®
aspects
Spain
ents
don
remains
front
capacity
came
prepared
easily
Article
materials
ed@@
creation
popular
joint
providing
speak
half
40
billion
av@@
external
L
f
bus
submitted
exchange
produced
oil
Berlin
2005
gu@@
hotels
charge
do@@
18
ship
sites
former
Of
search
ure
industrial
efficient
supply
r
Africa
atmosphere
accommodation
protect
14
funding
gives
fair
bit
priority
summer
decided
relevant
commercial
000
ter@@
supported
details
Central
ak@@
limited
Italy
cause
enlargement
code
December
up@@
September
independent
civil
leave
produce
sound
island
ators
ise
largest
consumer
ies
tive
mon@@
assistance
property
16
similar
eg@@
rec@@
follow
movement
creating
mis@@
comp@@
nice
Bank
ing@@
regulations
rule
Mo@@
First
video
pleased
brought
cur@@
double
steps
oc@@
uses
comm@@
ism
2004
ourselves
Convention
um@@
sk@@
stability
January
purpose
construction
IT
source
activity
Today
variety
discussion
message
sion
ev@@
became
March
conference
ters
written
credit
British
instead
0@@
safe
October
ot@@
ches
ving
link
started
structure
13
word
fishing
allowed
interesting
document
relation
ale
pi@@
distribution
Ro@@
Service
wi@@
section
paid
compromise
regards
man@@
fi@@
study
giving
click
benefits
mer@@
procedures
rich
w
statement
Republic
Y
option
war@@
violence
partner
effort
ses
contribution
damage
inc@@
payment
status
Minister
During
concept
clean
ina
,000
.com
enter
server
growing
tell
Many
instruments
Ad@@
item
restaurants
require
2003
operating
Di@@
provisions
self-@@
die
gi@@
lies
ph@@
ten@@
documents
tool
ants
distance
July
Italian
criteria
ments
integrated
apartment
d-@@
ground
historical
sent
task
tu@@
round
National
forces
ana
airport
G
school
challenges
types
Pro@@
a-@@
express
€
au@@
draft
agenda
ra
Ch@@
immediately
En@@
Spanish
changed
transparency
equal
á@@
stand
base
Furthermore
six
official
mi@@
employees
highest
gra@@
un
goes
drive
nor
Although
happy
annual
build
village
avoid
ess
ably
son
elements
Ma@@
tools
ne@@
ard
operation
November
La
elections
consequences
ful
processes
applied
numerous
ren@@
links
ms
finally
download
poverty
analysis
reality
lower
conflict
requires
Windows
daily
legislative
class
reading
bu@@
labour
gas
UN
del
solidarity
Rights
efficiency
sed
1@@
Bo@@
du@@
colleagues
friends
rel@@
beyond
sur@@
saying
review
ens
Your
digital
offering
é
death
talk
park
2001
t-@@
apartments
North
implemented
historic
ie
ru@@
ca
go@@
persons
practical
quiet
ideas
ces
offered
Development
congratulate
Gu@@
draw
terrorism
establish
published
speed
ati@@
her@@
got
expect
train
Mediterranean
mobile
crucial
tomorrow
Even
useful
ck@@
ry
rise
tr@@
eb@@
April
carry
minimum
V
comprehensive
organisations
wine
weeks
wanted
60
re-@@
lives
reduction
N
clients
il@@
secure
While
Cor@@
min@@
Party
monitoring
starting
sales
leaders
late
sometimes
poor
voting
Amendment
Western
ski
sports
K
Car@@
instrument
caused
maximum
worldwide
technologies
reference
challenge
options
learn
begin
17
Israel
machine
ma
bar@@
probably
hold
news
transfer
der@@
long-term
players
0
ages
phone
interested
film
farmers
month
anything
fine
waste
2002
tics
alone
Moreover
king
Do
extent
parking
cities
Chinese
banks
mountain
pass
accession
ho@@
10@@
relating
Li@@
accordance
sectors
methods
ously
innovative
businesses
scientific
ready
cut
Thank
languages
powers
chance
strategic
mention
method
advantage
child
release
ck
fall
worked
ne
Directive
pe@@
met
influence
II
shopping
morning
thought
sing
ely
despite
processing
selection
raised
player
lost
fields
extra
20@@
General
bathroom
Austria
dy
ur
implement
doubt
visitors
accepted
ver
gen@@
ging
innovation
head
Ireland
images
ical
demands
justice
Sch@@
Secondly
80
green
Park
affected
Paris
garden
trying
join
absolutely
borders
ins@@
games
Russian
Ri@@
1.@@
den
Ex@@
ines
Par@@
ant@@
Com@@
comfort
Is
fish
Fund
overall
17@@
intended
Mon@@
500
au
contract
ology
Indeed
Only
19
reforms
email
street
scope
critical
alternative
lu@@
placed
zed
adopt
yourself
minute
usually
and@@
calls
menu
target
initiatives
namely
heard
ble
lic@@
running
currency
gl@@
relationship
Its
dec@@
increasingly
committed
President-in-Office
Conference
mainly
suitable
bank
representatives
box
expressed
cover
fast
maintain
plans
he@@
imp@@
getting
City
star
administration
vital
opening
structural
laws
ats
Lu@@
talking
200
More
proper
acc@@
illegal
border
University
planning
approved
Room
ari@@
har@@
atic
Japan
1999
improved
21
gr@@
walking
regime
San
swimming
goal
competitive
mar@@
confidence
automatically
West
cal
bre@@
traffic
infrastructure
GmbH
families
www.@@
correct
comments
Iraq
reduced
can@@
unemployment
terrace
v
fl@@
decide
id
evening
Centre
cohesion
Q@@
zation
ER
powerful
ics
London
delivery
motion
stress
protected
love
emissions
conclusion
te@@
anti-@@
circumstances
tur@@
super@@
serve
supports
feature
IC@@
priorities
contribute
sts
founded
students
began
covered
ys
cks
financing
cu@@
tourist
introduced
alism
IN@@
—
likely
22
collection
e-mail
extensive
effectively
AN@@
sources
ian
map
separate
India
born
defined
encourage
ak
functions
ensuring
ps
ann@@
risks
larger
ano
served
exist
bur@@
Greece
Nations
ES
helpful
da@@
People
crime
pres@@
well-@@
UK
victims
whom
Public
port
Sp@@
ks
says
electronic
Each
installation
me@@
understanding
des@@
tabled
0.@@
va
detailed
ach@@
DE
listed
else
agriculture
AG
managed
participation
appear
played
ka
white
speaking
il
discuss
era
debt
opened
animals
og@@
col@@
fin@@
Security
positions
aimed
ay
stated
Also
Po@@
specifically
referred
manner
becoming
ures
Bar@@
16@@
Why
income
tor
wrong
partnership
bad
purposes
programs
exactly
linked
developments
represents
discussed
sions
27
Then
measure
sitting
AT@@
mat@@
al-@@
wants
{
loss
selected
rural
ap
all@@
ational
Web
sub-categories
assessment
regular
entry
worth
str@@
ast@@
precisely
trans@@
generation
won
discussions
record
2.@@
vo@@
Le@@
im
fellow
=
thousands
pleasant
February
enterprises
Just
limit
camera
sufficient
ta@@
Iran
expected
budgetary
15@@
track
scale
ER@@
tors
earlier
cli@@
ges
police
af@@
Qu@@
introduction
ef@@
closely
followed
metres
operations
photo
sa@@
medical
otherwise
ture
represent
Not
For@@
AR@@
screen
spend
strengthen
considerable
ran@@
ill@@
connected
Asia
institutional
happen
administrative
stable
plant
sign
facing
wonderful
23
ore
í@@
supporting
acts
70
Middle
paper
inside
buildings
guidelines
discrimination
so-called
br@@
Sh@@
ently
degree
went
playing
exclusive
}
immigration
August
path
improving
Inter@@
client
rep@@
ler
ite
networks
warm
components
Agreement
save
&apos;ll
remember
tradition
broad
purchase
speech
ists
ingly
She
ta
experts
co
Switzerland
work@@
His
fresh
PC
organisation
ese
ori@@
ste@@
ther@@
winter
W
ber
season
kitchen
average
marketing
tour
suggest
plants
o-@@
relate
ically
IS@@
thinking
fying
hour
Or@@
tourism
IT@@
competitiveness
telephone
ell@@
entirely
select
Unfortunately
typical
presence
EC@@
e.g.
properly
seem
provision
fo@@
Most
Because
Sea
Su@@
hear
beds
cre@@
sen@@
tim@@
fac@@
presidency
sport
ah@@
bor@@
form@@
spirit
cl@@
trust
refer
De@@
bl@@
summit
bodies
Barcelona
modified
90
mark
War
alised
items
Rooms
generally
Poland
buy
Czech
coordination
authority
difference
del@@
domestic
cards
ti
ban
ade
tical
gave
dealing
back@@
-S@@
machines
Per@@
parliamentary
difficulties
speci@@
..
informed
houses
actual
fun
ing-@@
op
ish
ang@@
fisheries
vehicles
app@@
applies
12@@
H
appears
advanced
ess@@
ven@@
tures
signed
becomes
normal
animal
consideration
Once
exp@@
Free
Policy
shops
experienced
Brussels
RE@@
numbers
ah
fer@@
prior
meetings
Social
character
According
Click
spacious
flexibility
politics
mu@@
reasonable
Economic
ali@@
dr@@
ited
display
pri@@
monetary
EC
flexible
estate
ay@@
mission
economies
sec@@
district
threat
establishment
met@@
sted
cy@@
hot
combat
easier
origin
´
ll
peaceful
Airport
aims
condition
medi@@
structures
aspect
picture
lin@@
hor@@
courses
bri@@
fied
à
Ac@@
door
ending
attempt
Tri@@
failure
ement
forget
continued
USA
ens@@
practices
fixed
seriously
God
Bi@@
men@@
Ukraine
ey
sal@@
high-@@
weight
format
promoting
models
associated
myself
co-@@
database
south
Ab@@
sting
combination
leader
reducing
differences
che
Amsterdam
core
himself
syn@@
cuisine
spent
Kingdom
AL@@
ahead
amp@@
Human
cars
AS@@
detail
humanitarian
wor@@
ster
ow@@
Firstly
shop
ged
consumption
balanced
shower
carefully
ancient
told
inf@@
ots
availability
wing
attractive
finance
opposition
producers
defence
implementing
00@@
ved
changing
announced
dangerous
cra@@
gain
concrete
happened
translation
ships
Vi@@
Swiss
agencies
break
resort
ST@@
impossible
star@@
fund
studies
anyone
statements
14@@
duty
hand@@
released
union
reception
immediate
respond
criminal
300
por@@
exhibition
air@@
negative
hands
beaches
Services
ig@@
instance
Debian
raise
shared
inform
ised
»
trading
voice
evidence
gen
introduce
ton
cap@@
ear@@
Europeans
truly
pre-@@
insurance
ner
cat@@
described
reservation
Bu@@
relax
guarantees
recognition
charged
stock
votes
improvement
13@@
AC@@
propose
architecture
advance
Pi@@
int@@
orders
possibilities
continues
calling
genuine
membership
spending
passed
Every
figures
unacceptable
ino
York
wishes
att@@
grounds
election
element
ath@@
Due
names
reliable
adoption
Tra@@
coffee
session
article
campaign
shi@@
Un@@
religious
Linux
combined
pictures
trip
installed
ery
enables
devices
learning
button
&gt;
Si@@
registered
territory
det@@
skills
seek
allowing
Christian
elegant
participate
sides
ice
strongly
ai@@
greatest
packages
firm
EN@@
fiscal
completed
tasks
elected
meters
obtain
unless
unfortunately
ju@@
closer
4.@@
wood
Dis@@
sensitive
26
23@@
ulation
fear
television
manage
contain
Irish
ended
standing
hon@@
surrounding
CO@@
desire
stands
ends
ological
Justice
pp@@
booking
kept
black
pa@@
tly
arrival
river
Another
Research
em
28
ro
brand
enormous
Such
color
eu@@
platform
WTO
Board
nearby
bear
African
surface
zing
sel@@
forced
EL@@
dedicated
ee
flow
claims
compared
ub@@
permanent
marked
coast
failed
perspective
Prime
urgent
No@@
entitled
ash@@
sale
Turkish
beauty
IS
Office
post
corporate
recommend
ja
ering
tor@@
relaxing
individuals
convinced
Nevertheless
Great
print
bra@@
lose
Rec@@
biggest
sort
Democrats
exercise
Her@@
Mor@@
od@@
extended
court
piece
Greek
moving
St.
middle
Museum
Yet
transparent
storage
holidays
Kosovo
U
totally
bel@@
Green
comment
ou
drawn
device
controls
mm
factors
payments
35
discover
ory
advertising
weapons
Eastern
accessible
pen@@
establishing
initial
Guest
science
az@@
outcome
memory
organization
vision
unable
win
railway
&apos;re
organised
fication
disease
sets
contrary
granted
sun
export
Be@@
om
conclusions
ek
land@@
advice
CD
ger
definition
tion@@
attractions
Business
OS
assi@@
zone
cs
net
Netherlands
berg
rightly
von
1998
tional
ambitious
chosen
attack
interface
Trade
Thus
commitments
window
ances
install
High
neither
rent
square
31
one-@@
asylum
write
s-@@
vehicle
church
existence
flight
valid
limits
honourable
successfully
5.@@
Man@@
ili@@
Palestinian
remind
candidate
engine
perfectly
unto
Du@@
mit
Gi@@
achieving
guide
institution
mountains
story
sive
cont@@
tried
claim
Lo@@
Mi@@
Vienna
bs
Booking.com
background
Management
agency
not@@
29
maintenance
targets
constantly
continuing
fire
approximately
artists
paragraph
Portugal
luxury
obviously
colleague
independence
deliver
van
ES@@
ir
dic@@
Center
Health
expression
saw
ist@@
stri@@
goals
ley
Can
Are
ini
update
inv@@
signal
asking
unit
obligations
dra@@
ban@@
uni@@
Foreign
contents
operate
Constitution
advantages
laid
aircraft
Am@@
bars
tation
host
yesterday
ular
exc@@
…
na
ei@@
Those
water@@
surrounded
physical
edi@@
equality
binding
books
planned
promotion
outstanding
decades
contained
eri@@
ars
deep
qualified
obvious
pan@@
expenditure
Go@@
recommendations
expensive
furnished
counter@@
post@@
intervention
ination
capable
bringing
north
category
ements
merely
monitor
ected
route
tically
ched
onto
race
anti@@
coll@@
ang
Jo@@
situations
participants
dly
Association
nearly
Regulation
communities
pointed
stone
Both
prevention
sha@@
medium-sized
factor
ris@@
manufacturing
El@@
keeping
landscape
Austrian
45
mechanism
bath
putting
ring
club
species
UN@@
consists
leads
disposal
dynamic
Club
ising
zi@@
someone
recovery
waiting
title
substantial
consistent
seeking
vis@@
tic@@
tro@@
sli@@
smaller
governance
ire
buffet
registration
micro@@
causes
ok@@
cul@@
cru@@
mass
extend
ell
guaranteed
looks
log@@
System
Ver@@
Federal
vel@@
rapid
brings
acceptable
tru@@
mal@@
hom@@
conc@@
sti@@
i.e.
amm@@
photos
resulting
named
ame
ser@@
stra@@
turned
lake
conclude
examples
wind
Other
driving
determined
compliance
spread
Restaurant
Located
touch
ker
ast
foot
primary
Rules
j
ein
du
responsibilities
treated
meaning
attacks
addressed
strengthening
Summit
Any
arms
Latin
Agency
nations
Sweden
phase
explain
id@@
patients
seven
fuel
industries
plus
versions
object
Information
wall
RO@@
glass
testing
Se@@
cal@@
si
lan@@
contemporary
pleasure
und@@
adequate
identity
ately
thereby
spaces
loc@@
che@@
GDP
Comp@@
association
atory
Thanks
consensus
primarily
Pre@@
talks
forest
ion
discussing
evaluation
store
liability
read@@
previously
cas@@
kinds
schools
investments
sm@@
steel
satellite
Red
delay
sis
remove
jo@@
eng@@
notice
Romania
1997
dimension
stations
и@@
multi@@
char@@
convenient
down@@
competence
fil@@
Lake
technological
leadership
urban
5-@@
older
ella
ff@@
nu@@
Despite
delivered
sol@@
representative
on-@@
Cre@@
visible
accounts
requested
Op@@
manufacturers
MP@@
Tur@@
diversity
AD@@
skin
southern
Minutes
controlled
sanctions
edge
affect
the@@
Microsoft
dealt
reg@@
urge
temporary
enti@@
alisation
compl@@
gets
Rome
represented
liber@@
li
multi-@@
felt
@
pat@@
ye
30@@
prepare
dro@@
speakers
Enjoy
significantly
nation
gar@@
gone
conduct
ered
multiple
mail
golf
approval
utili@@
willing
compatible
Grand
ented
fy
register
opposite
rail
letter
3.@@
los
Bar
Environment
copy
insi@@
mode
ó@@
runs
tre@@
Kar@@
ft
ony
strength
aries
«
mechanisms
launched
Star
Ni@@
ection
ass
Dutch
shape
mutual
feeling
Before
author
ya
Breakfast
improvements
refugees
moved
analy@@
consultation
default
amongst
head@@
lin
Find
highlight
knows
Very
reply
helping
25@@
ette
uns@@
ries
alist
ect
Gra@@
expertise
OR@@
ve@@
cr@@
dri@@
length
relatively
ths
radio
fit
ening
Software
200@@
experiences
IM@@
expectations
spa
sell
mer
sold
web@@
wait
respective
ts@@
acting
covers
ites
oral
ada
lat@@
serves
presentation
ching
requests
taxes
wealth
cking
quick
attitude
websites
trees
units
in-@@
engineering
Bel@@
ain@@
solve
recommended
politicians
regret
ue
discovered
fighting
helps
obligation
ams
faced
ov@@
rejected
Reg@@
iz@@
gre@@
destination
fill
equ@@
Company
mp@@
dishes
hin@@
appeal
except
emphasise
compensation
drugs
finding
recognise
p.m.
tours
ex
ron@@
Two
bro@@
fruit
bas@@
browser
appreciate
producing
entered
exists
healthy
resolve
emphasis
wh@@
profit
elled
reflect
constant
articles
suffering
gri@@
bedroom
streets
privacy
vol@@
Energy
truth
IP
bing
eh@@
ek@@
intention
Gr@@
tests
operators
charming
extension
substances
comply
museum
disp@@
DVD
temperature
cycle
boat
tes
cross-border
taste
Chamber
figure
affairs
„
Take
aging
handling
objects
Market
prot@@
je
latter
le-@@
Ber@@
danger
furniture
Note
FR
valuable
Col@@
mobility
renewable
largely
Britain
cri@@
recognised
drawing
naturally
delegation
ain
whatever
diseases
happens
THE
fraud
disaster
hostels
Villa
helped
proof
gro@@
opposed
EM@@
applicable
confirmed
fu@@
output
oo@@
sta@@
president
Ne@@
arrangements
ung@@
™
mor@@
Instead
cheap
exclusively
cher
personally
centres
texts
tain
1996
bedrooms
Programme
das
officials
suite
pe
creative
millions
constructive
waters
eight
burden
determine
RA@@
Afghanistan
con
involving
Bur@@
Private
Art
fies
fail
error
noise
Google
els
asi@@
spring
alized
automatic
increases
Le
charges
soft
Use
32
Cal@@
ut
Sur@@
whilst
emp@@
ports
criticism
sou@@
volume
Where
hum@@
equally
ff
impressive
heavy
protecting
amounts
Munich
Rule
6.@@
Wi@@
sen
75
holding
prove
offices
Japanese
alization
migration
passengers
EN
directives
#
entertainment
band
audio
chain
je@@
journey
friend
Paper
involvement
Swedish
rap@@
Welcome
peoples
treaty
Best
ous@@
exceptional
pol@@
Institute
La@@
fol@@
ple@@
°
mann
combating
obtained
er-@@
dinner
2-@@
happening
strategies
perform
removed
massive
pul@@
watch
fa@@
Station
ai
assist
ll@@
command
ghts
mandate
Tor@@
LE@@
outdoor
leaving
ward
leisure
depends
Safety
eye
bul@@
contributions
organizations
locations
seeing
Control
Gar@@
off@@
Home
acy
aci@@
east
Their
finished
cer@@
ns
father
Strategy
Foundation
Chi@@
discharge
remaining
Ministers
proved
mental
parents
reserve
dining
launch
val
spec@@
ls
rapporteurs
ought
creates
ink
kers
define
cent
wards
died
He@@
ours
block
walls
Fi@@
ara
issued
our@@
hit
reserves
divided
Br@@
communications
restrictions
Last
ase
abroad
fantastic
resolved
meat
Sa@@
maintained
connections
repeat
ning
Over
trac@@
assure
debates
eyes
collective
preparation
ual
sexual
ined
requirement
ach
dates
atives
Har@@
za
ligh@@
tel@@
password
duc@@
NATO
Financial
ght
Croatia
ize
couple
yp@@
ani@@
residence
ath
occasion
organized
doors
contracts
weather
res
UR@@
regulatory
val@@
colour
Charter
Ladies
identify
resolutions
win@@
opinions
Pal@@
--
leg@@
Ta@@
west
two-@@
precise
defend
investors
roads
pose
liberalisation
ences
Frankfurt
characteristics
regularly
Val@@
lets
una
worse
Costa
focused
intend
vast
MEPs
marks
messages
harmon@@
continent
Book
returned
conflicts
involve
occup@@
pal@@
Nice
cold
iting
blue
cour@@
break@@
War@@
spot
castle
doesn
pieces
John
owners
с@@
Gro@@
glad
hundreds
surroundings
Bulgaria
Nor@@
burg
facilitate
faster
ab
AM@@
ethnic
awareness
arian
ato
á
operational
realistic
ective
ac
conducted
alities
proud
ET@@
extreme
gs
Procedure
renovated
firstly
effectiveness
confirm
grow
Korea
fee
carbon
mel@@
understood
displayed
Hotels
Mal@@
cable
joined
optim@@
ills
frequently
flo@@
Under
impression
disc@@
Au@@
Polish
El
low-@@
depending
deals
sauna
demanding
customs
seat
gn@@
properties
decision-making
ado
performed
topic
decorated
lem@@
24@@
pping
vit@@
Mc@@
sa
Lord
ier@@
minority
drink
ultimately
Time
electricity
hardware
vers
settings
driver
Monetary
ici@@
Euro
transportation
wa@@
2020
ticket
noted
soci@@
ables
1,@@
Por@@
ID
heating
IL@@
Sal@@
answers
formed
classic
SMEs
ss@@
tal@@
parliaments
ads
yes
mostly
album
printing
Alliance
emergency
somewhat
definitely
balcony
familiar
SP@@
PL
abo@@
4-@@
ored
ards
Canada
rising
license
submit
owner
absolute
welfare
Whether
400
blood
elling
post-@@
ust
pic@@
Street
updated
grateful
une
pur@@
Roma
subsidies
aged
....
Brazil
statistics
SA@@
accompanied
Ru@@
ales
hol@@
follows
meant
contrast
islands
an-@@
Cyprus
delighted
Bor@@
chemical
fre@@
career
1-@@
techniques
ased
northern
art@@
universal
ced
wines
prefer
terrorist
facts
profile
aff@@
western
eastern
starts
library
contacts
Get
valley
reported
corruption
indicated
&apos;ve
med
cy
appointed
Data
visited
-up
functioning
def@@
Day
Square
actively
vers@@
drivers
sky
recommendation
judicial
row
Luxembourg
port@@
hall
Roman
imposed
kl@@
declared
lic
relaxation
pollution
To@@
inflation
50@@
percent
medium
widely
invite
firms
ID@@
7.@@
IN
stored
involves
careful
inhabitants
brief
signs
presents
ress
custom@@
person@@
150
River
demonstrated
fron@@
flights
provider
Enterprise
White
showing
Air
declaration
oning
pu@@
interior
sch@@
satisfied
ke@@
sho@@
metal
eller
configuration
tourists
Old
speaker
exciting
load
Tro@@
reject
arrive
occur
suites
maintaining
hal@@
gender
Comm@@
transition
heritage
woman
master
Perhaps
01
assets
Given
So@@
expert
intellectual
channels
demonstrate
ongoing
bound
Mat@@
Soviet
Open
vacation
collaboration
afternoon
Yes
sation
LA@@
competent
lab@@
settlement
Dr.
strict
EL
oriented
Ben@@
Do@@
trafficking
resistance
pension
we@@
high-quality
U.S.
committees
Gre@@
earth
Bal@@
rapidly
Cas@@
lists
looked
corner
Ser@@
lie
lovely
tickets
newly
bilateral
ben@@
ec
explore
concluded
passenger
²
entrance
Palace
Arab
justified
1995
Question
regarded
th-@@
-B@@
Applause
match
feed
stance
visiting
categories
personnel
EU-@@
documentation
TH@@
ked
recorded
aming
visa
Copenhagen
expansion
possibly
tou@@
US@@
listen
fashion
grant
Pl@@
appearance
farm
Bri@@
cutting
stor@@
De
chan@@
uting
Portuguese
wers
dependent
quarter
raw
pra@@
Hu@@
poll@@
educational
lasting
long-@@
Friday
generated
functional
nation@@
rock
audi@@
awarded
spoken
containing
overcome
ene
department
gardens
emerging
desired
Cam@@
phrase
foundation
credibility
minorities
tackle
respected
plays
Schengen
assume
replaced
cosy
determination
dep@@
See
saving
owned
3-@@
Er@@
hostel
partly
towns
stronger
ME@@
nights
crimes
Baltic
gli@@
remote
theme
mother
satisfaction
apart
š@@
ulate
bottom
aw@@
artist
1st
о@@
channel
stat@@
ha
acted
ash
immigrants
cle@@
plenty
forum
exit
Pact
bridge
moral
Prague
PT
facility
wo@@
cally
Amendments
scheme
transactions
Ko@@
fitness
Hungary
professionals
ws
usual
Description
factory
routes
blog
ial
planet
windows
occasions
http
Funds
ere
manufacturer
lots
Ap@@
com
gener@@
AL
е@@
copyright
correctly
Belarus
heat
ki
constitutional
ware
Belgium
legitimate
Pakistan
DI@@
Shi@@
with@@
Em@@
serving
ING
sharing
Special
Following
winning
hi
lounge
subsidiarity
corresponding
sending
fic@@
Within
Second
ster@@
don@@
ency
sun@@
Israeli
replace
esses
gold
ona
sight
component
destruction
shares
fr@@
spectacular
ON@@
puts
constitution
run@@
Sub@@
suppliers
Protection
distributed
DA@@
solid
identified
taxation
youth
stylish
Spa
Will
hu@@
conditioning
addresses
providers
urs
nor@@
cia
min
ensures
argument
lift
és
-based
в@@
elsewhere
Lin@@
ech@@
Mexico
slightly
hair
lay
cross
behaviour
count
Z
eventually
ake
Fl@@
physi@@
bike
banking
rit@@
dge
Char@@
Thirdly
encouraging
decisive
Structural
preparing
cuts
rin@@
films
rental
aches
Without
zz@@
proposes
division
my@@
sl@@
cent@@
falls
vulnerable
Church
globalisation
exports
Hungarian
battle
adv@@
deficit
fur@@
extraordinary
Ti@@
flat
considering
magnificent
ON
secret
CH@@
citizen
sters
plenary
army
milk
ining
miles
Or
cash
adults
pm
exception
intensive
Bro@@
generate
Northern
inn@@
enhance
electric
Cap@@
updates
Madrid
wrote
pr@@
dan@@
Pri@@
log
2011
sugar
Design
courts
yn@@
ko@@
inclusion
examine
surely
Action
complicated
bin@@
hab@@
packaging
tory
ty@@
arise
ica
straight
Vo@@
ong
filled
а@@
proven
Del@@
interpretation
supplies
ca@@
England
suffer
scene
VAT
Hor@@
Tr@@
substance
impose
hear@@
sum
adopting
Can@@
antly
ack
excessive
accurate
Well
diverse
directed
sup@@
chi@@
Good
Technology
weekend
enabled
ball
proceed
savings
invest
everyday
cian
eth@@
university
absence
concepts
patent
lessons
forests
bes
een
proposing
renowned
vari@@
las
voluntary
ri
applying
las@@
95
III
gained
clubs
selling
advis@@
specified
Ju@@
greatly
carrying
theory
hundred
housing
killed
solely
ISO
stabili@@
ancy
subjects
Like
Women
centuries
traditions
wal@@
duties
domain
wonder
Mer@@
abuse
Besides
Thursday
zu
holds
anc@@
Bush
topics
eli@@
für
teams
shipping
supplier
ental
therapy
suggestions
99
Code
Q
dem
directory
representation
pursue
formal
ordinary
drug
aus@@
nevertheless
courage
ania
ot
maritime
EADS
virtual
trial
lined
thousand
liberal
Guests
illustr@@
yer
Im@@
arrived
amed
Assembly
colours
departure
deposit
slow
villages
tobacco
drinks
consent
artistic
wear
Framework
receiving
paying
promised
ation@@
ete
mix
MA@@
fle@@
spoke
philosophy
difficulty
countryside
prosperity
invited
Congress
minister
ishing
de-@@
finish
description
Ho@@
module
Nos
comparison
Desk
skiing
Islamic
appeared
pped
cc@@
input
uted
At@@
trend
Santa
reservations
label
AB@@
depend
treat
cast
suggested
9.@@
enn@@
pos@@
foot@@
ide
fe@@
Having
arguments
well-known
connect
necessarily
Egypt
disk
Eur@@
notes
wel@@
productivity
attempts
36
Fin@@
ride
Sunday
ni
cked
tt@@
farming
ata
sion@@
Agriculture
sem@@
periods
luxurious
Bra@@
disabled
weak
unity
Island
sheet
imports
48
leaves
enabling
oring
Fu@@
Atlantic
raising
permitted
Report
ste
Americans
King
politically
enjoyed
estimated
1990
referendum
ss
succeed
34
societies
constitute
succ@@
confirmation
patient
cooperate
united
Town
significance
frame
Year
uring
stars
bility
allocated
trips
acqu@@
obliged
ane
tested
overview
ordin@@
continuous
adi@@
Page
dict@@
mid-@@
asser@@
eat
CA@@
desk
tables
л@@
religion
т@@
tea
recognized
actors
Earth
Legal
conf@@
CO2
deb@@
Is@@
specialist
welcomed
destroyed
handle
Global
expl@@
ther
ani
refers
dig@@
dream
unforgettable
contributed
well@@
award
delicious
ECB
negotiating
oni@@
School
cab@@
publication
functionality
flows
import
harmonisation
programming
fourth
remained
toward
ser
stic
AND
Monday
fulfil
dence
homes
massage
wer@@
Facilities
instructions
prev@@
hardly
ama
all-@@
98
ome
festival
Royal
Beach
preventing
ming
cleaning
istic
supposed
supervision
ce@@
Mac@@
aj@@
Through
manager
tennis
Situated
suffered
bal@@
ater
covering
•
law@@
lived
armed
conver@@
reaching
Finland
freedoms
Transport
sei@@
upper
forthcoming
welcomes
ole
3D
barriers
missing
legally
Mag@@
sections
eing
Barroso
productive
tw@@
modules
introducing
Black
organic
en-@@
Hamburg
cro@@
cies
dur@@
Media
characters
Festival
Strasbourg
ine@@
Tip
tab@@
layer
orial
Asian
Auditors
Act
cells
OT@@
Obama
labelling
ious
sustainability
indicate
lands
AS
firmly
explained
mobili@@
37
Dec@@
turning
rare
conventional
Uni@@
Site
everybody
parameters
ax@@
thermal
Should
gallery
33
prime
tran@@
sounds
restricted
severe
direc@@
remarks
ministers
saved
motor
cam@@
realise
reflected
enhanced
wider
Sol@@
clo@@
OF
OR
originally
gap
beings
driven
proceedings
IF@@
movements
edly
combine
roll@@
fans
considerably
classes
transmission
gan@@
sphere
ky
reflects
lunch
musical
PHP
none
atively
AG@@
obstacles
Socialist
adverti@@
ena
600
by@@
hospitality
revision
Me@@
fees
adapted
safeguard
enterprise
motor@@
Bre@@
blo@@
stocks
resi@@
Pic@@
welcoming
Serbia
parliament
arch@@
ger@@
Who
TR@@
endorse
showed
lec@@
Stability
pure
atis@@
hot@@
coordinated
errors
Inn
adapt
whereas
wave
Law
Res@@
imagine
isation
origin@@
Sel@@
1994
ola
qui@@
zer
universities
faith
football
sw@@
IR@@
collected
bon@@
hearing
Rom@@
acceptance
tom@@
wat@@
swe@@
hill
Does
cancer
dia
sor@@
resource
wellness
28@@
regardless
Food
oned
pay@@
ero@@
vessels
generations
erial
boo@@
Wor@@
fairly
undoubtedly
alise
decade
disasters
ref@@
investigation
Hi@@
Mont@@
Mu@@
federal
ern@@
liked
exploitation
computers
didn
losses
ecting
worthy
itt@@
ick
pressed
cle
sought
summ@@
director
birth
Federation
managing
minim@@
internationally
museums
ace
opp@@
Net@@
cel@@
tionally
Min@@
Ger@@
isi@@
tree
decline
fleet
studio
viol@@
sole
reaction
ini@@
Hel@@
Te@@
exclusion
equi@@
ED
parti@@
Express
guided
Australia
wn
female
excluded
38
ei
consulting
flu@@
ment@@
drop
Tre@@
believes
cket
romantic
bers
Systems
OL@@
Ph@@
wireless
д@@
lim@@
lo
Card
bly
Gen@@
far@@
reliability
Saturday
songs
restructuring
concentrate
8.@@
suit
protocol
joining
dé@@
movie
800
ari
violations
ail
ett@@
inform@@
è@@
spo@@
ey@@
Sk@@
trends
symbol
restored
videos
cial
roots
transferred
stru@@
sovereignty
interpre@@
ections
subsequent
add@@
chair
dignity
Pa@@
ordered
satisfy
pressing
San@@
song
stages
printed
compact
penalty
abilities
Balkans
55
Valley
supplied
learned
Vol@@
Geneva
tage
dering
predic@@
processed
ouse
equivalent
ened
amenities
ease
Peter
Sil@@
travelling
ACP
Commissioners
but@@
assembly
dry
restore
ECU
deep@@
ned
Agenda
assess
dd@@
clause
approve
Ter@@
tracks
0s
м@@
undertaken
voc@@
Christmas
cot@@
root
Michael
MS
info
strengthened
targeted
designs
remin@@
checks
euros
aside
cultures
uli@@
shift
accident
edition
PDF
deeply
anywhere
ups
pot@@
dies
produces
listings
non@@
sit
absor@@
Wi-Fi
Venice
ums
operates
are@@
nine
ki@@
centr@@
missions
fishermen
non-smoking
tend
promise
regi@@
Bay
lar@@
contrac@@
e.@@
portfolio
temp@@
ached
ign@@
posi@@
shadow
reconstruction
dark
treatments
pes
sizes
plan@@
ands
phot@@
ulated
dead
AT
ard@@
na@@
a.m.
freely
Regional
PR@@
compar@@
sensible
hiking
Indian
08
spe@@
lock
lam@@
province
underground
gh
Win@@
avi@@
briefly
stories
dat@@
sights
Hall
ov
explo@@
eless
parallel
prospects
stream
threats
Among
7-@@
posed
Sou@@
Education
Georgia
reserved
manufacture
eld
everywhere
floors
profits
hydro@@
normally
worst
Music
para
eness
engaged
ç@@
Golf
Consequently
neighbouring
anniversary
ide@@
Organisation
Bas@@
ecological
dar@@
funded
hr@@
fran@@
plastic
lied
Trans@@
phones
adds
poses
Online
panoramic
ading
amazing
stand@@
Executive
belong
miss
fi
Tour
acknowledge
pretty
collect
Fe@@
to-@@
Tourism
picturesque
individually
reputation
vor@@
unds
Euro@@
Denmark
Paul
alty
ci
struggle
IMF
counter
ession
arising
servers
eurozone
belief
efficiently
termin@@
budgets
09
Next
engines
squ@@
NGOs
attached
adding
cop@@
formats
presenting
proportion
ization
highlights
nar@@
ile
enting
26@@
operated
begins
brow@@
entering
mus@@
Ca@@
executive
dollar
bom@@
CAP
sufficiently
PL@@
Da@@
Islands
usage
cell
relative
Sen@@
Mr.
Ba@@
USB
varied
till
relates
coun@@
Castle
ores
mistake
phenomenon
urgently
student
switch
Pres@@
mil@@
IC
ie@@
pillar
sand
Culture
rely
three-@@
Casino
alists
teaching
occurred
diplomatic
camp@@
64
riding
dating
play@@
references
bit@@
oni
shot
ía
6-@@
ba
ven
Die
heading
yst@@
Belgian
panel
Server
scientists
yl@@
hel@@
meets
candidates
recording
seats
emb@@
ce-@@
onic
appropriations
engage
m2
evol@@
onal
cm
grown
oes
As@@
graphics
meal
kilometres
Using
push
overlooking
specialists
intends
combines
Lastly
twice
lobby
ort
1992
Resort
acquired
Ombudsman
Would
causing
damages
IA
medicine
execution
geographical
sophisticated
highlighted
warning
succeeded
ambi@@
set@@
ken
bonus
kernel
integrate
Front
recognize
aling
COM
honour
oll@@
surprise
magazine
resulted
referring
virtually
boost
territorial
coherent
s.@@
gradually
65
eff@@
inspired
consequence
ow
ski@@
Rotary
essentially
E-@@
19th
activ@@
strictly
Real
tig@@
0-@@
script
index
07
boot
constructed
widespread
q
Further
Tru@@
oldest
letters
dom@@
commun@@
Plan
pris@@
visual
producer
liable
Putin
akes
inner
incorporated
blocks
virus
ante
ished
heads
Notes
trained
affects
makers
troops
Family
radi@@
stunning
favourable
Sar@@
sized
SE@@
proj@@
TO
49
sto@@
ok
concert
ol
ord
revenue
choices
Tran@@
explanation
JavaScript
ello
solar
ects
thy
Dra@@
passing
operator
elec@@
uniform
wild
peti@@
aviation
ert
Fran@@
Budgets
Deutsche
Manager
considers
amp
hidden
airports
sign@@
agents
alcohol
respon@@
forth
reporting
ler@@
Be
dated
participating
colors
poli@@
bathrooms
records
mot@@
stuff
convenience
aria
feet
weak@@
kes
cing
dad
User
encouraged
Have
Don
superior
Customer
ch-@@
Hon@@
ys@@
urgency
seconds
teachers
ge-@@
и
yed
manual
ector
42
snow
willingness
ea
DA
exact
contextual
boats
aqu@@
prosec@@
filter
observed
Constitutional
achievement
graphic
proc@@
Protocol
Consumer
Saint
prisoners
Pen@@
victory
soil
bright
seeks
narrow
Vice-President
insist
utmost
ases
capabilities
specialized
clarify
stores
preserve
itable
promises
crises
olive
fri@@
Exchange
Gl@@
repair
regulated
mem@@
accidents
cross@@
ney
meals
Based
č@@
conferences
taining
oms
yard
IG@@
rein@@
ail@@
impl@@
servi@@
surprised
Cooperation
sta
Tel@@
sian
ita
sively
checked
ells
quotas
क@@
Ren@@
opens
percentage
associations
ly@@
,@@
logical
Danish
realis@@
purely
ente
intensi@@
Martin
п@@
attend
convergence
harmful
PC@@
upgrade
alongside
&apos;m
у@@
world-@@
know-how
ela
4-star
boards
mouse
villa
sex
casino
spite
composition
wooden
ham@@
poly@@
hopes
prec@@
adap@@
LO@@
ond
Box
obj@@
CF@@
developers
alli@@
marine
refer@@
lau@@
or-@@
quote
eted
doub@@
airlines
hills
27@@
zes
fted
sle@@
swi@@
compulsory
convention
eds
2nd
camp
labor
construc@@
Fre@@
metro
Industry
governing
dispute
theatre
edited
implications
Dublin
pick
tra
OS@@
shel@@
stake
incentives
radical
neigh@@
ick@@
Wal@@
\
prison
Ci@@
Treaties
96
faces
eter
constitu@@
identi@@
meaningfully
scheduled
fly
mere
Forum
relationships
Off@@
pil@@
ices
Medi@@
bearing
05
es-@@
.00
Speci@@
pet@@
evident
clock
ope
native
quar@@
expand
communicate
clicking
expense
fra@@
97
organise
250
ark@@
unfair
believed
sleep
uri@@
vin@@
dings
View
85
beer
classical
Terms
itation
approaches
Dom@@
permission
Nor
crew
ultimate
arians
cker
initially
mod@@
oli@@
Ku@@
van@@
decre@@
retain
sessions
addressing
Pro
Life
Syria
1993
angle
tious
indoor
AV@@
shortly
snow@@
eliminate
fax
20th
cool
Civil
cou@@
Garden
enforcement
Fundamental
broken
aly@@
contextually
dance
ye@@
grammatically
Prodi
employed
ED@@
wer
Director
poorest
remarkable
ography
studied
schemes
forming
wonder@@
medieval
smooth
roof
ador
tac@@
10-@@
Award
GB
bou@@
of-@@
ed-@@
organis@@
constitutes
Via
intelligent
amended
medicines
describe
eu
permit
enjoys
asp@@
chairman
sound@@
audience
ush
distur@@
girls
vely
gg@@
discount
neg@@
concentration
repeated
negotiation
UT@@
charm
ingredients
ill
extending
grade
accounting
correc@@
ential
mort@@
Sam@@
Project
catch
Children
keys
Quality
legitimacy
multilateral
exposed
erg@@
arti@@
pools
campaigns
ect@@
assigned
ean
hole
wage
ops
adventure
financed
Set
anim@@
calm
bought
Pan@@
Meeting
satisfactory
minor
Cup
Acc@@
champ@@
recip@@
aus
Muslim
IB@@
ees
pun@@
asset
tives
IP@@
ils
aster
lish
appointment
Jewish
tre
losing
Mil@@
CE
mm@@
fewer
pilot
tour@@
chapter
prize
certified
Java
06
Common
translated
mid@@
Network
tionary
Player
and-@@
neighbours
free@@
ga
collabor@@
navigation
Subject
organiz@@
Ob@@
Out@@
tis
Bern@@
paths
technique
н@@
suggests
ownership
SM@@
wei@@
Cuba
Pas@@
dan
revolution
ader
Apart
My@@
ratification
collapse
inadequate
sil@@
Lan@@
ind
whereby
Sc@@
Check
roll
deserves
exec@@
High@@
taxi
thumbnail
frequency
unc@@
39
wife
C.
iled
MO@@
í
chairs
underlying
pression
Authority
seemed
su
Together
ners
completion
preferred
begun
foundations
eries
top@@
Gal@@
solved
03
conciliation
formation
mouth
suff@@
ati
folder
arranged
fe
к@@
maybe
repeatedly
regul@@
blu@@
susp@@
portal
buses
vacc@@
fascinating
height
Games
Web@@
unnecessary
compete
Slovakia
cell@@
newsletter
examination
prohi@@
scar@@
broad@@
David
bio@@
occupation
ct
mixed
rac@@
ura
aking
sely
journalists
economically
electrical
enjoying
ón
rot@@
managers
clear@@
Kong
kan
secondary
Ha@@
aro@@
din@@
boasts
USD
fts
mine
Pol@@
Intergovernmental
shore
beh@@
Camp@@
Plaza
dramatic
considerations
Hong
Fri@@
observe
ez
long@@
ank@@
02
Sec@@
Mad@@
Employment
empty
Three
ily
Stu@@
sement
George
ga@@
gi
shuttle
expanded
residential
violation
ly-@@
Fisheries
е
Far@@
optimal
hence
dol@@
rupt
pass@@
past@@
.de
timetable
non
communic@@
os@@
struc@@
mark@@
Men@@
Several
NL
instantly
appro@@
Kyoto
debating
superb
thorough
sorry
partial
vic@@
Wednesday
examined
representing
ext@@
genuinely
exemp@@
withdraw
Support
Fac@@
ital
kin@@
array
Sha@@
splendid
120
bay
Kur@@
ized
44
loading
layout
openness
SO@@
full-@@
suited
ques
dest@@
dialog
fer
forwar@@
portra@@
characteristic
low@@
int
mass@@
coastal
Team
escape
Hol@@
Ei@@
commit
Air@@
700
comparable
foremost
Make
intentions
speeches
vary
son@@
toler@@
Van
informal
iness
Florence
Flash
stick
apparent
ron
incorpor@@
travellers
dos
alize
resp@@
ories
ign
hypo@@
step@@
moments
Mur@@
Fer@@
codecision
autumn
spectrum
arily
bigger
moreover
sing@@
peac@@
subsequently
diving
sh
pel@@
MySQL
purchased
Ministry
lively
manufactured
RO
les@@
ethical
Des@@
slopes
stro@@
PS
auf
hy@@
Chairman
Internal
Trek
simultaneously
prefer@@
falling
busy
Alps
respects
ship@@
We@@
sla@@
extrac@@
Fr@@
Cur@@
Moscow
plug@@
Maria
oul@@
booked
cancellation
horse
Cat@@
smo@@
cho@@
ox@@
eful
ł@@
afford
destroy
lob@@
accuracy
turns
sample
branch
guaranteeing
strike
flat@@
Airbus
staying
hei@@
civili@@
expenses
measurement
Academy
ests
loy@@
whi@@
pensions
bre
accordingly
q@@
viewed
listening
condemn
ko
anda
complaints
Morocco
BR@@
loans
enh@@
accessories
clarity
over-@@
Palestinians
sible
10.@@
ears
transfers
string
fix
ault
destinations
adult
Department
tal
ner@@
mechanical
principal
tragedy
ala
elle
enter@@
continuously
calendar
tness
devoted
dependence
sn@@
ction
sunny
importantly
jointly
olog@@
CS@@
tragic
acceler@@
sy@@
Ram@@
thri@@
revised
Otherwise
elev@@
k-@@
sers
loaded
Met@@
logic
fores@@
featuring
high@@
oppose
rich@@
ा@@
cost-@@
cookies
inspection
textile
Jan@@
ami
Tu@@
I-@@
Holiday
preserved
tile
dent
parks
buil@@
Space
dem@@
1991
efully
broader
tered
forgotten
soul
Product
tains
pace
excursions
violent
A3@@
composed
doubts
Tar@@
Apartments
43
esc@@
asses
Skype
afraid
tively
viewing
refused
laying
clean@@
transaction
perf@@
Read
vocational
sees
PRO@@
PS@@
terrible
jurisdiction
zen
Str@@
CE@@
bet
Dor@@
Power@@
alled
promoted
motorway
fir@@
Studio
Suite
answered
ack@@
trav@@
arrangement
fifth
ep
publish
residents
Multi@@
Poker
dor@@
deadline
certification
ood
inst@@
affecting
amb@@
behavior
wast@@
omm@@
Pacific
buying
External
survey
Vil@@
premi@@
2013
iron
orientation
Growth
teen
sake
authors
ested
41
gement
ful@@
bling
Autom@@
affordable
posts
stopped
assurance
iling
ghter
depth
Cri@@
noon
195@@
Mel@@
alising
short-term
ê@@
viable
electoral
GNU
Greens
power@@
ideally
focusing
finds
perpet@@
stre@@
vice
treas@@
dres@@
assured
sav@@
focuses
fell
Gaza
wind@@
1989
fair@@
A-@@
ises
Heads
iss@@
of@@
ured
affili@@
ée
belongs
Ass@@
iler
desktop
EP@@
delete
Lam@@
width
fire@@
hau@@
nobody
Finnish
refuse
renewed
transitional
mas@@
plate
Han@@
Cer@@
removal
recall
preced@@
custom
Mac
papers
honest
2012
quantity
prospect
ceiling
stressed
lining
bits
EX@@
dimensions
Nov@@
expressly
adjustment
gift
8-@@
integrity
judge
Robert
modify
relief
Mul@@
Cro@@
Storage
environmentally
alternatives
Coll@@
brands
conversion
declare
spir@@
installations
specially
presidential
zero
earn
calcul@@
Area
S-@@
whatsoever
Section
sia
CON@@
cameras
Download
lon@@
attended
deserve
wheel
exhi@@
delays
ein@@
bet@@
advise
mile
Conc@@
officially
exhibitions
2,@@
uncertainty
eau
privileged
wise
ando
argue
researchers
zo@@
propor@@
healthcare
fan
Standard
basically
ute
arrange
partic@@
ier
Sun@@
sculp@@
typically
visits
ows
publishing
ham
organize
rating
populations
catalogue
promising
ranging
sovereign
soldiers
yers
domin@@
observation
1000
automotive
ish@@
occupied
false
knew
Na@@
LE
up-to-date
illi@@
ays
certificate
47
Gentoo
beneficial
ires
Pu@@
missed
aled
tual
smoking
achievements
centers
arts
poker
Staff
9-@@
ull
duration
Equ@@
lights
ba@@
tropical
credible
signals
trains
Gener@@
Washington
short@@
instruc@@
emerged
whenever
EM
tips
ignore
Up
ora
authorized
explicitly
astic
pain
Single
Representative
painting
Video
bug
gue
surveillance
employers
mines
granting
schedule
winner
oked
Budapest
publish@@
new@@
neighbourhood
freight
Society
suspended
logo
rou@@
denti@@
Mobile
distinction
less@@
taxpayers
Partnership
variable
public@@
reli@@
actor
ater@@
precious
deficits
newspaper
debated
machinery
Until
beef
shor@@
pack@@
100@@
hard@@
smart
baby
04
ped
drives
consum@@
precision
stops
monuments
pattern
undertake
identification
relaxed
Main
frequent
postal
cin@@
stry
preparations
nom@@
tar@@
AM
ruling
negotiated
vo
certainty
releases
Location
prevented
retail
territories
pour
tower
86
adly
quest
Cl@@
stration
sailing
indicators
outs
nur@@
cancelled
Hostelsclub
secondly
Non-Smoking
reflection
chemicals
Las
St
entation
prestigious
consistently
Presidents
get@@
ú@@
Marina
eine
tiz@@
eria
lex
fitted
46
recession
mal
sandy
passion
threatened
unusual
Car
tiv@@
NI
sum@@
Power
Kr@@
tin
Conserv@@
alike
Spe@@
throw
ö@@
logistics
fare
Ge@@
All@@
deaths
whe@@
civilian
Ur@@
necessity
revealed
fast@@
flying
admit
accum@@
mistakes
insufficient
­
commerce
purchasing
academic
cross-@@
concerts
innovations
yo@@
realize
fications
11.@@
thanking
asing
returns
ples
rei@@
valu@@
James
premium
rup@@
imported
Kal@@
Los
Maastricht
rem@@
Ra@@
gate
addi@@
hesitate
Arab@@
tz
clim@@
Youth
ground@@
mini@@
ratified
negotiate
illu@@
Investment
DS@@
chat
Govern@@
sus
publications
oods
essing
ratio
ung
Charles
distor@@
stayed
closing
comprises
2.0
tigh@@
chose
trouble
replacement
favourite
S.@@
tem@@
interactive
Rel@@
err@@
fails
lovers
Place
p-@@
justify
greenhouse
dog
moves
generous
steam
.org
bureaucracy
facilit@@
eled
telecommunications
iel@@
eting
alt@@
Pap@@
occurs
photographs
Prize
crow@@
52
zones
Pass@@
announce
Cologne
indicates
placing
patterns
habit@@
evaluate
notably
feedback
acquisition
Small
tail@@
P-@@
signing
demonstrates
vals
Southern
protest
authorised
On@@
Salzburg
jour@@
suppl@@
exceed@@
ó
Olympic
heated
posted
architectural
sch
gross
mandatory
farms
airline
enced
len@@
eping
ester
worrying
Dar@@
unt
supplementary
Nu@@
Ther@@
AD
initiated
Joint
dial
ION
TO@@
notified
net@@
allocation
heavily
UC@@
AP@@
perc@@
unknown
sub-@@
patents
creature
exten@@
slowly
ury
humanity
voters
rati@@
Wei@@
Digital
Zurich
51
subscribe
Log@@
timely
plane
nationals
ave
performing
Opera
ska
fix@@
agrees
citizenship
measuring
transit
unch
claimed
Pr@@
Tom@@
Kor@@
Taiwan
displays
Website
Adobe
ping
boxes
BC
Rural
chief
downloaded
eve
by-@@
Thomas
movies
rig@@
aire
perform@@
fes@@
lows
Fo@@
thro@@
wherever
archive
caf@@
intervene
IV
ñ@@
main@@
lowing
scre@@
reloc@@
Third
spare
coal
journ@@
Ki@@
phi@@
potentially
diversi@@
nit@@
Conditions
ong@@
PO@@
senior
proximity
question@@
Rap@@
withdrawal
contractual
pot
icon
thir@@
harm
decor@@
specify
72
lighting
1.5
expanding
react
defining
dollars
subsi@@
wars
unanimously
coordinate
Democratic
cher@@
intelligence
dal
Sony
contributing
Regi@@
apparently
Europol
Super@@
vise
conservation
cla@@
18th
qualifications
Argentina
clothing
literature
conventions
blan@@
catering
spar@@
Similarly
any@@
experiencing
unions
converted
ckets
inclusive
premises
Personal
favorite
applicant
ges@@
dual
J
Scotland
lag@@
arity
ution
tonnes
aching
tak@@
terrorists
imposing
black@@
intense
ret@@
SP
AIDS
Iranian
codes
caught
s.
Burma
govern@@
cooking
lig@@
systematic
tened
Mari@@
structured
spots
need@@
tut@@
procurement
aded
May@@
cancel
sam@@
mist@@
EA
harbour
Select
differenti@@
embra@@
unt@@
yang
dist@@
gradu@@
eth
biological
dness
churches
breach
creativity
ample
platforms
sty@@
etry
no-@@
stret@@
competences
rif@@
arbitrary
Everything
Bureau
tens
Lithuania
Cir@@
Ed@@
disputes
appl@@
magic
Dem@@
mature
progres@@
Pra@@
gest@@
avo@@
diagno@@
attrac@@
breaking
BSE
headquarters
Search
pursued
gers
undermine
PH@@
blame
tough
drinking
sheets
Choose
guar@@
Road
accommodate
Science
ación
coverage
bol@@
arrest
Plus
Left
alizing
maps
revi@@
consistency
handled
event@@
ids
after@@
temperatures
copies
degrees
warmly
keeps
exposure
Yugoslavia
equity
ENT@@
hes
tan@@
ues
Alb@@
respectively
Bon@@
OM@@
elderly
split
adjust
warming
a.@@
X-@@
ambition
Obviously
batt@@
findings
fulfilled
visitor
designer
C-@@
handed
aring
owing
Which
pain@@
Port
tioned
Slovenia
workshops
Shop
Contact
rub@@
dru@@
authentic
Travel
Canon
Milan
silence
biodiversity
tone
pit@@
specialities
HTML
Lebanon
Experience
Vene@@
Ir@@
Communist
convert
transformation
3rd
benef@@
ee@@
tia
anian
perspectives
convince
state-of-the-art
approx
worry
essence
stering
well-being
silver
Master
controversial
wages
pays
design@@
Direc@@
vali@@
segment
BO@@
fuels
App@@
judgment
lor@@
half-@@
indi@@
stein
HO@@
Malta
desirable
crops
terminal
bour@@
vac@@
EF@@
Deposit
hed
Ul@@
ais
spor@@
stays
ст@@
survi@@
tain@@
Secretary
Open@@
thesis
confident
unemployed
hire
integral
rest@@
assign@@
S.
legislat@@
explains
suggestion
sentence
lica
receives
workshop
tax@@
dencies
Ref@@
--@@
fallen
ept
specifications
decent
progressive
threshold
inary
AC
uph@@
lev@@
Access
hospital
hing
AN
Empire
dominant
lish@@
eradic@@
zy
Vel@@
toilet
Liberal
tribute
bert
avoided
diff@@
fli@@
emphasised
volcan@@
ral
paradise
shaped
describes
bag
meantime
tier
choosing
Num@@
Series
ulations
substantially
Ol@@
Don@@
ico
birds
zu@@
catastro@@
insp@@
tension
borne
tian
bureaucratic
artificial
Full
irs
directions
PPE-DE
lowest
oh@@
treaties
gaining
194@@
asts
vi
gn
appreciated
practically
News
alle
amending
partnerships
grants
blind
ules
Blue
ord@@
College
estimate
divi@@
sm
entries
measured
incentive
rol
harmony
key@@
raises
industri@@
bank@@
Puerto
pursuant
leather
hur@@
ailing
54
genetic
Bosnia
29@@
comb@@
separ@@
vigor@@
red@@
Ang@@
Additionally
Gold
scri@@
Water
controlling
enlarged
Go
column
bed@@
lakes
pack
Guide
rolling
verage
gains
lesson
edit
differ
noticed
ectively
Boo@@
marquis
drafting
fat@@
develops
Mus@@
deliber@@
Stockholm
capture
settled
Poli@@
tioning
credi@@
connec@@
USS
st-@@
Nonetheless
performances
negl@@
holes
ré@@
accomp@@
Islam
Show
ump@@
mo
fate
adju@@
The@@
rubber
alis@@
dation
automation
depl@@
top-@@
24-Hour
thoroughly
tured
flag
doctor
book@@
scenery
entr@@
talked
emission
io
Heating
preliminary
esti@@
watching
finances
bot@@
transpor@@
disappointed
pharmaceutical
isn
stipul@@
consult
tailored
pling
activated
gel@@
editor
bill
isolated
Point
Visit
prob@@
regulate
IV@@
Elevator
challenging
photography
consequently
acknowledged
damaged
tun@@
anx@@
SA
Tuesday
executed
deemed
Ms
forcing
cians
statistical
signature
160
engineers
Luggage
nonetheless
pleas@@
inten@@
Nordic
Cha@@
Parliamentary
sens@@
EU@@
dian
agent
Everyone
teacher
downtown
sus@@
Palestine
ARE
characterized
demographic
Iraqi
self
Labour
intern@@
Cathedral
MB
Gulf
uns
gol@@
laser
proceed@@
declarations
migrants
Modern
West@@
programm@@
marking
acquire
acks
contradic@@
A.
ignored
swit@@
dorf
CS
vous
circul@@
Defence
12.@@
Mark@@
mit@@
justi@@
motions
71
founding
ym@@
Star@@
fought
exchanges
AR
ager
ally-@@
dumping
celebrate
BMW
plat@@
interinstitutional
abund@@
breathtaking
21st
ford
gor@@
ET
56
el-@@
Beijing
Pay@@
expressing
Sor@@
flowers
Liber@@
Golden
Live
paintings
serv@@
izing
diver@@
40@@
sporting
margin@@
discipline
prohibited
magn@@
dominated
heav@@
Hostel
Edition
strange
victim
derived
acknowled@@
53
bi
eigh@@
Champ@@
restrict
par
torate
fears
environments
woo@@
Lei@@
finest
eta
peak
Ant@@
Clearly
umin@@
unlike
confusion
regrettable
encies
licence
jan
adjusted
connecting
keen
wording
monitored
volunte@@
vis
realized
ption
Rob@@
cky
emi@@
passes
counts
Her
Av@@
Socialists
priv@@
open-@@
New@@
circle
plain
ob
incredible
powered
68
ques@@
Pe@@
ero
·
twenty
undertakings
enz@@
History
ggling
bonds
Apple
Hence
Wil@@
novel
camps
pregn@@
SI@@
66
guard
regimes
complexity
alarm
kids
ori
alt
anticip@@
downloading
postp@@
shortcomings
pron@@
compare
themes
emerge
inated
hosts
Gran
pair
itali@@
Press
optical
guidance
kg
recei@@
battery
sustained
robust
surprising
Hamas
condemned
esi@@
stood
Vietnam
argu@@
ENT
lean
transatlantic
्
survive
tells
ket
aces
California
por
chem@@
reduces
Macedonia
them@@
indication
economics
ji
belonging
onia
wai@@
Meanwhile
notion
pione@@
cheese
anning
mini-@@
Peace
searching
tolerance
branches
estimates
ody
mini
parameter
fundament@@
å@@
telling
apped
coordin@@
aves
automated
з@@
Indonesia
GN@@
foods
essed
seaf@@
garage
ento
defense
accepts
unfortunate
separately
mur@@
male
devi@@
autonomy
ede
grand@@
League
Apartment
grand
Syn@@
sten@@
ve-@@
governed
outset
Cel@@
ny
hoped
Pat@@
è
subsidiary
ensured
spiritual
racism
amend
writer
turing
thoughts
inci@@
Sometimes
exceed
pas@@
Order
fla@@
Citizens
survival
grat@@
cut@@
sequ@@
а
drafted
visi@@
pet
Leg@@
advoc@@
concentr@@
lacking
zi
extrem@@
sensor
incorporate
quot@@
schol@@
exerc@@
Budgetary
rul@@
Tim@@
oria
Aqu@@
exceptions
Pack@@
PM
simplify
fal@@
taught
ère
Pet@@
edy
walks
discre@@
seminars
Program
evi@@
ema
reverse
delicate
contra@@
bread
abandoned
unlikely
Norway
prominent
editing
mining
Ban@@
Zimbabwe
AK@@
iny
married
torture
auto@@
ool
show@@
piano
login
enburg
inquiry
Es@@
responses
Thailand
illing
allies
Organization
departments
checking
upcoming
eo
closure
evolution
mul@@
rejection
publicly
accepting
Currently
ras
PP@@
Sy@@
guides
Ltd
Est@@
Oper@@
large-scale
optional
calculated
associ@@
gio
penalties
tho@@
score
Start
Lim@@
characterised
allow@@
Wall
invitation
infl@@
tin@@
trails
circulation
initi@@
Libya
translations
returning
59
ousness
Maj@@
failing
simpli@@
foc@@
feels
inations
Training
infringement
rated
Budget
multimedia
Mas@@
Rot@@
oting
interview
1980
archi@@
impris@@
atri@@
Naturally
vent
Juli@@
ich
crossing
aving
defects
eda
Stat@@
rat
Pla@@
indirect
rus@@
DO@@
mirror
reductions
ald
Discover
preferences
compo@@
attract
bes@@
grew
Declaration
unification
evalu@@
Albania
tations
Technical
Sudan
reinforce
roughly
airs
conjunction
flav@@
uss@@
ele
vegetables
act@@
eventh
follow-up
recycling
Kon@@
discovery
celebrated
filling
loved
landscapes
nam@@
ety
Above
iPhone
doctors
inters
ima@@
implies
ems
Nav@@
Friendly
badly
centrally
deser@@
horizontal
Right
cheaper
favor@@
backed
pursuing
ander
illa
conveniently
tool@@
Wa@@
interim
desper@@
twin
aps
assumed
ran
kit
fiable
shareholders
monthly
simplification
Person@@
requiring
separated
homo@@
continually
secured
observers
modes
Docum@@
quantities
unprecedented
announcement
concentrated
About
aten
ze@@
ч@@
receipt
alliance
Rei@@
Mis@@
nis@@
respecting
enemy
SL@@
minds
bath@@
undertaking
breaks
Sin@@
Anti@@
Def@@
rose
reiterate
identical
combining
humans
setup
weigh@@
altern@@
demo@@
Mir@@
exhau@@
ographic
appe@@
Blan@@
ght@@
troub@@
transformed
58
Come
surfing
golden
defending
brain
CL@@
bone
rational
stem
inher@@
deleted
radiation
confron@@
dental
2.5
styles
Tyrol
bid
continental
underline
bases
ft@@
los@@
exploring
ä@@
oti@@
fires
Hal@@
unstable
culinary
interaction
compatibility
kes@@
bird
listened
dam@@
profound
coinci@@
Tibet
adher@@
daughter
gym
fault
participated
rain
bags
deleg@@
sponsor@@
securities
tape
Bl@@
Co
practi@@
analyses
radic@@
denied
Professional
evil
resorts
shar@@
Sim@@
extra@@
solving
globalization
continuation
derog@@
conve@@
Dan@@
weekly
ि@@
reads
88
permanently
MA
investigate
banned
sity
thers
specialised
92
atically
Ham@@
bathing
Gor@@
optimum
alogue
Industrial
sq@@
consolidation
quota
quarters
clos@@
diplom@@
enthusiasm
tackling
invested
chocolate
cope
semi-@@
influenced
LA
Cli@@
accused
distribut@@
winners
aya
suddenly
unlimited
Sie
compli@@
adaptation
GT@@
©
Den@@
backing
racy
Cy@@
della
Tit@@
sar@@
cles
XP
hang@@
rivers
Not@@
locate
Pin@@
fold
jack@@
owed
musi@@
officer
anch@@
subscri@@
capit@@
alls
esta
refined
endo
Anonymous
о
nin@@
activate
wis@@
bles
ont@@
commonly
skilled
ör@@
Alpine
ols
T-@@
tangible
newspapers
dy@@
districts
salt
g-@@
Tal@@
Inclu@@
murder
cip@@
presentations
yellow
ity-@@
tening
excess
र@@
demanded
vicinity
SV
Tunisia
clothes
revenues
Bad
Az@@
ambitions
contributes
awar@@
earned
EMU
demonstration
competitors
ula
homepage
girl
tube
oder
ume
eable
day@@
strive
striking
consisting
AP
the-@@
lex@@
Part
arrested
Rather
5th
labels
PD@@
part-session
linguistic
eating
et-@@
Mark
magnetic
ades
restoration
haven
vity
gastronom@@
lessly
condi@@
partition
alo@@
UM@@
SAP
arm
Millennium
sanc@@
Danube
trademarks
&apos;d
vir@@
founder
differently
wake
assemb@@
press@@
Os@@
Playa
mes@@
clearer
cris@@
Coun@@
liness
cement
ishes
ans@@
mas
wa
Cr@@
pact
Catal@@
inger
г@@
oper@@
maxim@@
motivated
57
alog@@
ple
railways
Consi@@
ght-@@
discrimin@@
congratulations
inning
officers
sharp
etric
nowadays
Fif@@
rescue
clu@@
tex@@
Region
alistic
controller
let@@
sat@@
67
Nic@@
arom@@
bears
goo@@
sur
Cab@@
fam@@
ag
lens
р@@
synchron@@
ually
olo
ig
CHF
partially
complet@@
Could
distinguished
Plan@@
patri@@
OK
cycling
Ka@@
complic@@
venue
ville
modest
Change
dents
lower@@
capability
alive
WC
authorisation
backs
knowing
alu@@
anded
tranqu@@
GU@@
venture
aining
permits
warranty
obtaining
explicit
eck
appreciation
commission
dangers
Lat@@
inequality
tivity
stones
carrier
flash
exploit
deri@@
currencies
Captain
Fil@@
Client
Cu@@
air-conditioned
ANT@@
employee
removing
shed
orious
eligible
prescri@@
deny
ade@@
slau@@
Mand@@
chen
lia
waves
SD@@
lement
conci@@
UL@@
Climate
alties
я
independently
roles
transmitted
DC
zia
profiles
Arts
Work
embedded
assessments
sin@@
kill
asse
techni@@
notification
Post@@
ior
ambience
l-@@
encounter
holders
stakeholders
dedic@@
theat@@
nicht
capacities
investigations
AF@@
cali@@
Ah@@
Chief
biom@@
16th
se-@@
cultiv@@
gathered
investing
formula
gon
maj@@
struck
Eff@@
verse
accountability
isolation
witness
san@@
excellence
databases
observations
lifestyle
HD
time-@@
seekers
vable
Val
safely
group@@
moderate
ingen
4th
boundaries
cum@@
conscious
preventive
brother
extends
polis
ž@@
Fax
aken
scenario
charter
Fair
Excellent
bo
Working
dges
entures
SS@@
graphy
colonial
halt
ains
TS
CEO
FOR
tz@@
circuit
bands
engagement
configure
auch
acquis
laboratory
fei@@
vel
80@@
tu
sightseeing
endor@@
promotes
mounted
plates
Moldova
designers
SQL
damaging
recover
ologically
translate
tip
Stuttgart
supervisory
saf@@
Vista
Land@@
tight
trademark
household
constraints
bench@@
mailing
gaming
minimal
shr@@
stimulate
sweet
Big
kilometers
fting
distribute
consulted
touched
master@@
Sun
inspiration
Ocean
Andalu@@
tries
ray
Tower
align@@
gence
gear
coalition
Rio
secret@@
surplus
ent-@@
Suites
stringent
fifteen
cos
Gir@@
Les
dged
forums
rows
sk
comforts
dentally
younger
Rem@@
view@@
stag@@
NO@@
pru@@
installing
adequately
four-@@
neutral
District
finishing
eal
authentic@@
unanimous
orian
bach
mitt@@
besides

afterwards
eding
provin@@
countless
dive
coherence
plur@@
desc@@
3-star
harv@@
mol@@
reaches
decentr@@
interpreted
sson
SE
ions
UNESCO
D-@@
inevitable
argued
Content
perio@@
82
invo@@
scenes
ego
indigenous
clin@@
cht
ouses
anger
Process
umb@@
elabor@@
reform@@
speaks
practic@@
Jews
Communication
Swi@@
shoes
Line
emented
climbing
killing
vineyards
empha@@
furthermore
qualities
atories
awards
reconciliation
grave
feelings
imm@@
Library
ceram@@
Rental
sincerely
hide
Ak@@
commission@@
weapon
dictatorship
opponents
musicians
Sol
Regarding
abolition
embar@@
Residence
tournament
delayed
rank
Natural
Cle@@
aux
utility
bott@@
62
fel@@
hectares
tering
Bol@@
dismant@@
Add
dogs
63
justification
aud
ION@@
Caribbean
Eli@@
dreams
bran@@
Gallery
modernis@@
Unlike
sul@@
bloo@@
collections
Muslims
MP3
repe@@
Professor
conviction
panels
cinema
cooling
user-@@
recogni@@
Kirk
stan
med@@
albeit
business@@
Radio
SW@@
Bour@@
arri@@
tiny
gia
summary
pride
Vic@@
aer@@
cious
Spring
delivering
vine
electro@@
-in
15th
clarification
Four
Products
Simply
ped@@
Alexander
explanations
divide
blocked
featured
esh
enth@@
alling
fru@@
electronics
realised
separation
Over@@
polic@@
ettes
hyper@@
Nero
pro-@@
asks
ocean
emplo@@
woods
Cold
Cop@@
Between
Hei@@
SC@@
ker@@
theast
Joseph
sad
revol@@
recover@@
twelve
eph@@
in-depth
indispensable
terror
ruled
dt
Christ
mainstre@@
resistant
complement
tes@@
Nature
Develop@@
palace
G-@@
attempted
suspension
pin
arises
Supervisory
het
Heritage
plugin
existed
lov@@
Cast@@
deeper
Adriatic
Close
Gri@@
jects
jud@@
intoler@@
vend@@
cigar@@
psych@@
Casa
influ@@
moder@@
pop@@
racing
otel
tensions
17th
Image
right-@@
bak@@
reinforced
inos
wra@@
refurbished
fruits
calculation
oration
Ö@@
Certi@@
dimin@@
73
Beh@@
entities
talent
kar@@
Indi@@
UR
tionality
Allow
await
conditional
spons@@
Franc@@
án
Estonia
Language
scep@@
Annual
craft
avoiding
elite
acci@@
invites
tan
900
designated
sof@@
menus
fundamentally
endless
crystal
Hy@@
reproduction
co-operation
symbolic
washing
seaside
first-@@
render
var
77
tories
Analy@@
terly
helicop@@
Tour@@
69
elli
jo
simil@@
filters
globally
admission
beat
itting
outlined
lawyers
Pop@@
joy
titles
boarding
wedding
seminar
Bridge
.The
PSE
limitations
retirement
ained
elli@@
Holy
Piazza
agon@@
inevitably
mir@@
defic@@
QU@@
Finance
stroll
impetus
reviewed
endeav@@
openly
instability
hazardous
fits
processor
89
complimentary
hosting
Christians
advances
gements
luggage
Warcraft
Country
single-@@
consist
60@@
intergovernmental
vessel
advocate
consi@@
marriage
Play@@
thr@@
â@@
Mol@@
upgra@@
elegance
five-@@
interfaces
libraries
luck
estone
simplified
ate-@@
incident
ense
Blo@@
Jesus
alpine
character@@
dest
gases
hopefully
capitalism
eco@@
legendary
Bru@@
camping
villas
Dru@@
Jerusalem
Corporate
packed
subscription
carries
fabric
workforce
generating
thin
critic@@
Being
A.@@
xel
tremendous
feder@@
ington
delivers
maintains
arriving
hunger
ideological
trail
Bul@@
Det@@
wire
ax
D.
H-0@@
audit
bub@@
hat
somewhere
stant
sett@@
sensitivity
abuses
systematically
liquid
duction
fertili@@
ranges
б@@
A5-0@@
profitable
twenty-@@
acking
refugee
-to-@@
detection
dynam@@
esp@@
printer
Korean
й
rets
ра@@
infrastructures
distant
holder
resumed
descri@@
agu@@
universe
Much
rat@@
gran@@
EP
Later
tern@@
supplement
fers
Partner
Bed
Coast
ough
var@@
teach
Alp@@
93
Compl@@
entrepreneurs
notic@@
gene@@
contest
prevents
opping
1990s
ilt
laimed
x-@@
Design@@
voices
adjustments
fs
61
sac@@
irre@@
integrating
hat@@
disagree
spell
horses
cargo
94
easing
rarely
donors
Europ@@
Richard
check@@
encing
threatening
rid
ão
mixture
Privacy
selecting
aker
dre@@
ova
proliferation
mani@@
Basi@@
cycles
aul@@
Ari@@
subjected
stu@@
insight
ails
Shar@@
bab@@
eci@@
eil
Dol@@
gradual
entrepreneur@@
may@@
minist@@
Army
Doha
pointing
Though
fresh@@
Singapore
herself
Head
socially
decrease
entity
enrich@@
symbols
booth
judges
recep@@
encomp@@
ive
oud
gres@@
abstained
IM
ros
Bab@@
glu@@
attraction
Al
Wireless
breeding
mountain@@
kit@@
incorrect
Ama@@
Chechnya
annually
shock
defeat
3,@@
decoration
Nikon
interference
quiries
pap@@
cen@@
Saddam
ह@@
Ste@@
bish@@
HIV
graphical
AU@@
fif@@
incomes
criminals
reveal
highway
78
dev@@
eur@@
hist@@
fai@@
ectors
Š@@
worker
utions
offset
dust
imperative
Pack
Cultural
Riviera
Village
lying
retri@@
squar@@
stating
ín
petition
mathemati@@
ois
vels
Dep@@
74
newest
implic@@
Top
high-speed
query
Samsung
shooting
Dresden
Mah@@
Allah
aggressive
technically
chances
sham@@
Sport
ond@@
Il
criterion
wishing
skill
Reserve
lik@@
License
matches
attri@@
bann@@
F-@@
distributors
giant
layers
adverse
floo@@
inj@@
harmonised
vised
tab
attempting
mar
Administration
belt
terraces
arm@@
free-@@
mineral
ender
Unless
ude
resolving
glob@@
Saudi
nec@@
exceptionally
civilians
impres@@
prop@@
DR@@
NEW
linking
multip@@
max
healing
ix
refriger@@
sofa
Helsinki
customized
Pon@@
sent@@
advised
gather
vern
Louis
rigorous
employ@@
communist
carriers
ook
silent
revolutionary
Especially
Pur@@
disciplinary
odi@@
Nigeria
simul@@
repression
Edinburgh
Statute
kir@@
thin@@
determining
exclude
democracies
tons
tn@@
enjoyable
attach
inter-@@
overnight
apping
BA
year-old
dging
discretion
IX
origins
nutri@@
bicycle
typ@@
ø@@
ult
real@@
-F@@
hearts
autonomous
eland
Mountains
andi@@
examining
anders
class@@
sincere
ao
degra@@
rant
supporters
CD@@
carte
kon@@
Explorer
vacuum
f-@@
oured
Romanian
dans
Phili@@
Sum@@
Loc@@
.net
wil@@
mes
tracking
Mun@@
500@@
KDE
restrictive
presi@@
chamber
Chile
Mountain
CN@@
Prin@@
este
excuse
ouldn
pillars
shots
Foot@@
holi@@
globe
genetically
Back@@
ME
indirectly
Ober@@
-European
classi@@
ho
Armen@@
CR@@
tram
chest@@
Written
reciproc@@
Ay@@
Iron@@
Newspapers
procedural
envisaged
lay@@
76
emo@@
episode
chi
tise
personality
margin
appearing
scrutiny
reactions
profit@@
locally
perception
yr@@
mix@@
ali
Ag@@
Criminal
Exc@@
circum@@
anism
elt
divisions
reasonably
£
prints
sich
strikes
asting
ceremony
GE
distinct
gur@@
licensed
boy
Kh@@
ion@@
Solidarity
Black@@
raft
complaint
band@@
emble
stit@@
rhyth@@
convincing
protests
Dur@@
mi
disastrous
cus
Corporation
CA
coins
samples
sums
compromises
yield
struction
bli@@
nomin@@
visu@@
surgery
स@@
loo@@
affir@@
IGC
congratulating
Je@@
Lag@@
dei
clinical
corporations
mach@@
opera
Man
colon@@
neys
Hom@@
Continu@@
compens@@
hes@@
thes@@
train@@
GPS
fon@@
moderni@@
analyse
validity
turn@@
utt@@
91
enhancing
bud@@
securing
Young
Tem@@
gar
towels
interventions
stadt
hosti@@
ageing
eling
concludes
workplace
theoretical
Disabled
ario
formally
foster
ison
iev@@
protective
-T@@
dress
GP
xy
hairdryer
agre@@
onds
bon
on-site
monopoly
lication
Under@@
beautifully
ever-@@
enc@@
invoice
Petitions
aluminium
reader
Mak@@
Jer@@
ř@@
immense
disclos@@
meter
81
consolidated
visas
check-in
accommodations
fat
mic
HD@@
Basel
etic
abandon
knowled@@
navig@@
overwhelming
cau@@
PAR@@
painted
onn@@
gal@@
EB@@
admitted
ul
preservation
maker
ologies
Whilst
perceived
beside
nearest
einer
assessed
non-governmental
-in-@@
orca
350
Inc
innocent
emotional
refra@@
Chancellor
tap@@
comfortably
Latvia
certificates
ernity
unanimity
ature
aton
transported
cils
Capital
bla@@
ès
ring@@
stimulus
safeguarding
dramatically
Look
depic@@
remo@@
Vis@@
Med@@
preference
refusal
round@@
gni@@
far-reaching
eby
nings
Upon
Innovation
Nokia
Micro@@
hunting
sympathy
bal
platz
Das
sional
Nothing
ferry
lion
alter
Neither
GA
correspon@@
exploited
FT@@
CDs
LCD
bor
tonight
Il@@
moon
literally
couples
suns@@
altitude
productions
deployment
verify
proportionate
Var@@
sey
Depending
energies
worried
statute
consultations
part@@
cit@@
List
cost@@
guitar
exam@@
double-@@
accompanying
thinks
diam@@
pushed
migrant
burning
Zi@@
Firefox
ectiv@@
buyer
gem@@
farm@@
Ven@@
Sho@@
Bay@@
pine
furnishings
missible
witn@@
veter@@
ren
formerly
Siemens
keyboard
ounced
proves
absurd
endeavour
dered
austerity
Sierra
configured
Mallorca
Wellness
endorsed
mag@@
jk
0.00
upload
Engineering
Catholic
fin
aiming
Wher@@
ava
े
lays
flag@@
profession
portion
Child
ern
tot@@
cotton
counting
lier
Retur@@
Game
insert
auc@@
prejudi@@
wisdom
headed
EG@@
eri
unified
87
galleries
wished
author@@
bat@@
safer
Anyone
Net
ulating
shell
deciding
Nobel
mess@@
Ukrainian
drew
confirms
ords
Fir@@
kno@@
1970
FA@@
cathedral
Leipzig
costly
tism
wanting
council
scienti@@
tos
tle
Vill@@
Stri@@
Film
behold
vertical
limiting
defe@@
verti@@
ower
Ky@@
trans-European
intimate
enco@@
ý
HU
Bir@@
surfaces
din
modern@@
demonstrations
ruption
inviting
instant
tag
classified
NOT
Building
patch
iner@@
cons@@
1980s
án@@
rounded
singer
variables
outer
Bulgarian
mount
Lis@@
pedestrian
Along
exquisite
ling@@
tica
coach
studying
punishment
meg@@
smallest
cap
execute
Double
readers
buttons
SC
improves
prompt
Times
baths
praise
olo@@
memories
alleg@@
gent
spi@@
Galileo
lifts
Ori@@
deadlines
credits
detention
dou@@
Montenegro
efs
Bou@@
solo
Valencia
2015
thwest
Lor@@
Again
admire
static
Starfleet
thereof
eption
popularity
loan
serial
Sig@@
William
classification
standardis@@
delegations
broadcast
immunity
carri@@
vibrant
heim
obstacle
Looking
uter
Econom@@
B5-0@@
missi@@
photograph@@
emphasize
cache
ffs
ames
sym@@
Conn@@
Kir@@
wir@@
Wikitravel
rene@@
witnessed
Recently
investig@@
politi@@
Mart@@
trig@@
Summer
Neu@@
paragraphs
responding
Rep@@
sequence
Theatre
surve@@
guilty
indications
arly
counter-@@
PA
ont
Fal@@
ji@@
Cho@@
cool@@
Exhibition
§
eded
aks
distinguish
introduces
visibility
trials
bis
admir@@
meaningful
fragm@@
Congo
iger
Bet@@
sand@@
Light
authori@@
avec
impro@@
pricing
subj@@
pull
construct
deck
modernisation
ancies
believ@@
painful
acier
Dre@@
XML
contem@@
definitions
Four@@
geographi@@
Land
completing
remedy
identifying
audiovisual
sends
medicinal
poss@@
Blair
accessed
commands
ebo@@
ô@@
manifest@@
Att@@
ESS
vibr@@
html
fulfil@@
educ@@
stom@@
Against
ander@@
row@@
EE@@
critique
Max
metro@@
downloads
pati@@
limitation
irrespective
advisory
pig@@
ble@@
Gay
dryer
न@@
paint
ticul@@
system@@
Adv@@
bot
chair@@
psychological
DP
traditionally
DS
ement@@
tendency
epide@@
ruins
grid
developer
modification
vou@@
OECD
landing
seri@@
ordering
reluc@@
Force
reti@@
unilateral
intim@@
tariff
dul@@
short-@@
problematic
illness
lifting
anyway
six@@
intent
sharp@@
verb@@
posing
settle
alb@@
baggage
hierarch@@
va@@
distinctive
icious
300@@
bin
Deb@@
ev
nightlife
sorts
83
pipeline
cattle
Kl@@
Test
hip
gas@@
Age
Cohesion
consolidate
complementary
legacy
pho@@
tery
counted
spreading
mand@@
tually
iPod
ration@@
reimbur@@
ano@@
textiles
refres@@
clauses
mad
sacrific@@
disappear
diet
she@@
modifications
Michel
yiel@@
Palma
Terrace
micro-@@
promp@@
1988
pushing
alle@@
Simp@@
reaffir@@
dairy
container
persu@@
prerequisite
lending
etta
inn
inland
disabilities
cir@@
worlds
broadcasting
dioxide
evaluated
appar@@
listing
dereg@@
Whatever
protects
Assi@@
Algeria
oph@@
tied
werden
festivals
adjacent
renewal
anner
correction
cream
spra@@
Kit@@
aboard
snacks
Conven@@
mut@@
Maur@@
Ali@@
Lux@@
exacerb@@
import@@
cover@@
exotic
ados
vation
mood
Plat@@
ideology
Proc@@
Germans
deriv@@
Islam@@
eive
Reform
enforce
ariat
deli@@
Func@@
vre
economical
condem@@
volumes
draws
escal@@
bus@@
Ear@@
yo
Revolution
invasion
stell@@
jur@@
cat
south-@@
Round
own@@
6th
Sac@@
races
night@@
Arti@@
BM@@
retained
199@@
comprehensible
Dam@@
export@@
ation-@@
gam@@
î@@
Medical
Environmental
wash@@
blocking
coastline
promo@@
fasc@@
mon
ik
feasible
encourages
continuity
Zealand
conducting
24-hour
routine
atten@@
Account
neo-@@
Arch@@
dena
Easy
Forest
dark@@
diplomacy
etc.
rear
bugs
consu@@
safeguards
donor
temporarily
Colombia
OLAF
Mem@@
ailed
fragile
evo
chip
eck@@
tasty
vigil@@
best@@
eke@@
hood
proph@@
suits
cooperative
Secretary-General
passport
detect
spre@@
Solutions
Bus
compet@@
infr@@
households
Azer@@
assessing
compiled
fulfilling
incidents
lap@@
alia
mid
organs
wasn
RSS
Democracy
frau@@
shorter
rowing
Railway
iner
optimized
recru@@
forestry
noble
fed
Political
anas
fusion
Gui@@
tant
attacked
host@@
settlements
individu@@
inch
Airlines
cabin
gon@@
vor
retro@@
confidentiality
bikes
organising
bian
imbalances
gambling
panorama
7th
erning
gathering
etch
Lab@@
Inv@@
Porto
responded
resign@@
brilliant
ega
ann
Haiti
unk@@
lei@@
organ
NE@@
confidential
Phot@@
writers
oll
contam@@
recognises
Croatian
convic@@
metals
Ret@@
debts
enza
VIP
Metro
ratify
aston@@
quoted
attend@@
ik@@
Ide@@
Contrac@@
Om@@
Der
multinational
weal@@
ingu@@
Jac@@
Wol@@
standardi@@
gan
Non-@@
fort@@
aders
Save
visions
tiers
earthquake
Fortunately
folk
Warsaw
z-@@
Users
haus
Mess@@
autom@@
Arena
oasis
Quark
180
accommod@@
Kaz@@
architect
municipality
wareh@@
bottle
ua
Marketing
dar
batteries
courtyard
definite
ints
seas
timing
uty
By@@
purchases
Mount
employ
tible
macroeconomic
omp@@
preserving
conservative
bey
Rou@@
bec@@
scripts
Marco
Objective
broadly
defines
human@@
ATION
CO
valued
fitting
even@@
tag@@
Kling@@
ées
mean@@
Freedom
Lom@@
84
Additional
hair@@
Relations
Sett@@
13th
Hand@@
artic@@
evenings
attitudes
Bot@@
Ot@@
Dolomites
understandable
in-house
ton@@
torial
ort@@
Thai
ehr@@
harder
activists
anticipated
categ@@
captured
URL
mild
ih@@
wheels
Jean-@@
enemies
brea@@
birthday
varying
Francisco
materi@@
lage
qualification
wholes@@
resear@@
pop
resol@@
amoun@@
thick
tel
guest@@
inspections
floods
privileges
experiments
Flo@@
barrier
enters
fan@@
configur@@
Organ@@
Mail
ranks
ellers
algorith@@
Learn
110
pedi@@
organisms
warrant
vement
EG
itted
grass@@
Sav@@
Class
weakness
pressures
road@@
marble
tranquil
ament
grey
sons
Canary
transform
documented
Call
initiate
formity
abstra@@
institute
launching
Annex
midst
tender
diagnosis
Herzegovina
Canadian
Provi@@
toxic
distri@@
ć
SS
pper
ose
favor
eper
encountered
minibar
DR
dropped
instru@@
duplic@@
slide
automobile
Local
measurements
merchan@@
10th
Tuscany
Ashton
Dry
tunnel
congress
celebr@@
rewar@@
Want
statutory
brutal
Jon@@
locked
closest
placement
unny
Dri@@
spam
Hot@@
inappropriate
num@@
figh@@
Prot@@
antique
medic@@
boys
loads
voltage
rum@@
viruses
warran@@
refreshing
magazines
Emp@@
stituted
kid@@
aggres@@
Hum@@
hosted
dity
successes
off-@@
concep@@
Cross
nav@@
Division
ergy
plot
super
studios
fabulous
TA
SL
coating
escap@@
Solana
cular
Cher@@
eas@@
tank
withdrawn
consult@@
experiment
Slovak
iors
Version
Athens
Histor@@
leag@@
eliminating
licity
corrid@@
genocide
olf
ancement
rix
len
allo@@
Hague
weaknesses
foodstuffs
convey
imagination
Blu@@
ograph
Oc@@
quet
M.
crimin@@
accessibility
nick@@
pets
sleeping
retention
enses
topical
ric
End
boom
precautionary
anium
veness
ame@@
Scandinavi@@
liquidity
Sales
HP
Advanced
anno@@
populi@@
integr@@
Hau@@
unk
Lounge
Still
rhetoric
transnational
relevance
1986
pursuit
rever@@
Euro-Mediterranean
suppor@@
hop@@
ALE
jet
Enter
manually
Laundry
ा
prosp@@
disappeared
umbr@@
collecting
O-@@
alogues
Brand@@
acies
etri@@
parent
pretext
Bus@@
commodity
mail@@
ree
zo
diesel
Ticket
educated
concessions
affair
chart
deliberately
competitions
Update
outermost
thor@@
VI
on-line
Cleaning
Arri@@
stresses
nia
controll@@
Likewise
Lar@@
slow@@
FI
enta
erup@@
toys
persuade
fastest
Cambo@@
eit
sim@@
vegetable
Free@@
Pool
posting
Fra@@
14th
soli@@
Any@@
queries
rocks
jazz
Drive
smoke
BI@@
peripheral
affor@@
coordinating
zy@@
aren
discipl@@
persecution
virtu@@
OSCE
righ@@
Ke@@
sz@@
fear@@
Fol@@
foo@@
130
segments
nbsp
Large
seed
thirty
vian
EV@@
modular
tion-@@
market@@
protectionism
hoping
ranking
eters
bund@@
ahn
chers
attending
conscience
Eco@@
stretch
ult@@
random
nutrition
positively
rors
Kurdish
It@@
german
indul@@
democratically
Some@@
horiz@@
atom@@
Credit
slight
Anti-@@
thrown
municipal
ssi@@
Stra@@
Dat@@
ü@@
Merc@@
seb@@
speculation
Future
IBM
dealer
sind
ef
anese
Ric@@
retail@@
thick@@
Mass@@
you@@
EIB
establishments
m-@@
Technologies
SDL
poorer
detected
accompany
Articles
contradiction
lers
recti@@
restric@@
immer@@
20-@@
quiry
tv
instances
wild@@
impressed
norm@@
Ford
tiveness
lifelong
pa
aka
unter
still@@
celebration
Queen
irregularities
objections
xes
spark@@
Centr@@
uniqu@@
म@@
accomplished
deployed
arena
quantitative
bold
facilitating
socialist
template
friend@@
Quite
aggreg@@
Patten
Buddh@@
inser@@
Es
tivities
lle
economists
auction
correspond
reminded
aver@@
estic
frames
gentle
disc
minded
etr@@
shortage
mounting
toil@@
`@@
stainless
Tech
organizing
solarium
observ@@
forever
anymore
wearing
turnover
Cra@@
oga
overseas
infrin@@
doz@@
Georgi@@
bis@@
injury
Sab@@
Post
Nazi
1945
grain
thful
Below
bookings
fest
privatis@@
there@@
thirds
ultra-@@
at-@@
density
recreation
sheep
Tel
ов@@
socio-economic
aults
networking
onian
varieties
tanks
billions
mitig@@
aying
Schulz
iring
Dr
od
ě@@
emergence
attracted
1987
alter@@
Up@@
otype
inequalities
dossier
eliminated
alleged
ty-@@
broadband
influences
Help
Vir@@
halls
SK
contro@@
reveals
mitting
recur@@
urity
springs
terrain
GM@@
backup
V.
File
resist
preparatory
possession
GMOs
infection
196@@
chal@@
Play
exemption
disadvantaged
cultivation
Ry@@
Democ@@
lash
ux
opt
Hitler
Dou@@
Cour@@
speeds
ka@@
intensity
diameter
gs@@
ech
outline
replacing
Mich@@
dish
1,000
Diam@@
desert
successor
ks@@
cup
CC
hof
theater
state-@@
seg@@
aked
cure
momentum
earnings
positioned
Incre@@
shame
designing
rises
husband
eggs
geom@@
liberty
ounce
trendy
1985
ota
conditioned
built-in
zzo
но@@
strongest
prof@@
EEC
inet
void
steep
ularly
accoun@@
rom@@
ja@@
FC
directors
Cypri@@
Saint-@@
Tokyo
fridge
till@@
rug@@
second-@@
profession@@
opia
ever@@
descriptions
Jean
histor@@
reward
rough
elles
shipment
hospitals
casting
propaganda
hil@@
ae
trace
Hans
shoulder
journalist
consultants
79
factories
multitude
injection
Spirit
indic@@
interven@@
threaten
tackled
dening
tissue
thou
fier
crop
defen@@
deliveries
HT@@
commend
vising
Questions
deterior@@
Russians
exist@@
priced
Universal
moul@@
11@@
linen
donation
stairs
BS
bili@@
undering
treating
vez
pragmatic
imperi@@
Monte
Egyptian
Ros@@
ко@@
altogether
disadvantage
accountable
ROM
inia
real-time
boutique
bridges
Commun@@
generates
Certainly
oming
screening
energy-@@
fortress
econom@@
nesses
veget@@
añ@@
utor
guiding
ernal
recipient
mill
Rock
Cin@@
Instruments
я@@
elimination
commissioned
Ful@@
FR@@
transl@@
predictable
noisy
Rein@@
Chem@@
smu@@
Watch
Ein@@
variations
barely
ror
fossil
vegetation
Hussein
seller
acous@@
Tarifa
aden
Almost
gaps
family-run
phases
esting
archives
GR@@
enfor@@
sten
inhab@@
ensive
rd
personalized
chains
vulnerability
stream@@
fically
mails
signatures
cast@@
PE
installer
varies
negligence
grass
eva
proofed
distances
IL
Far
corresponds
confronted
matching
Fel@@
Afghan
Saf@@
400@@
sail@@
wood@@
sex@@
Wel@@
incurred
Vit@@
Renaissance
sensors
Liberals
flora
updating
blin@@
edness
Six@@
dient
imag@@
architects
geable
Pot@@
consec@@
RI
livestock
curr@@
anne
Learning
Ski
Century
onment
spective
decor
Wikicars
cane
emerg@@
displaced
erne
Mach@@
Kat@@
ALDE
Fed
teeth
Fas@@
Arabia
asty
Bavaria
vil@@
fish@@
lend
manu@@
Auth@@
bow@@
bust@@
Neigh@@
Um@@
Č@@
allevi@@
sin
sever@@
experimental
sy
chen@@
simp@@
Istanbul
ticism
incredibly
ologist
n-@@
forbidden
vie@@
compensate
repercussions
transi@@
rice
plas@@
therap@@
couldn
Photocopying
complied
mothers
basin
happ@@
nan@@
laundry
Sri
satis@@
Verheugen
aspirations
block@@
Bed@@
Garda
decides
acro@@
prevail
einen
scrat@@
LAN
ан@@
dish@@
inspec@@
Meas@@
func@@
B-@@
flower
Sports
EST
anna
sooner
regulating
third-country
Sul@@
FREE
enshrined
lad@@
PPE
Tampere
parliament@@
natur@@
motto
accus@@
af
lifetime
shut
crash
monastery
Production
Ref
voic@@
competing
til@@
Ethi@@
wholly
screens
Düsseldorf
drawings
Republic@@
Börse
KG
shores
Partic@@
acid
enchanting
buff@@
fabrics
LIN@@
bulk
tariffs
assumption
TV@@
pump
fireplace
chips
motivation
religi@@
LED
exercises
Bes@@
rehabilitation
refund
picked
mann@@
dimensional
tub
ı@@
promenade
ambiguous
grace
echo
burn
Sup@@
ared
ry@@
Ty@@
honor
verification
Institu@@
emotions
Serbian
promptly
Scottish
dened
occurring
arious
UP@@
fund@@
attentive
erous
pec@@
storm
acres
collap@@
axis
å
az
Source
ं
definitive
licences
stim@@
cryst@@
conceived
aran
recreational
bacter@@
amps
Boh@@
Gothic
symptoms
Maybe
Holland
Sand@@
eco-@@
ér@@
temple
aesthetic
м
financially
wins
Trav@@
Shanghai
substitute
manoeu@@
critics
thi@@
exclu@@
accurately
frozen
Intel
catalog
hygiene
dam
realities
Electri@@
cocktail
versatile
liberalization
priori@@
seasonal
geared
alarming
Avi@@
milit@@
portable
bei
notify
dear
Has
wet
path@@
biotechnology
Around
gra
dic
drag
aven@@
Fischler
Sustain@@
tro
Prince
Motor@@
photographer
pity
efront
utes
specification
ras@@
presum@@
dying
agers
wit@@
gut
therapeutic
Deli@@
forti@@
zoom
issuing
bond
els@@
ram
ción
represent@@
excluding
appropriately
fruit@@
laim@@
Mar
Commerce
Malaysia
eni@@
SH@@
Altern@@
3.5
chef
Price
envis@@
near@@
Yesterday
administrator
discounts
shapes
sixth
Competition
Brun@@
occasionally
15-@@
CM@@
orange
simulation
broke
essive
frank@@
Level
eed@@
tie
-and-@@
CP
cz@@
hen@@
constituency
utable
Nob@@
zer@@
omed
agne
promotional
credited
bai@@
emberg
sciences
eon
Word
essively
Roth@@
delightful
gourmet
ghted
ause
ftsman
ago@@
Taliban
yn
devastating
sustain
unn@@
tres
ield
scan
9001
MEP
iller
Sak@@
Starting
hous@@
travel@@
part-@@
Cham@@
totalit@@
ika
connects
Main@@
Hen@@
Visit@@
clari@@
capitalist
stricter
stock@@
vocal
idable
administ@@
atics
Beg@@
animation
sibility
tech
dently
abolished
Venezuela
Resolution
Presi@@
encryption
Quar@@
Buyer
LT
YOU
containers
formulated
linear
recognis@@
charging
Top@@
360
arium
pro
Esp@@
Director@@
privilege
resident
announc@@
injured
Iceland
haz@@
Bau@@
fisher@@
icker
contamination
propri@@
corrected
rounds
Bill
Mary
eus
oping
Sant
worthwhile
possess
Sta@@
feeding
defended
uncertain
eh
Wat@@
ы@@
orient@@
chaos
contribut@@
colourful
protein
Seville
angel@@
.com.
fortable
small-@@
earliest
college
Mit@@
eval
door@@
esty
Dav@@
Championship
े@@
um-@@
beg@@
fortun@@
simpler
urt
ologists
process@@
fulfill
itiner@@
tiles
Relax
Madeira
duly
fully-@@
cas
Tradi@@
home@@
kov@@
B.@@
lush
capita
failures
profes@@
Initiative
restriction
Try
ate@@
armament
Roman@@
beneficiaries
gging
attach@@
ank
forecasts
mechan@@
phenomena
medium-@@
Rhine
arches
verified
peaks
severely
punished
Set@@
Dr@@
surf
OP@@
incomplete
somehow
Nowadays
just@@
bear@@
cand@@
Bundes@@
cio
Type
Auto@@
optimization
coup
establishes
conception
demic
sudden
exceeded
Cz@@
destroying
age@@
commem@@
ST
Olymp@@
Bonn
foun@@
ashed
clarified
deplo@@
arities
english
embargo
inau@@
instruction
blow
negoti@@
demonstrating
valleys
itement
ium
4,@@
otyp@@
Arctic
molec@@
yacht
En
secular
sister
passage
Olympus
Classic
Little
criticisms
detriment
predomin@@
Back
ethics
amid
sehr
heres
yards
expects
exported
Santer
vide@@
buffer
eur
Lou@@
acute
trigger
purchaser
Aut@@
mb@@
blend
Computer
fairs
seating
sofar
140
coff@@
neur@@
W.
licenses
Deep
quali@@
Tibetan
ied
ophi@@
north-@@
backdrop
subsidiaries
liv@@
rentals
GUE
Fern@@
nationalism
strip
likes
spac@@
30-@@
eleg@@
CAD
gui@@
under-@@
anger@@
mankind
rats
Prac@@
1979
enforced
devote
europ@@
postponed
ck-@@
atility
Super
remuner@@
tuna
Americ@@
Available
matched
cornerst@@
legisl@@
suspect
aband@@
prises
concer@@
Ani@@
produc@@
Hill
Near
magical
advocates
judged
dealers
cury
sourcing
banana
Ibiza
scenic
fro@@
cially
rolled
dable
acu@@
deposits
paired
tired
unic@@
playground
Gift
renovation
inherent
misleading
licensing
yl
favour@@
expecting
SY@@
reflecting
mming
inspir@@
Jan
recordings
cave
slave
brigh@@
criticised
assumes
princip@@
burdens
precedent
Sound
alizes
particip@@
masters
lacks
eks
additives
nationality
cultur@@
stran@@
ж@@
realization
tongue
enda
Globalisation
wand@@
color@@
qui
gage
Works
pesticides
chronic
spati@@
Get@@
oven
awaiting
tune
Balkan
numer@@
i-@@
Fur@@
intuitive
Decision
Guar@@
Five
infected
scandal
understands
endi@@
Timor
Tat@@
Euros
incoming
persistent
remark
unite
foreigners
sensi@@
lit@@
mixing
migr@@
documentary
ALL
unded
enthusiasts
Water@@
seeds
én@@
unter@@
hou@@
plac@@
air-conditioning
Gate
viewer
memorable
Picard
peninsula
Caucasus
edo
Angel@@
lou@@
participant
Cit@@
Sarkozy
A4-0@@
ihood
passion@@
recommends
declar@@
recy@@
umes
labor@@
Prices
uma
eps
entails
Monti
crus@@
achiev@@
Rest@@
conversation
juice
IR
Panasonic
gladly
confused
Europa
screen@@
BL@@
trilli@@
legitim@@
gratitude
likewise
ku@@
gy@@
flour@@
Smith
Ferr@@
Darfur
bound@@
eals
radioactive
Daniel
Enter@@
Wes@@
zur
rigid
indicating
etto
prizes
Bell@@
Love
infin@@
modi@@
neutr@@
nic@@
Police
tice
vague
pending
harsh
univers@@
Naples
ind@@
royal
Pir@@
inserted
translators
fres@@
news@@
redund@@
ris
scra@@
doctr@@
nt
ampli@@
Differ@@
po
robots
ergies
life-@@
ulative
Throughout
mutually
seem@@
ention
tastes
gla@@
TE@@
delight
cease
recruitment
altered
defect
flood
Nord
stal@@
Direct
sements
Got@@
Follow
urged
invali@@
populated
appalling
genic
illegally
conduc@@
Prof.
submitting
lawyer
trage@@
oth@@
shaping
open@@
forecast
coloured
passive
lun@@
Application
kam@@
cozy
Banquet
och
dom
swim
discriminatory
ghty
gifts
Goals
Integr@@
entur@@
BS@@
composer
mins
assass@@
environment@@
dle
high-level
teenth
courage@@
sympath@@
Jordan
Out
humane
kt@@
CAR@@
frequ@@
childhood
ен@@
Accordingly
Official
harmonise
brown
submission
lot@@
biofuels
stimulating
testim@@
deterioration
democratisation
continu@@
anding
actu@@
laptop
Salz@@
stly
anybody
confront
gau@@
Gran@@
redi@@
incap@@
12th
Bio@@
nov@@
Copyright
copy@@
Sz@@
ratic
irresponsible
Taking
Imp@@
violated
acity
contracting
idyllic
policymakers
mead@@
Various
timber
Scientific
Respon@@
Syri@@
notable
Father
Tourist
α@@
loud
gent@@
Studies
ility
binary
Airconditioning
manages
calculations
point@@
enthusiastic
critici@@
wholeheartedly
reformed
destabili@@
positioning
1970s
DV@@
breast
icons
ecommerce
Supp@@
strasse
horny
त@@
र
judiciary
computer@@
Exper@@
disappointment
velop@@
school@@
poor@@
emen
Santiago
copper
optimize
Applic@@
optimistic
Initi@@
ateway
donations
proprietary
Purch@@
ient
civilisation
oils
fort
fashionable
en-suite
transposition
eful@@
semin@@
fluctu@@
conven@@
ateg@@
truck
fun@@
10,000
exhibitors
eman@@
rings
self-employed
extract
DI
pen
Brazilian
Bil@@
tieth
jump
pension@@
harm@@
upgraded
good@@
essi@@
API
Nur@@
osc@@
Days
cellar
ी
handic@@
ill-@@
internally
approaching
beginners
first-class
rendered
steady
unexpected
pumps
traces
Vie@@
J.
по@@
tones
Antonio
consciousness
balancing
tiques
arc@@
delic@@
dal@@
roof@@
atro@@
dirty
monument
confi@@
Currency
Len@@
kan@@
τ@@
ь
yours
dot@@
generic
diction
interoper@@
Long
columns
adapting
influential
exhaus@@
rej@@
-K@@
emin@@
Israelis
scenarios
Brok
prim@@
best-@@
alla
ITY
il-@@
ug@@
opposing
sper@@
dispat@@
wes@@
amo
Voyager
omin@@
dynamics
restoring
Tools
ceful
Rad@@
Europe@@
onder@@
confined
consci@@
expresses
Milosevic
cep@@
German-@@
trucks
fts@@
urg@@
som@@
mac@@
longest
Adri@@
Vor@@
adhere
filed
Fourthly
wron@@
target@@
Ok@@
unclear
ineffective
Jacques
accessing
mou@@
merit
awaits
Dun@@
spot@@
lit
motiv@@
ро@@
footing
lucky
administr@@
slot
Euro-@@
Winter
Gam@@
BER@@
assisted
professionalism
Gall@@
ecture
Sir
biking
distortion
thread
chapters
sick
showers
Built
emphasises
ane@@
utter
rought
pered
intermediate
eft
finger
Gh@@
cans
Review
5,@@
Installation
Clar@@
onwards
sibly
applicants
democ@@
friendship
light@@
rupt@@
GM
celeb@@
orph@@
aliz@@
informations
С@@
encouragement
disappointing
wide-ranging
tail
oom
chron@@
celebrations
one@@
Did
egu@@
heal@@
sexu@@
scann@@
phe
hydraulic
Ly@@
bra
9th
demo
interpret
venti@@
fauna
federation
aut@@
1984
Test@@
vern@@
jury
public-@@
rooted
weaker
smoothly
left-@@
Harbour
nets
console
Alber@@
liter@@
disability
aneous
gered
atmosp@@
Directors
1.2
circles
frustr@@
Ultim@@
ode
exert
lical
kin
Tex@@
sentences
Supreme
Upper
seam@@
pas
junior
ер@@
Wales
suicide
sacrifice
cens@@
synthetic
Patri@@
ph
Sax@@
Cala
disparities
lawful
engineer
straightforward
depar@@
tournaments
Meg@@
на@@
travelers
Clinton
twen@@
test@@
duced
locals
FOR@@
Jacuzzi
embry@@
alert
comprising
attered
ush@@
lling
kingdom
zb@@
Bat@@
Intelli@@
sky@@
exagger@@
norms
odes
plug
Tam@@
monopolies
found@@
concluding
Agri@@
frag@@
Already
cosmetic
RS@@
,00
call@@
essors
undermining
letting
chy
operative
Whenever
pts
Prix
brochure
esh@@
tastefully
packing
cafes
unequi@@
termination
condemnation
dow
resume
intermedi@@
MS@@
zum
winds
manipulation
Individu@@
adhes@@
finger@@
conductor
Parking
hell
GBP
esa
à@@
rome
aga
commodities
Kam@@
Gold@@
Apache
livel@@
-free
worn
hang
bel
seasons
Particip@@
aint
bets
RES@@
kitchenette
indicator
predecessor
four@@
Stor@@
geopoli@@
Naz@@
entru@@
rad
methodology
abortion
Sky
35@@
COM@@
Cubase
sectoral
certain@@
interrupted
embark@@
supplying
creatures
drama
ceas@@
edges
Cape
tif
usable
stain
explanatory
nominated
exer@@
bunal
retreat
enko
zen@@
Customs
Orchestra
claiming
anonymous
servants
isc@@
cham@@
invented
archaeological
ceilings
parish
S.A.
sor
AKVIS
appoint
Red@@
jeopardi@@
uphold
rage
ften
Limited
out-@@
pled
empire
excav@@
erospace
eg
Eu@@
Lanzarote
Palacio
isen
approxim@@
investigated
aved
amaz@@
scores
eira
outs@@
atus
rev@@
astronom@@
triple
Sound@@
Classi@@
cocktails
appealing
swif@@
learnt
facto
plastics
ete@@
deprived
coin
castles
Australian
Archit@@
Sign@@
emails
azz@@
inability
flags
famili@@
lengthy
Andr@@
multilingual
berger
Stay
rics
Premium
dare
ump
refl@@
Cuban
determines
berry
Night
3.0
restra@@
weaken
supposedly
refuge
caution
Soci@@
och@@
suspend
tends
HR
ATA
Victoria
seal
secur@@
exemplary
semi@@
expect@@
singing
therto
Fron@@
grows
idity
Canc@@
nach
interfere
somebody
None
murdered
authoritarian
umping
det
Angeles
HS
enk@@
IF
reiter@@
comitology
destructive
six-@@
Jackson
coupled
literary
Audi@@
dependency
consultancy
climb
salaries
Companies
patented
Fig@@
attributes
pupils
ussy
Kin@@
Sti@@
appropri@@
shire
p.@@
ami@@
oner
8th
Basic
Son@@
bomb
remembered
slope
Ron@@
GO
traveling
requesting
reason@@
agen@@
math
continents
inven@@
ria
AV
Musi@@
cross-country
Tuscan
adop@@
shad@@
powder
Yugosla@@
1978
desires
accelerate
discovering
scape
shoe
threatens
poration
foreh@@
inventory
cow
beverages
photo@@
third-party
Consulting
manship
1967
vocation
gates
Wo@@
Christi@@
V-@@
snack
investor
mentioning
Galici@@
eux
reproductive
ementioned
gram@@
bia
fiction
Liberties
brothers
gul@@
strengths
Keep
bow
Jun@@
switching
antes
tled
0,@@
Collection
RAM
balconies
undermined
assuming
cription
eholder
fantas@@
strateg@@
marvell@@
Compar@@
Mexican
surance
Machine
Audio
codi@@
xenophobia
Import@@
writes
favoured
merits
offensive
Lev@@
graduate
towers
counters
-L@@
bree@@
PER@@
Kol@@
shipped
fines
overl@@
own-initiative
differing
Tw@@
obligatory
tural
Luc@@
templates
ratings
administrations
ing-up
porno@@
qualify
domains
hub
Sat@@
VER@@
como
Photo
bition
offences
EURO@@
owe
pubs
rain@@
esse
year-@@
CP@@
Customers
was@@
pixels
protocols
Appro@@
lon
Avenue
qualitative
macro-@@
depression
450
weekends
massages
ridicul@@
day-to-@@
encrypted
exter@@
L.
Km
tless
prosperous
Stock
pilgri@@
copied
wich
Philipp@@
present@@
Andreas
letes
offer@@
2007-2013
Magic
virtue
happiness
transferring
Rus@@
clou@@
Baroness
chil@@
Broad@@
asi
loss@@
.ch
ball@@
aca
hand-@@
attributed
concei@@
Green@@
enjoyment
inners
11th
BE
ural
ox
Gol@@
ter-@@
oppon@@
afor@@
warmth
nos
José
combinations
Doctor
Slovenian
zon
millenni@@
Cav@@
ammer
moratorium
prostitution
M-@@
Found@@
ino@@
dev
Mid@@
market-@@
mir
Bad@@
high-tech
000@@
Remo@@
sie
confer@@
Krem@@
lown
county
1960
ICE
realm
istry
Gau@@
easy-to-@@
attle
restruc@@
resist@@
innov@@
kne@@
dell
Lido
abu@@
Countries
readily
dancing
mili@@
Anna
kat@@
DNA
Send
FAQ
substan@@
champion
Others
Oslo
bour
Neg@@
aan
expressions
basi@@
70@@
highlighting
36@@
conv@@
politan
Mot@@
Kel@@
warned
otic
pipe
ysi@@
Check-In
Basque
ront
Property
liqui@@
pt@@
pository
emer@@
nat@@
preview
ida
ś@@
Steel
dum
pit
illumin@@
Alpha
vot@@
relatives
risen
Tom
institutes
5.00
prac@@
1975
149
akan
rs
outlook
expor@@
Inst@@
arch
Temple
`s
odds
monit@@
Bavarian
IK@@
Peru
hill@@
TE
JP@@
Store
ien@@
sail
oa
techn@@
shoot
Rav@@
Awards
Tab@@
tus
lamps
subway
loose
asp
Hear@@
statis@@
adily
Typ@@
Province
deposi@@
vors
SMS
stres@@
bels
Vul@@
itz
end-@@
crowd
Emperor
neck
handy
Beyond
appoint@@
dict
antibio@@
wi
logos
Whit@@
5,000
coat
Tyro@@
esthouse
vention
auer
ancing
ollah
bass
cam
MAR@@
schi@@
auto
neighborhood
manufac@@
ancest@@
etal
Chicago
café
line-@@
Ris@@
thou@@
philosophi@@
challeng@@
unities
Henry
Cou@@
Granada
vivi@@
senses
mentation
ilers
Ji@@
wel
Course
cookie
patio
redundant
steri@@
vei@@
Leonardo
ad-@@
Cardassi@@
smell
dez
professor
Resour@@
Buenos
sat
geni@@
sunshine
guys
Tool
Karl
Premier
Remember
brush
fici@@
Major
veto
ieve
ost@@
esis
Christ@@
Chair
ear
belief@@
Aires
twi@@
bron@@
chat@@
Tan@@
Ga@@
alp@@
éri@@
Manhattan
alqu@@
lea@@
Treas@@
Frank@@
NGL
ett
UT
dut@@
rail@@
interviews
architec@@
liation
Conci@@
Int@@
laun@@
terminals
Monitoring
oma
betting
Eng@@
Marbella
ority
hard-@@
VO@@
elson
Sciences
Ideal
neighbor@@
isol@@
Itali@@
Mill@@
hybrid
femin@@
feld
G20
akis
INTER@@
IVE
font
Vall@@
bil@@
owns
toll
Channel
SSL
Check-Out
1982
ssa
casts
Kenya
entary
excur@@
venues
Managing
indu@@
liances
commerci@@
fut@@
Produc@@
3000
manipul@@
Eurostat
LateRooms.com
ो@@
multination@@
strength@@
teen@@
ex-@@
translat@@
REACH
zione
ön@@
ller
usses
beginn@@
Pil@@
Juan
MD@@
tico
utely
persec@@
ça
mask
FL@@
Create
य@@
ï@@
Valu@@
conserv@@
sty
rays
Wine
jung@@
wher@@
TA@@
epis@@
Verts
tis@@
ink@@
legend
Beautiful
aciones
bourhood
mies
cht@@
6-0@@
phas@@
immune
egg
ovo
Frank
s.com
Reader
Invest@@
han
ambigu@@
ateur
etz@@
parall@@
legs
Van@@
Beauty
Sky@@
amente
sues
Kinnock
ke-@@
cluster
judg@@
thei@@
C5-0@@
arro@@
leng@@
mic@@
Excel
DIN
muy
marg@@
lity
distingu@@
nest@@
enger
Fire@@
Barack
jeop@@
planes
iel
Chapter
Mugabe
6,@@
demonstr@@
constra@@
Refer@@
has@@
Roc@@
cel
PRO
sel
omas
levard
à-@@
sos
Commer@@
quiet@@
Print
TER@@
marina
thly
ican
PX@@
Radi@@
PCs
alg@@
athon
1968
DH@@
US-@@
Journal
stup@@
reck@@
stan@@
writ@@
ku
usern@@
Nuclear
wav@@
cosme@@
fixes
Pub@@
dial@@
EX
ebook
SD
Siena
unilater@@
senti@@
Ambass@@
boy@@
Pau@@
Napol@@
Kim
ild
ο@@
ant-@@
VI@@
andal@@
Overall
B.
io@@
WiFi
chap@@
Oli@@
elect
rt
Guinea
Apart@@
detri@@
1976
lingu@@
ore@@
Writ@@
eas
Activ@@
cone
Zer@@
ired
abor@@
forest@@
Pad@@
mysteri@@
Well@@
Rog@@
DL@@
ल@@
alyst@@
miner@@
Bei@@
Cash
kn@@
galax@@
iti
tige
Sher@@
fa
php
rel
TAC@@
Dim@@
governmental
tained
milli@@
expan@@
Every@@
Exclu@@
utive
ben
Pierre
arbitr@@
lt
para@@
baro@@
1.
zard
Extre@@
internation@@
enst@@
kking
USE
grav@@
Lul@@
enni@@
68@@
suggest@@
taire
supran@@
stered
YO@@
Head@@
Norweg@@
impul@@
Chr@@
pp
Eurex
Hav@@
circu@@
Emer@@
scanner
electron@@
decisi@@
dup@@
draw@@
æ@@
stuck
Canal
Tor
inqu@@
Bosni@@
eag@@
90@@
wid@@
12-@@
Metro@@
Ps
station@@
deal@@
tration
Wür@@
fen
lock@@
print@@
Gardens
cleaned
ILO
ograph@@
Algarve
Us
accomodation
neo@@
Fire
debi@@
belong@@
logan
ende
CC@@
Panel
informative
Active
charts
SU@@
fig@@
ener
CIA
Abu
oxy@@
व@@
oon
answer@@
smopoli@@
Sus@@
Milit@@
Early
iles
nau@@
quo
Som@@
eline
stro
Expl@@
rus
Aur@@
zzle
tob@@
World@@
Sard@@
cad@@
Afri@@
dium
impor@@
pick@@
Outlook
prepar@@
lady
assist@@
attack@@
T.
tox@@
tum@@
Points
staff@@
Maritime
alcoho@@
ito
Fat@@
Edi@@
ë@@
wie
UPS
enz
Aid
understand@@
dose
Benjamin
RI@@
consequ@@
coa
care@@
esque
situ@@
agr@@
Bali
Hotel@@
dead@@
pin@@
Dal@@
CT@@
Partners
wall@@
Lodge
ę@@
MAN@@
mysq@@
hoc
Ü@@
ment-@@
är@@
ORE
atom
confir@@
Adam
Pass
ovi@@
Hz
Frontex
vy
Associ@@
inion
dden
I.@@
posite
Buil@@
WIT@@
más
Hollywood
Vision
Date
spont@@
san
Repres@@
metal@@
Tol@@
tick
ject
veri@@
elf
G8
dum@@
1950
Mes@@
DJ
Cairo
Oxford
Goth@@
Fine
forge
att
bad@@
0.5
amin
Sw@@
nik
Rub@@
Seven
glo@@
feeds
County
jacuzzi
ль@@
Oil
energe@@
lac@@
FF@@
sau@@
anton
Son
iz
Prec@@
bury
Terminal
Disk
Editor
easi@@
rav@@
mond
simultane@@
aki
FS
is-@@
Cru@@
symboli@@
acious
18-@@
Cont@@
Superior
precau@@
WW@@
emet@@
Lic@@
Merkel
bir@@
196
Sty@@
model@@
Ten
cryp@@
gher
unci@@
explosion
Fis@@
isons
Making
trol@@
Medic@@
Ten@@
Techn@@
Wolfgang
obli@@
reser@@
fitt@@
aler
Perfect
ange
sili@@
Clean
Fun@@
TU@@
TNG
Key
Men
NG@@
Sant@@
obsol@@
rts
DG
mos@@
Officer
в
Berg@@
Focus
Soft
Bag@@
pressive
ston
Reh@@
Solar
Too
fashi@@
etti
Ash@@
omo
Communities
conflic@@
Karel
Camp
Stand@@
Paragraph
Turk@@
Quad@@
hero@@
surpris@@
1981
Petersburg
Independent
bag@@
odation
Cris@@
Formul@@
BE@@
UM
cust@@
apar@@
Viol@@
RT@@
fabri@@
hine
Born
Café
Cube
municip@@
lag
ynn
develop@@
High-@@
1973
shirt
Rev@@
IA@@
Text
ş@@

family-@@
Moh@@
Princ@@
Belar@@
Delta
HOTEL
nobyl
ameworks
kni@@
som
rez
balls
Cent@@
broch@@
wird
Palazzo
idi@@
Gender
comprehen@@
bres
Was
Junior
gramm@@
Verona
lis
inal
ASEAN
ña
CAN@@
Deutschland
Frattini
Edit
Estate
bute
jer@@
gene
jack
bicy@@
aes@@
bration
Yu@@
Goo@@
ementary
rum
yar@@
chestra
dent@@
estro
pow@@
abel
pers@@
nicely
te-@@
Platform
Lot@@
FTP
Texas
dus
Bremen
span
aph@@
satelli@@
ection@@
mare
istics
1.1
ardo
prin@@
Patent
weg
Continental
wen@@
CH
wick@@
nose
obs@@
Money
m.
tops
Name
Rimini
Better
aba
stadium
Asi@@
2014
undes@@
campaign@@
tage@@
committ@@
gin
leg
Creative
Visual
Lau@@
vie
preci@@
barbar@@
Mei@@
Marine
Sahara
fic
Visa
Wir@@
1983
2.2
Electronic
guy
hausen
org
Bla@@
OL
h-@@
But@@
rob@@
Imperial
Castell@@
Entertainment
SIS
TEN@@
outh
yle
gun
Der@@
ò
anti
tages
Bangkok
1974
dak
Lady
Nep@@
Zone
dine
Teneri@@
Chan@@
Franz
convers@@
izz@@
Virtual
über
d.@@
Ltd.
edes
dun@@
Watson
ym
Florida
esco
BAS@@
Bluetooth
wir
lez
consoli@@
ition
prov@@
ej@@
Py@@
ATE
later@@
SV@@
privati@@
Baro@@
lio
MT@@
NOR@@
gy
balances
peripher@@
spectac@@
Stre@@
tices
emis@@
Port@@
Poly@@
Wiki@@
hotel@@
ECO@@
gible
Berlusconi
â
ather
Facebook
ignor@@
Six
Ster@@
Gil@@
Schl@@
Ara@@
anten@@
Crus@@
Camping
Color
pir@@
Event
zip
Newsletter
170
pole
geo@@
loses
inson
PA@@
Chap@@
1977
ew@@
13.@@
lv@@
tow@@
Berlin@@
Che@@
cock
protection@@
itations
abri@@
rout@@
Essen
ACE
Mozilla
hall@@
child@@
card@@
Kab@@
ionship
Publish@@
gli
Converter
Freed@@
oted
aments
Register
institution@@
SM
drum
Nar@@
bedded
Tob@@
wan
advan@@
solven@@
Translation
Exp@@
Oracle
zh@@
Performance
Players
Spi@@
Split
No.
CI@@
lav@@
usa
Fab@@
ingo
Base
aber
LateRooms
ij@@
ghtful
gering
gru@@
220
Legisl@@
contex@@
Michel@@
Klaus
Link
Arc@@
gress
umps
After@@
DN@@
wald
Dubai
Sofia
Spy@@
eless@@
cha@@
DO
wed@@
Malaga
ladimir
c-@@
Fam@@
ń@@
х
Rh@@
rass@@
pub@@
É@@
Cannes
lation
ASA
ε@@
og
ECHO
contradi@@
Cross@@
ilation
ache
Laeken
D.@@
125
alit@@
vision@@
Aviation
Mozart
anks
azione
plant@@
arran@@
e-
eron
dition
Dev@@
Plas@@
install@@
olen
will@@
eed
futur@@
hion
pal
cz
analog
Innsbruck
ept@@
overwhel@@
genes
dice
straße
box@@
asion
appreci@@
SPA
ographi@@
DVDs
....@@
pover@@
Economy
Boli@@
I.
H-@@
uss
Living
age-@@
MIN@@
polite
pist@@
Harry
Erika
imagin@@
furnis@@
icip@@
Rain@@
chann@@
hormon@@
Albert
Brenn@@
doc@@
ves@@
nel
Canaria
Manufac@@
kal@@
atar
Aus@@
00-@@
IK
Manchester
Fort@@
hung@@
Johannesburg
ml
DS9
і@@
enorm@@
figur@@
Carlos
ologi@@
1500
Mod@@
Made
Ethernet
flexi@@
LT@@
Rand@@
depri@@
Reser@@
John@@
ów
ат@@
Mou@@
insula
Ben
gues
Swe@@
tast@@
Scho@@
unbe@@
e.
tags
Lun@@
oter
Maison
CPU
competi@@
Imag@@
Origin@@
Share
EGF
DF
anting
E.
Ce@@
pt
RS
bitter
garten
generator
Speed
Pf@@
Romul@@
ila
Vin@@
Sit@@
Lama
oi
abili@@
til
Baj@@
Ski@@
adidas
Events
Knowledge
Key@@
quer@@
Files
fried
iga
accu@@
VE
Thir@@
icy@@
myst@@
Sydney
gee
enlar@@
Barnier
Nich@@
ast-@@
foreign@@
green@@
Books
Grande
DM@@
nes
Mayor
sert
throu@@
Mic@@
Bran@@
SCH@@
juris@@
Bolkestein
IE
Zu@@
ommission@@
Pension
contr@@
sortium
lan
eng
uba
ι@@
gely
provo@@
appear@@
Arm@@
Cot@@
1930
dio
Lay@@
Woo@@
bizarre
aro
Optim@@
Ker@@
Deluxe
awa@@
itar@@
inu@@
ghs
eins
2.1
SK@@
Borg
Trading
ISA
aser
U.@@
exe
Comfort
Lanka
Terr@@
Way
Unit
Tony
Volkswagen
OG@@
Fres@@
Sem@@
Silver
Inc.
MIDI
Leb@@
Know@@
Feli@@
Kri@@
Frei@@
Bec@@
Physi@@
Od@@
cript
Ner@@
Original
Cadiz
ister
Happ@@
intellec@@
Hospital

L-@@
erry
bun@@
Conver@@
Form@@
index@@
Commander
noch
WAR@@
ardis@@
tom
FP@@
PVC
lem
ART
FO@@
amor@@
Model
Map
Alex@@
Secure
Hôtel
Total
1969
phy
Rol@@
ju
ING@@
sour@@
gm@@
ptions
ram@@
asso
7,@@
С
Jam@@
Walter
OM
Mos@@
Clin@@
Bug@@
Tool@@
Swoboda
shoul@@
differ@@
Airways
Fix@@
Shopping
ambiance
izer
ead
kits
vas
AST@@
ultur@@
damp@@
Friends
search@@
Virgin
ssen
eder@@
ar-@@
Ann@@
Pakist@@
abetes
Pho@@
edia
Vegas
Eurocopter
BIL@@
Pom@@
rab@@
jar@@
Wind@@
otive
traff@@
1.3
tit@@
erie
Hop@@
.....
Gibraltar
lian
pez
Banglad@@
ketball
Hans@@
gir@@
Everest
unas
14.@@
unge@@
week@@
es.@@
Messenger
Blog
e.com
repressive
tention
fest@@
hr
oot
G.
PN@@
hir
Desktop
occa@@
yen
cant@@
Reserv@@
erte
TEC@@
Theater
Steinberg
IRC
militar@@
Moroc@@
eway
Brown
heimer
tern
junc@@
democrati@@
Montreal
organ@@
graph@@
Train
Vice
Flor@@
congrat@@
der-@@
Impro@@
Mercosur
oli
Identi@@
burger
enne
myth@@
necessi@@
PR
Stephen
iri@@
NT
mp
bei@@
lux@@
Links
mware
idents
liance
Heb@@
Ré@@
Strateg@@
cha
Pul@@
Porsche
Electron@@
Blizzard
BSD
XX@@
experim@@
Nat@@
Willi@@
vente
Commons
22@@
illed
PT@@
Magazine
rad@@
Ramblas
ре@@
sev@@
rag@@
aller@@
Cards
Fon@@
istan
pon@@
Mann
Fitness
Hay@@
Transfer
g.
dor
uno
opoli@@
tram@@
Smart
horn
geb@@
issu@@
Lee
Rab@@
Me
eno
Proven@@
Care
pos
cerem@@
onna
ASE
einem
quanti@@
WHO
pots
anta
Chin@@
Cotonou
Jack
boot@@
ench@@
Agre@@
prer@@
recomm@@
ger-@@
oth
POR@@
sanit@@
SOL@@
peri@@
dil@@
pub
Innov@@
jn
Twitter
kli@@
Laur@@
128
tron@@
R.
text@@
BAE
Div@@
Submitted
ooth
Kre@@
Chal@@
Form
enture
beau@@
Stefan
Sli@@
ны@@
Poker@@
transp@@
popul@@
delines
Colom@@
ic-@@
Portal
Photoshop
Rac@@
Nag@@
invent@@
ime
reb@@
lj@@
Punta
RA
chill
Telec@@
Pel@@
uk
reach@@
DC@@
estim@@
inas
brut@@
Crist@@
azi@@
Lab
MM@@
LAN@@
Princip@@
Hilton
Opport@@
bure@@
How@@
anol
0.000
~
wis
Inform@@
aters
docum@@
owski
Memory
Shuttle
durch
142
And@@
orn
Mario
phr@@
signi@@
vod@@
1972
Bud@@
Engine
Chianti
preser@@
Engli@@
Fischer
tras
R-@@
Argent@@
Friedrich@@
BB@@
ż@@
Poettering
memor@@
dischar@@
CR
anto
stra
ret
Bologna
Coff@@
Messe
racle
Integration
Monaco
P.
ц@@
ignano
atile
bited
Harv@@
Atlan@@
introduc@@
volunt@@
2.4
Communications
Universi@@
Sau@@
Dynam@@
pedition
thur
F.
enny
extremis@@
abul@@
Roll@@
essen
etary
ismo
r.@@
1.4
NO
esk@@
determin@@
onym@@
epi@@
choo@@
olls
eder
1950@@
NA
Gott
LabVIEW
Laman@@
gency
aine
Azur
lov
assis
Hot
fairer
ms@@
ance-@@
ae@@
Quick@@

oun@@
unden@@
birth@@
remain@@
transfer@@
Natura
finan@@
iev
linder
Zürich
ا@@
Castro
Hur@@
Low
plen@@
Nepal
kel@@
Vari@@
astro@@
Gaz@@
artet
versal
butions
TW@@
Kan@@
cco
TP
ez@@
HTTP
Walking
Seattle
timet@@
asymm@@
H.
isti@@
CD-ROM
enna
Wag@@
Long@@
Crow@@
problem@@
safegu@@
Equipment
stur@@
Fro@@
Bonus
moun@@
helpf@@
Lud@@
Elec@@
UP
ver-@@
arres@@
Aar@@
endums
Max@@
ш@@
SEO
SilverFast
Eth@@
Pent@@
cling
750
gel
sed@@
Rica
lak@@
Master@@
vign@@
lich
nur
air-@@
Pots@@
Proph@@
Istri@@
yan
l.
Bath
orities
alien
Somalia
tude
Cons@@
feasi@@
wag@@
offline
U-@@
monum@@
quer
ás
pf@@
NT@@
Miles
A5-00@@
ato@@
Hein@@
aires
Côte
betra@@
Peru@@
VII
Tag@@
smit@@
sab@@
isse
entes
Heidelberg
Rose
Guatemala
sag@@
Hab@@
Friedrich
fing
16.@@
WE
ONE
noti@@
throp@@
Industri@@
German@@
evision
Connec@@
Fair@@
hem@@
oul
Posselt
Dest@@
Stop
bien
Records
Dalmati@@
Hat
adequ@@
occurr@@
Mail@@
10.00
Recovery
oba
pers
Stan@@
Seg@@
fortunately
4-0@@
E.@@
ira
Domin@@
Cost@@
uta
e.V.
requ@@
aust
assu@@
ilit@@
Motion
egr@@
chise
Chris
Jak@@
gens
Sharon
sto
Alm@@
Beau@@
HER@@
endant
Ast@@
ne-@@
Standards
hosp@@
Vac@@
Mechan@@
ardi@@
ity@@
Jazz
formul@@
Gas@@
entu@@
Moz@@
pse
qualit@@
Real@@
Mission
zel@@
Ds
Giovanni
.NET
izza
Zak@@
Pati@@
Bern
chs
haben
Medina
CV@@
Kle@@
dras@@
thre@@
Wall@@
Package
YouTube
billi@@
Rail
Marx
1971
Provider
junction
Vig@@
ness@@
K.
adar
K-@@
Peri@@
Iber@@
excell@@
amer
üh@@
Gast@@
Hannover
Tours
opport@@
subsidi@@
LL@@
Ecu@@
salon
gressive
Holding
Oliver
на
eler@@
RF@@
symp@@
Phil@@
uan
Them@@
ott
15.@@
Consult@@
Bak@@
Tai@@
Müller
Satur@@
32@@
delle
o.
region@@
punc@@
fascin@@
Posi@@
CAN
Brand
Palm
extern@@
Indones@@
eme
GP@@
Budd@@
pod@@
Run@@
thumb
ece
Lithu@@
Eas@@
Kas@@
Photo@@
Establish@@
brief@@
Hung@@
ester@@
ITE
Gonz@@
commer@@
lla
Lig@@
dass
Cruz
45@@
oos
onymous
logs
bru@@
Ped@@
MI@@
transform@@
nica
Columbia
conveni@@
mente
transplan@@
Nord@@
Ander@@
Ath@@
bac@@
Cardiff
Ev@@
mia
Auto
TM
inter
tera
oro
Ligh@@
City@@
Iz@@
eligi@@
Reb@@
Hil@@
Alt@@
Sof@@
entino
ui
Eiffel
Astrium
vom
rey
vul@@
mos
Implement@@
certi@@
Sm@@
38@@
tempor@@
amendo
taxpay@@
unfor@@
8,@@
Piet@@
am-@@
agua
zio
ит@@
Ec@@
Tak@@
Unix
utting
aut
Traff@@
mont
Mé@@
Catalunya
Mercure
Sei@@
Pyren@@
reserv@@
cu
Guantánamo
partment
Mini
``@@
proxim@@
stron@@
corpor@@
psycho@@
scher
Operation
Sep@@
Zap@@
soft@@
AVI
Route
vine@@
cion@@
paradox@@
rak@@
it-@@
fem@@
Soli@@
2000-@@
Dro@@
ote
measur@@
Chur@@
Day@@
lear@@
aur@@
Programm@@
RE
Corn@@
Minist@@
embership
C.@@
amento
ALL@@
Infineon
acon
teach@@
FS@@
alto
uxe
icken
aman@@
side@@
Lufthansa
у
ype
acht@@
Ple@@
DE@@
ý@@
CMS
ofs
umph
pla@@
erk@@
Pay
jet@@
chio
FT
ы
apart@@
Dé@@
han@@
gle
tick@@
Krak@@
KO@@
ström
propag@@
Park@@
aw
Vati@@
zza
Core
que@@
gem
dec
Ferrari
TRA@@
Rotterdam
5000
Terror@@
Veri@@
PK@@
aco
Sisko
Lyon
2050
trau@@
Lav@@
cons
Mün@@
ā@@
WE@@
YORK
Ala@@
awa
neum@@
ergonom@@
Caf@@
Jet
QuarkXPress
Spock
Transpar@@
decision-@@
candi@@
Thessaloniki
seu@@
ICA
pus@@
pret@@
Angola
Á@@
ppe
A1
Ep@@
1.0
PG
ă@@
Mode
Band
ी@@
countr@@
deci@@
cts
lexi@@
tra-@@
vin
Past@@
iter
Scre@@
Orange
poin@@
emphas@@
ses@@
intelli@@
Week@@
Pisa
Pear@@
zn@@
distinc@@
Chirac
Les@@
eover
Provence
ThyssenKrupp
leyball
ow-@@
warm@@
SI
world@@
aver
Manuel
Are@@
Arn@@
pdf
iry
check-@@
riv@@
3.2
Am
16-@@
PayPal
Tennis
ML
Jav@@
sci@@
hardt
Leon@@
rist@@
Geor@@
Ball@@
enzo
POS@@
50-@@
than@@
hus@@
timent
lung
AA
Generation
HI
Human@@
Administr@@
Jor@@
Ali
Ja@@
ische
up-@@
allen
Sach@@
Arafat
Kenn@@
mits
remark@@
Index
Alz@@
Radisson
uit@@
sage
Doc@@
kilomet@@
Clear@@
FIN@@
Uganda
Tay@@
Rü@@
promin@@
Rober@@
etings
INI
loyd
announ@@
entre
Mr@@
ogra@@
प@@
lander
ango
vulner@@
enberg
niture
hne
echno@@
civi@@
Famili@@
access@@
Race
ymn@@
Metal
amos
ор@@
COD
real-@@
Fle@@
Stalin
onom@@
opath@@
Vict@@
Reception
tima
pedia
kann
Fru@@
Franç@@
canc@@
bare
earning
param@@
Erasmus
ides
hetero@@
Mare
Details
101
reve@@
nic
api@@
01.@@
Tunes
FF
ille
Raf@@
ych
11-@@
Ach@@
Liechtenstein
ù
MB@@
IND
gery
mers
stitutes
Fa@@
uner@@
én
Gy@@
Hit@@
ğ@@
Expo
nesty
ten-@@
ozone
aller
compos@@
reci@@
SIM@@
accom@@
ults
entative
Alexand@@
mei@@
Keyn@@
renew@@
anci@@
Satelli@@
ember@@
anya
Barro@@
cc
.000
vies
Myanmar
UK@@
Cambridge
Work@@
Champion
Conil
benefici@@
vri@@
Glas@@
Simon
Eis@@
Ny@@
Symph@@
Graphi@@
क
150@@
eel
Release
17.@@
PE@@
erb@@
Archi@@
enix
amm
ERS
Davi@@
bat
Farm
Esc@@
fav@@
rea
ò@@
small@@
rescu@@
Prestige
Leh@@
Bit@@
ima
Cancún
EOS
Dalai
Langu@@
did@@
Engine@@
об@@
Script
o.@@
feed@@
massi@@
eiro
wick
Instrument
psy@@
Ring
très
Clau@@
CRM
fortunate
Corbett
rett@@
Civi@@
quad@@
Graz
HT
IST@@
Torre
SERV@@
resum@@
edt
Dell
Disney
COR@@
Italia
Quali@@
tas
HE@@
Mini@@
bekistan
orrow
Schi@@
Algeri@@
oh
thos
brand@@
Polo
Secur@@
Zimmer
105
Zagreb
thodo@@
mais
CSS
unnels
lick
Simil@@
telec@@
persist@@
Annan
vio
tras@@
Ray
behavi@@
fred
1957
IMO
pag@@
14-@@
19.@@
Sey@@
Bristol
tet
xis
ли@@
115
contin@@
Martini
oblig@@
Governance
1956
hier
Team@@
accord@@
deck@@
Turin
sit@@
senal
Fall@@
kW
bah@@
Sym@@
9,@@
DEN@@
applic@@
raid
Let@@
preme
roman@@
Flexi@@
VA
226@@
σ@@
HA@@
Copy@@
EFA
Alicante
ons@@
zab@@
Trin@@
Norm@@
Planet
FIFA
Mec@@
ð@@
enland
Shin@@
Stadium
IDE
Dubrovnik
WordPress
LIN
Ankara
Eurojust
adel@@
Johann
Stein@@
idance
gst
parad@@
Gom@@
Tut@@
ator@@
nen
aboli@@
unning
Banking
öl@@
php@@
Niel@@
Secret@@
alien@@
parag@@
001
Kenne@@
Email
Studios
Module
Elba
Terme
ectives
derly
CNS
ember
го
Amon@@
Os
recre@@
Jen@@
Toul@@
CD-@@
dig
breath@@
Ent@@
alphab@@
Platz
GAT@@
1965
Jung@@
Reding
Ell@@
ld
1900
Inf@@
Eden
Schu@@
inian
ld@@
erh@@
³
Wallström
Hai@@
philos@@
Wolf
Archer
Art@@
NH
ermo
1948
Carol@@
Kra@@
kland
Info
acion
ел@@
dis
fis@@
DB
Jarzembowski
3.1
sched@@
1966
cho
sche
Motor
Info@@
agn@@
liqu@@
kun@@
Word@@
Jesolo
Photos
ambots
Acrobat
voir
anz@@
Scott
Colum@@
Linz
M.@@
pause
Bron@@
stimul@@
ingrad
sender
ART@@
Bis@@
zona
bass@@
Eurob@@
IO
scrut@@
pré@@
LI@@
Down@@
ño
Tickets
Milano
Poll@@
103
Nig@@
Sci@@
lib@@
jun@@
Jones
Style
ą@@
MAN
ет@@
endt
premis@@
Dup@@
fur
ungalows
scar
mmer
liner
Scri@@
irable
dau@@
do-@@
Tanz@@
Di
Andrew
ciano
Challenge
veau
Liter@@
Carlo
Yor@@
int-@@
ARC
atur@@
unication
Fox
eras
tner
Schw@@
Ernst
от@@
anche
240
king@@
ats@@
atin
Racing
qu
rlpool
Frequ@@
Liikanen
Christop@@
Winter@@
asis
Sport@@
São
Carl
GIMP
Britt@@
ficial
plu@@
Protest@@
shine
Sn@@
efore
XL@@
authorit@@
anni@@
grades
EK@@
GNOME
sont
sligh@@
BBC
offen@@
Nam@@
Salvador
ub
800@@
Vietnam@@
Holi@@
tik@@
Shops
2008-@@
far-@@
apest
20.@@
flu
Bahrain
pertoire
Fren@@
Tin@@
SR@@
entran@@
ooks
48@@
Lyn@@
ishment
garde
Mike
π@@
stir@@
genous
ule
hof@@
acher
Brow@@
eBay
asur
Stream
stop@@
ité
Wh@@
650
complex@@
1962
Wilhelm
adise
Yahoo
poten@@
Hou@@
as-@@
health@@
occ@@
Patrick
Boston
Hall@@
Agent
E.ON
teleph@@
24.@@
Bear@@
chester
electri@@
1939
dson
Yo@@
Stars
a.com
Valle
Mars
peror
Labor@@
ao@@
voor
ascript
agri@@
Dau@@
Bah@@
Gates
skep@@
DSL@@
TCP
können
ongside
quests
Carmen
Fou@@
Metho@@
Zar@@
Marc
Cookies
Gaulle
Brit@@
Donald
volta@@
Interface
Ces@@
alen
GOL@@
wurde
ни@@
ज@@
rand@@
tudes
egal
Evans
essimis@@
rigi@@
thres@@
Kath@@
ogo
pharmac@@
Mitch@@
Twin
ção
fot@@
α
Nami@@
beck
Peti@@
coo@@
urities
cil
Images
nie
Territ@@
Cohn-Bendit
mati@@
Dic@@
Host@@
Smi@@
Greg@@
amentos
Swiss@@
Cash@@
NA@@
ingham
asa
18.@@
Jas@@
х@@
Lamy
jen@@
O.@@
fu
DB@@
integ@@
Residen@@
Bike
dispos@@
lood
Emm@@
cook@@
Spor@@
Fast
1200
Málaga
isch
ESA
exhibit@@
1961
Pun@@
Utili@@
rank@@
μ@@
MHz
app
tels
9.00
Rhein@@
sexy
Palais
Châ@@
atico
specific@@
Berg
ould
ativity
Alan
Tun@@
conn@@
Lon@@
Safe
CAM@@
ASS@@
mg
ρ@@
landscap@@
ICEcat
Phone
Fli@@
Megapi@@
fall@@
Marie
liers
LIFE
auth@@
MR@@
atin@@
Gur@@
WM@@
achel@@
Pad
Zend
Snow@@
thal@@
Gord@@
reas@@
tat
34@@
rom
chens
Elem@@
mina
BG
Leop@@
scap@@
plann@@
Claude
PP
Glob@@
DER
sko
Fan@@
2.
PO
Vitorino
rigor@@
Leone
nou@@
Hamp@@
Aer@@
1963
Hin@@
24-@@
alles
DES@@
Centro
visory
lack@@
altar
Milli@@
Wild@@
Rock@@
Campo
Adam@@
Rosa
120@@
iser
ru
quick@@
forec@@
athan
Techni@@
Vinc@@
potenti@@
Aven@@
kat
Pep@@
deaux
Jur@@
1920
palette
ACK@@
tio
Eric
Andor@@
Ken@@
ido
edes@@
INE
Carri@@
12.00
kor@@
replac@@
demon@@
Tunisi@@
Blin@@
Holoc@@
seas@@
STO@@
135
flan@@
Markus
August@@
Heathrow
encia
ل@@
ени@@
Wild
NE
1964
amen@@
Com
mption
Novotel
SOFT@@
ब@@
25-@@
175
alis
ole@@
tsch@@
Bai@@
Affiliate
ка@@
ं@@
aspir@@
Garc@@
lu
A4
chrom@@
Romagna
rot
1930@@
Pod@@
Haus
Sag@@
gano
64@@
ю@@
Margar@@
prerequ@@
Ans@@
dictator@@
eter@@
Urugu@@
Sv@@
thetic
lug@@
Å@@
Tou@@
Moder@@
orio
rue
Anth@@
600@@
grande
Hyde
Fort
anza
flation
Harmon@@
expendi@@
Cart@@
engine@@
otto
listen@@
raf
sti
1944
P.@@
emann
й@@
cohes@@
Senior
derer
Kn@@
Kom@@
stav@@
Jack@@
Ech@@
resul@@
polit@@
jan@@
Steve
terr@@
190
Eric@@
21.@@
ber-@@
Yam@@
vá@@
ISS
Eri@@
Rat@@
Jes@@
abs@@
2-3
Fut@@
Sla@@
Birmingham
sec
mt
Fujifilm
108
exo@@
predec@@
Pé@@
pictur@@
Pocket
Jim@@
herein
Malm@@
Gabri@@
Miguel
aissance
Stock@@
Brava
ww@@
Morgan
ady
boar@@
Materials
Carl@@
ssi
wr@@
Scal@@
FORM@@
Wu@@
NG
Smart@@
enti
Muse@@
Barón
Cox
Elisab@@
5-00@@
Kis@@
1940
NC@@
Transpor@@
Ljub@@
än@@
Gru@@
Crespo
erior
mation
erly
us-@@
great@@
lee
Lehne
defin@@
ZO@@
ometer
dat
Hof@@
Mandriva
द@@
hec@@
1949
revolution@@
incre@@
ision
Geb@@
oo
gang
ken@@
Designer
ENG@@
Aparthotel
method@@
Gem@@
mill@@
Angela
gest
toral
Prob@@
Andrea
ove
Que@@
Fuerteventura
Pis@@
poli
kur@@
esso
LON@@
EST@@
Program@@
Casi@@
McCar@@
137
NAT@@
Kyi
caus@@
EI@@
Gab@@
Kil@@
allo
Automation
pursu@@
List@@
1958
unting
Thal@@
Install@@
Export
asso@@
film@@
Abbas
Dolom@@
од@@
fore
folios
Vinci
anos
mund
aris
WS
ф@@
ु@@
imper@@
ussion
Cum@@
Smoking
té
SG@@
Nicolas
kammer@@
auf@@
otti
Ort@@
porter
tili@@
Lac@@
kom@@
Ai@@
stric@@
Nevada
ien
HR@@
rä@@
č
112
pac@@
Kev@@
multilater@@
ritz
kö@@
Xi@@
Monter@@
Ferrero-Waldner
restaur@@
Imaging
κ@@
Boutique
nez
Co-@@
Schmi@@
eso
Weber
Un
Fontaine
Byr@@
renov@@
grati@@
Buffet
Liby@@
Bibi@@
Feder@@
lished
Böge
transpar@@
Oomen-Ruijten
Wen@@
lor
en.@@
Hat@@
vent@@
alco@@
Louvre
Ost@@
surround@@
ht@@
Lieutenant
allas
Display
München
ELL@@
langes
tiger
Sto@@
uli
Vancou@@
Lap@@
280
ür@@
Mix@@
ecks
nament
MSN
Sebastian
slo@@
phal@@
Ox@@
inder@@
bahn
zur@@
PM@@
Rosen@@
Alba
Koh@@
Roy@@
thous@@
rupted
Gö@@
kus@@
GS
lige
1959
Suu
Clu@@
Lum@@
Josef
adas
gigan@@
gall@@
230
TRO@@
Atom@@
Bangemann
ciples
Kron@@
EW@@
esch@@
Philharmon@@
KUKA
mium
Andro@@
aning
Mannheim
Daim@@
zin@@
Otto
Barri@@
33@@
Isch@@
ν@@
dend
tradi@@
urred
Map@@
orn@@
nois@@
Pedro
Ign@@
Ras@@
1947
downlo@@
UB
-Benz
kop@@
itely
olas
Parc
Dimension
Has@@
Sauna
xen@@
macro@@
Ze@@
alta
Hof
giore
sono
displac@@
Herman
arta
pedestri@@
Paulo
Tot@@
cock@@
Lü@@
onial
digit@@
boa
In-@@
enty
Ran@@
ños
cca
Maxim@@
Chat
BugTraq
avoi@@
usi@@
Capp@@
1933
NET
Erdo@@
Termini
Beta
diox@@
nut@@
aison
Schrö@@
Underground
Sah@@
cken
Resp@@
dit
elimin@@
Barbar@@
Psych@@
ASPs
pler
¿
4000
acces@@
report@@
365
Zoo
fs@@
Bres@@
Rich@@
Depression
Monum@@
satisfac@@
ophobia
Austri@@
vious
lie@@
40-@@
porary
crete
Ž@@
Matthias
Ubun@@
regrett@@
Prof@@
heavi@@
wy@@
Admir@@
Romp@@
sue
fail@@
soldi@@
culp@@
gos
put@@
stitution
enen
atti@@
Sir@@
Var
partement
thouse
unge
fice
Model@@
Kap@@
õ@@
WB
TT@@
gl
Adap@@
Jür@@
E-mail
bourg
Chef
Tau@@
Gross@@
Stal@@
Status
amen
Fili@@
telecomm@@
Intern@@
Quint@@
Si
Pes@@
terranean
GL@@
js
ares
sprin@@
werk
Da
arte
Rate
Lage
EURO
aar
Geo@@
gesellschaft
Massage
S-B@@
stuffs
wide-@@
Bin@@
Cô@@
eb
Karlsruhe
AB
apo@@
pero
reds
meaning@@
colour@@
grab@@
ADI
Ware
Equi@@
otechn@@
..@@
Track
fiel@@
Clients
23.@@
Delegation
Andre@@
enstein
w-@@
Infra@@
Elys@@
greg@@
Font@@
ud
KE@@
ro-@@
Haar@@
ligence
Fried@@
Nan@@
Ima@@
Game@@
terri@@
academ@@
Mut@@
urs@@
Johannes
suffici@@
kt
vic
Werner
Freiburg
cos@@
Dinner
Dach@@
Hir@@
Ele@@
effici@@
Gel@@
Ax@@
Event@@
yal
gt
ystem
GF@@
к
ग@@
Nau@@
Lamp@@
visit@@
NCC-@@
isite
II@@
Multi-@@
Fei@@
bau@@
Stabili@@
Bom@@
success@@
mom@@
Energi@@
IT-@@
ili
Wien
Koso@@
Seri@@
estu@@
Din@@
Georg
avail@@
Nikol@@
wo
a.
figuration
Him@@
pragm@@
anced
Hus@@
λ@@
Souven@@
न
pha
Imm@@
phen@@
Aff@@
probe
uel
ici
Fass@@
fit@@
Schwar@@
tter
waren
KL@@
º
Appar@@
Zo@@
pe-@@
traum@@
avier
ß
tout
ular@@
inclu@@
zon@@
IX@@
ungal@@
tam@@
Dir@@
Sites
depen@@
Steph@@
Spar@@
Lak@@
Hö@@
stak@@
ege
gram
hn
xim@@
ungs@@
IER
ande
Kit
year@@
Stub@@
Bob@@
š
09.@@
Eleg@@
Cau@@
cancell@@
echen
essenti@@
v.
tol@@
t.@@
geh@@
Nit@@
cide
refur@@
KB
щ@@
strai@@
refu@@
AU
Whe@@
Agr@@
mans
astery
Facili@@
enes
Flu@@
glas
Kei@@
titude
pharmaceu@@
Asset
uc@@
Brin@@
Wies@@
BA@@
Promenade
स
manip@@
Gig@@
Phar@@
mehr
Kro@@
Chic@@
thotel
St.@@
ри@@
त
itly
dex
Institut
½
mut
ères
rh@@
Horiz@@
Cul@@
ő@@
Tube
ationale
tish
Absol@@
op-@@
Glo@@
Schre@@
wart
porte@@
ogni@@
Af@@
Nass@@
inity
viously
led@@
nier
Sevilla
ск@@
Kun@@
Rin@@
inc
chin@@
Offic@@
tik
Organis@@
aim@@
ativ@@
Unter@@
Cany@@
remember@@
Iraq@@
gal
ß@@
Miss@@
ark
अ@@
defini@@
schedul@@
ague
restor@@
nous
kol@@
22.@@
Filter
ople
Lange
engers
Sing@@
Cyber@@
Lit@@
Wid@@
Touch
с
coast@@
aths
Fusion
Malware
resour@@
split@@
Diplom@@
obil@@
lus
Vali@@
Nation@@
orthodo@@
iste
Christoph
sist@@
Hoh@@
bau
LAF
ums@@
Ludwig
elen
Autonom@@
icking
oo-@@
mé@@
avi
multi
some@@
opes
vill@@
GA@@
big@@
vents
umn
fen@@
You@@
Puer@@
egel
Fund@@
uten@@
ard-@@
Panorama
Excell@@
duce
Prim@@
Pit@@
brun@@
Burg@@
Ã
asser
otte
lament@@
jed@@
incorrec@@
hen
itar
bitions
versity
elier
ı
ь@@
не@@
urban@@
spark
E-Mail
Titan
grow@@
ffer
tex
Til@@
ème
ń
Heli@@
stark
Wit@@
gross@@
uner
Rail@@
Pavi@@
Restaurants
Mai
Updat@@
king.com
indisp@@
orium
Tag
мо@@
э@@
accept@@
retar@@
Stro@@
interest@@
ers@@
lingual
VIS
Kunst@@
→
onale
mus
Phi@@
Plug@@
Sens@@
Obj@@
öh@@
Joh@@
Educ@@
Domain
Nev@@
pol
implement@@
egi@@
bu
uis
lings
erc@@
Distribution
Chil@@
Archive
sé@@
ą
jus@@
Et@@
Visi@@
anni
Gas
ich@@
Pier@@
magnific@@
agog@@
Ton@@
scen@@
His@@
Material
Wir
exac@@
-P@@
spit@@
spann@@
jour
ć@@
acht
our-@@
Wis@@
Veter@@
System@@
endar
wander@@
partments
eren
produ@@
etter
inno@@
feu@@
Russi@@
Heinrich
Sex@@
sein
Tibet@@
burg-@@
luxuri@@
oft
Leu@@
ischer
teb@@
Cust@@
uk@@
Donn@@
Support@@
s-
Label
langu@@
ft-@@
av
Cann@@
Bauer
Halle
ě
eines
compreh@@
Bös@@
Spir@@
ference
Jobs
butes
Gul@@
rock@@
dner
conclu@@
evolu@@
Mani@@
arin
ask@@
lements
proch@@
ot-@@
Wer@@
Position
istic@@
Ever@@
Catho@@
Spani@@
proportion@@
Block
Sour@@
Gesellschaft
essions
ór@@
third-@@
entreprene@@
isen@@
compani@@
Al-@@
за@@
03.@@
ourable
immen@@
Baby
earthqu@@
Kinder@@
198@@
coni
rift
Job
Natur@@
İ@@
destro@@
vier
Bund@@
Sell@@
Liv@@
Nas@@
Zei@@
fürst@@
ssiers
Florenz
Pos@@
etz
tini
votre
Fit@@
gotten
Smo@@
Break@@
Flori@@
Ord@@
zog
ista
Gan@@
ditions
Bow@@
shi
Schön@@
Foto@@
entri@@
tat@@
help@@
Berliner
Nieder@@
eim
ony@@
frei@@
tability
lich@@
ς
ICH@@
amt
veh@@
faire
nail
orer
Browser
emed
Vice-@@
thes
achen
Finn@@
Temp@@
Option
Lago
Print@@
ellec@@
theore@@
ktor
quis
anst@@
rü@@
span@@
Ein
isl@@
Galax@@
Jar@@
Exhi@@
dram@@
gangs
Wind
radio@@
Detail@@
list@@
Amp@@
Straße
Rum@@
Slov@@
aten@@
Wur@@
ddle
Per
Kaiser
été
enthusias@@
Walli@@
Evalu@@
hybri@@
Haus@@
kern@@
Scienti@@
drau@@
llon
hinter@@
enze
Kais@@
President@@
rit
WT@@
lli@@
KS
barri@@
satlan@@
Workshop
ML@@
Dame
fr
Sloven@@
Slo@@
Pilot
policy@@
wich@@
Kla@@
lang
Therap@@
Im
chambre
CAD@@
socio-@@
Asp@@
versary
ingent
ungs
tig
2007-@@
Fabri@@
Hoch@@
stren@@
Parli@@
Lobby
Inn@@
Mig@@
Gün@@
atures
Ges@@
Mitte
VP
Parti@@
Augu@@
Hart@@
Custom@@
Format
ै
curren@@
danger@@
atter@@
Diagno@@
WLAN
atie
Rit@@
Wik@@
Wald@@
Dyn@@
sei
dens
proof@@
winn@@
Check@@
KON@@
PC-@@
peop@@
distan@@
mbo@@
Commission@@
Isra@@
ä
substanti@@
lassi@@
Balance
acco
Hindu
Philosoph@@
weren
Hard@@
dump@@
oly
diese
Hier@@
Inten@@
recht
vene@@
Solar@@
Zentrum
Laser
mly
Weg@@
Stur@@
Tap@@
protes@@
King@@
Appartement
miss@@
heik@@
sequently
moment@@
Kno@@
oper
Lang@@
Motors
ă
Ess@@
Spo@@
Struc@@
alth
Sili@@
etes
infra@@
efe
vig@@
Journ@@
now@@
06.@@
Dog@@
Silver@@
Virus
Migration
bs@@
nis
orts
Fall
bend
gentlem@@
versi@@
äl@@
Termin@@
apor@@
DVD-@@
smooth@@
guarant@@
hing@@
marri@@
Aber@@
Lad@@
Iran@@
TV-@@
Köni@@
Domini@@
inner@@
Maced@@
archae@@
Proper@@
etts
Ukra@@
Sever@@
Terrain
ayed
11.00
ael
Isol@@
Lob@@
ê
Profile
wenn
of-the-@@
forts
Finan@@
ICE@@
tari@@
ussel@@
deu@@
Kultur@@
HN@@
bay@@
chner
Holl@@
Laden
estri@@
detail@@
Marin@@
ollen
ú
3.
aden@@
schen
dieser
.jpg
country@@
kr@@
hit@@
leys
gab@@
-TV
perfec@@
Kub@@
arding
Whi@@
Problems
GEN@@
ACH
ression
Controller
GMO
Twi@@
Egyp@@
graphi@@
Wed@@
Flex@@
Situation
isition
isely
Deutsch@@
15.00
Agen@@
Elite
lam
bution
Welt
machin@@
sme@@
vos
ief
Perf@@
DER@@
ﬁ@@
sovereign@@
stained
omen
mari@@
endorf
iten@@
prel@@
Reli@@
Stef@@
08.@@
enhof
ов
Controll@@
sight@@
aner
02.@@
Mang@@
azza
Fest@@
bek@@
itate
Maximum
raff@@
Museums
Gei@@
eten
trage
Adel@@
vert@@
Road@@
r.
statt
dh@@
Nom@@
Non@@
USB-@@
inen
Mom@@
enn
aper
ì
W-@@
Sequ@@
Hem@@
Modi@@
entin
gather@@
kon
rov@@
percent@@
mant@@
ggle
absol@@
Regist@@
GB@@
ations@@
indi
Premi@@
abe
Du
Ball
News@@
mobil@@
icals
itu@@
SQ@@
urance
Neue
Rö@@
sowie
tener
leu@@
hl
Hydro@@
Zeit
bile
Schul@@
Emis@@
Alternative
antas@@
xels
emma
KM@@
gibt
Stand
loser
Tok@@
Gat@@
kap@@
Rates
Chat@@
Bill@@
gu
fossi@@
Asyl@@
Dom
Koh
immer
markt
esen@@

tique
µ@@
icul@@
Falls
hygi@@
ware-@@
naments
Hyper@@
salle
ो
isms
land-@@
Aug@@
ungen
sustain@@
Song
ahn@@
05.@@
consisten@@
sensus
nes@@
Zim@@
know@@
zar@@
ay-@@
PV@@
chambres
von@@
ţ@@
eres
04.@@
।
ags
philosoph@@
supp@@
aints
Revolu@@
htt@@
07.@@
inhal@@
etter@@
appointing
Navigation
Bli@@
itably
û@@
ende@@
Telek@@
berg@@
Stell@@
Hardware
Soft@@
Р@@
inely
hart
dere
passi@@
124@@
Acro@@
program@@
Malay@@
dei@@
Dollar
covery
strand
Scot@@
1,5
rein
uts
contain@@
eholders
−
ardin
Nation
Drin@@
pesti@@
ï
i.@@
Illu@@
funk@@
troll@@
ę
Wein@@
akia
Cub@@
rar@@
sse@@
Features
onym
sse
Import
west@@
phi
Musik@@
Tunnel
Länder
explic@@
Mix
Exec@@
rer
Hinter@@
jek@@
ried
iert
ungst@@
restri@@
Ε@@
v.@@
petit
Hän@@
yk@@
Salon
uren
z.B.
erst@@
Parall@@
fas@@
uries
är
Tier@@
Monitor
ů@@
kilom@@
В@@
tions@@
Virtu@@
bod@@
Relax@@
fia
biotechn@@
eir
Band@@
Jose@@
enshr@@
especi@@
Kau@@
HOT@@
SER@@
ellow
astern
П@@
Schloss
Exist@@
ange@@
Stadt@@
damer
liche
thorou@@
Gut@@
Ambi@@
kos
verein
guil@@
dency
genu@@
ahr@@
ladi@@
Loo@@
Dres@@
clar@@
Taxi
Strasse

º@@
Dut@@
const@@
dies@@
IP-@@
Hand
ै@@
thum@@
Las@@
arios
orie
EG-@@
schon
trag@@
Fla@@
Reich@@
y-to-@@
dership
mel
dir
judi@@
ison@@
Addi@@
Ern@@
hai
drin@@
uz@@
entrum
Astronom@@
wieder
Acces@@
gang@@
ser-@@
kel
Film@@
Wör@@
mü@@
riff@@
Seef@@
Zimmer@@
utation
Magn@@
large-@@
Album
ет
Gent@@
deter
Internation@@
aku@@
beauti@@
haf@@
ley@@
Ses@@
Alarm
Ve@@
rid@@
onen
stanti@@
urer
Ital@@
tiv
Labor
ž
lek@@
Extra@@
ühr@@
stances
pup@@
Miner@@
Provin@@
Kok@@
rau@@
ू@@
macher
olle
Consu@@
hung
Kast@@
Ç@@
einf@@
dien
Â
Busin@@
Amat@@
Kris@@
asyl@@
chur@@
Tax@@
ket@@
Venezu@@
ynam@@
cides
spiritu@@
IFA
197@@
Administrator
Klein@@
Den
ί@@
ICH
ю
×
Lö@@
Nazi@@
cke
Hist@@
υ@@
Schaff@@
iden
erity
letion
absur@@
sugges@@
Sovi@@
Experi@@
Cock@@
kler
last@@
pharm@@
Bang@@
nei@@
Verlag
Blog@@
Hostels
Reich
bew@@
geri@@
immobili@@
liferation
Put@@
ún
Aca@@
sourc@@
eden
Navig@@
Defin@@
Parks
Card@@
gast@@
liz@@
rie@@
Installer
з
भ@@
tainment
onte
kenn@@
wom@@
Mau@@
EZ@@
Guant@@
Schnei@@
schwi@@
oly@@
Clim@@
zin
Dies@@
keine
ook@@
sophistic@@
Gour@@
a-
lé@@
ing-
Flas@@
Ich
Fü@@
श@@
herr@@
Peter@@
Minimum
End@@
lingen
Downlo@@
burgh
^
öst@@
Kauf@@
mals
ohne
Nap@@
assi
thof
Montre@@
Universität
Kreuz@@
Plans
Chair@@
ext
tedly
la-@@
welt
Kamp@@
Chor@@
bil
mun@@
Definition
Para@@
Hauptbahnhof
т
tau@@
Aro@@
alog
Evolution
Roh@@
`
±
com.
Patch
agements
teur
bas
ī@@
ã@@
zw@@
Ä@@
reco@@
enden
enge
cker@@
Linu@@
das@@
Sis@@
encryp@@
record@@
themati@@
Jag@@
Barcelon@@
ün@@
IW@@
schule
Show@@
--------@@
ر@@
Ø@@
Vot@@
fern@@
anted
eces
Fan
üb@@
œ@@
Check-@@
itt
isco
sport@@
Hack@@
ernet
Buff@@
ι
م@@
Layout
kas
Distri@@
seh@@
Coh@@
earth@@
kra@@
Boot
hôtel
Laser@@
claim@@
N-@@
lig
phs
Zah@@
vere
neu@@
Profession@@
Websites
thaus
echnik
च@@
accur@@
Bergen
Bank@@
bean
yees
amas
timedia
trend@@
Alpen@@
schwei@@
प
angers
quired
ermin@@
élé@@
every@@
ş
Ultra@@
dige
kre@@
Golf@@
Ensem@@
ध@@
tremend@@
Rest
Guine@@
Veget@@
baden
Au
aal
so-@@
schem@@
automati@@
Psy@@
इ@@
abled
stein@@
Contain@@
γ@@
Deut@@
änen
thu@@
robu@@
uter@@
Internet@@
thumb@@
eign
Hoff@@
ener@@
Des
öder@@
cipl@@
consul@@
Pak@@
ehol@@
chs@@
illeg@@
mire
Stran@@
eign@@
auff@@
hin
Minute
leur
Videos
fragi@@
follow@@
excep@@
batter@@
tent@@
Zw@@
terran@@
opro@@
sung
neue
anen
welve
leh@@
Ment@@
dann
Plugin
über@@
Stad@@
IMM@@
tradition@@
beri@@
ding@@
leb@@
urop@@
Hob@@
ament@@
errei@@
stead
Mö@@
Ihre
pg
़
oler@@
Problem
eln
life@@
wen
η@@
fak@@
›
औ@@
qual@@
Tis@@
tim
ert@@
illi
horizont@@
ehold
gour@@
expos@@
enty-@@
Listen
Spam
kitchen@@
c.
‚
deed
deliver@@
fig
Orig@@
ellen@@
ologie
gasse
autonom@@
Phase
lik
Schö@@
5.000
rhetor@@
ma-@@
izi@@
Licht@@
Musik
Für
Neb@@
Süd@@
Hybri@@
beim
weap@@
embers
đ@@
dion
gyp@@
rying
tem
Renn@@
Bos@@
verd@@
Buch@@
essor
ο
Ł@@
sko@@
licens@@
Online-@@
.-
laden
unications
Fris@@
contri@@
invest@@
Sebas@@
Ó@@
Kunst
d.
Homepage
0,00
Nr.
Zeitung
ł
Sonn@@
Panoram@@
Eine
citiz@@
foli@@
Landes@@
Oran@@
lichen
asters
Burg
Rau@@
worth@@
Kass@@
Zug
Neur@@
Rotar@@
Robo@@
koh@@
Seine
stag
Scan@@
anke
kul@@
energi@@
asonic
panoram@@
Institution
endent
purch@@
Batter@@
Klin@@
lub

spired
Experim@@
him@@
Priv@@
Nick@@
Foc@@
acio
Sad@@
Kop@@
δ@@
Zwei@@
uch
Schwei@@
anderen
ि
Mann@@
whol@@
Herr@@
Icel@@
blas@@
dir@@
atik
UND
phenom@@
Voy@@
Tradition
Ring@@
fter
lange
eger
Ś@@
EW
modul@@
hast
Blu
programm
ersten
Perform@@
stopp@@
zt
Jahr
lug
üssel
erland
Jap@@
Eurozone
gratis
Chall@@
Immer@@
Wiener
WM
sinc@@
tiful
stab@@
dex@@
isches
Neut@@
libr@@
Informationen
dise@@
own-@@
itte
ddenly
-Spe@@
Rek@@
ए
forth@@
uters
chocol@@
intu@@
tium
expres@@
ös@@
erten
frau
ي@@
Autor@@
relax@@
gen-@@
use@@
kri@@
Pub
Fach@@
nig
bauer
toll@@
Hindu@@
vac
Hub@@
zip@@
Seb@@
alu
nisch
valent
sman
Moldo@@
Rom
Bö@@
facili@@
ö
Rent@@
stav
urement
Ble@@
Arran@@
-Sh@@
combin@@
estr@@
Deutsch
ū@@
Simul@@
ße
Audio@@
Markt
artier
Uhr
Mit
و@@
projek@@
Offici@@
Má@@
exper@@
viel@@
seek@@
gels
Sex
umen
jap@@
उ@@
Contin@@
repar@@
Million
experi@@
ywood
Sie@@
azzo
Affili@@
metho@@
food@@
Religi@@
Ins@@
flus@@
isch@@
¥
eived
suici@@
Biom@@
Chri@@
Recy@@
Su
Antivi@@
magne@@
Ero@@
schl@@
Upgrade
Loy@@
isse@@
Jus@@
etten
Grund@@
dless
rehabilit@@
Tei@@
rent@@
Galerie
н
ischen
stens
ammer@@
Salv@@
dimension@@
unger
lus@@
U-Bahn
autor@@
Sü@@
zah@@
investi@@
alarm@@
aty
partn@@
drei
Feld@@
gesetz
Nach@@
technik
etwas
gegen
ennis
rang
ocop@@
pur
¡
Н@@
oriz@@
Solarium
Reform@@
Frankfurter
ock
deutsche
utz
finden
confidenti@@
tika
offic@@
lä@@
tiqu@@
Bungalows
schw@@
EIN@@
Siehe
Flora
wing@@
etus
Verb@@
Clubs
Spezi@@
inge
zel
alition
enthusi@@
Tari@@
kro@@
ital@@
u.@@
pd@@
GEN
Button
sibili@@
Religion
Dil@@
withdraw@@
jac@@
ät@@
obo@@
shof
10.000
consider@@
perman@@
stat
tei@@
atz@@
Video@@
idly
andes
Haf@@
ì@@
Choo@@
Gü@@
andere
Klu@@
Aluminium
ledge
atum
tackl@@
oft@@
independ@@
viel
erin
park@@
ML-@@
direkt
Expan@@
reduc@@
ecke
vements
promot@@
mbH
tot
Minim@@
Alli@@
doch
Now@@
Boot@@
Frühstück
habe
wurden
hund@@
t-in
Jour@@
funk
Brau@@
mich
Ђ
arbit@@
ül@@
seine
Billi@@
lass@@
OME
diesem
ن@@
fined
Über@@
ha-@@
Sand
ė
Gn@@
Stern
Schle@@
jpg
Computer@@
Schnell@@
sé
Lib@@
invol@@
dul
Stru@@
Temperat@@
ő
Klo@@
έ@@
Chi
О@@
Ihnen
ieder@@
agna
isine
Festivals
Last@@
schn@@
angen@@
paint@@
Bü@@
Immo
В
Krei@@
obs
utz@@
Von
dden@@
gut@@
Tep@@
oren
Servers
emark
Seite

tails
entre@@
arming
encounter@@
legi@@
tonn@@
Ug@@
mu
Keller
Taste
tt
wholehear@@
ussions
politik
Proced@@
enon
arab@@
ör
eigen@@
nd
ب@@
ल
lifel@@
eten@@
Swis@@
Dub@@
repeat@@
exi@@
Kli@@
studi@@
ahl
Servi@@
serie
hydrau@@
glas@@
secon@@
speak@@
tizen
ecker
splan@@
comfort@@
Knei@@
halle
Club@@
Í@@
ween
Trau@@
unte@@
Medium
.m.
berge
Hohe
forbi@@
Resol@@
enness
flor@@
Lie@@
lang@@
ording
Appart@@
Sog@@
einfach
Stadt
य
modus
Mex@@
Stein
Explo@@
dern
ige
macht
dary
ihre
intro@@
raph
rement
wig
onie
bü@@
Favor@@
Zum
Tourismus
bec
complim@@
Quot@@
Mall@@
intui@@
datab@@
Lieb@@
Luxem@@
orig@@
privat@@
Will@@
nach@@
5.
destruc@@
Zur
meister
schen@@
Kell@@
Bars
litt@@
Peters@@
erer
Nei@@
Span@@
nun
eties
Logo
Rund@@
Step@@
Tenn@@
М@@
Dialog
ultim@@
ince
tier@@
oeu@@
egen@@
Spit@@
Т@@
Je
3D-@@
fabrik
soever
lagen@@
ASP
Partner@@
messe
stad@@
spr@@
Dür@@
aup@@
Co.
jetzt
racies
Films
emen@@
rik
esti
Sounds
Autobahn
Wenn
stern
lust
eventu@@
fox
lei
utenant
anony@@
Sehr
आ@@
inhabit@@
Wilhel@@
budsman
progno@@
Jord@@
Rath@@
Semin@@
Updates
л
К@@
Sinn
rücken
Herb@@
raphi@@
Infin@@
Diese
Fans
Text@@
up-to-@@
Dör@@
Schlei@@
Bahn
zig
ott@@
situ
mail-@@
symbo@@
lymp@@
mains
Sieg@@
ollars
Für@@
ø
Schwarz@@
Skep@@
Zeu@@
Mitt@@
Deri@@
Alle
θ@@
energi
lifer@@
Afgh@@
ull@@
Apar@@
Mittel@@
Bulg@@
Hour
Rak@@
Köln
Downloads
Nürnberg
Constitu@@
bem@@
diar@@
Evangel@@
Gon@@
Dig@@
maximal
zwischen
illar
sionally
Stei@@
Dek@@
kas@@
terns
А@@
worden
ت@@
Daten
Lond@@
spru@@
Resi@@
Luft@@
lok@@
kein
itment
islat@@
Computers
Lok@@
atorium
Göteborg
Feed@@
ň@@
Rede@@
zwei
Kuns@@
hoch@@
Sper@@
tri
Monten@@
4.
haus@@
Spiel@@
Fahr@@
ē@@
Screen@@
unserer
Auf@@
Jahren
Groß@@
enhäuser
थ@@
obst@@
Volks@@
icro@@
Teams
Offen@@
Seminar
duk@@
addres@@
Frau@@
ν
Disk@@
tung
tivi@@
Market@@
Aktien@@
Barcel@@
PDF-@@
unsere
fil
nah@@
bilater@@
Appl@@
christ@@
eken
xe
Α@@
MID@@
ls@@
splatz
occur@@
Schweiz
xen
muss
coher@@
Quart@@
mend@@
tun
Portfolio
stät@@
Zy@@
zei@@
Switz@@
ε
geht
Werk@@
Mön@@
ihr
terror@@
zeit
Internet-@@
Haupt@@
fel
ъ@@
ō@@
Trend
terrasse
ellen
Subsi@@
nette
lass
Mountain@@
genz
Preis
ع@@
fes
lasse
і
Studi@@
Fes@@
Richter
brilli@@
energ@@
territori@@
Lock@@
rah@@
Bav@@
Staats@@
Hochschule
Modernis@@
icop@@
propos@@
rl@@
Wash@@
Gest@@
IS-@@
Privat@@
Apri@@
yp
wand
pau@@
Inflation
inions
Songs
Tus@@
Anim@@
seit
neuen
hö@@
akt
stil
Parag@@
controversi@@
adem@@
rug
Rah@@
cken@@
Rück@@
Eck@@
Küh@@
Bei
tims
ehm@@
Radio@@
issen
Boden@@
gew@@
Sommer
Mobili@@
Manu@@
Deutschen
heb@@
ZE
DEN
langen
gt@@
Mio
vacu@@
ärm
oners
corn@@
Feri@@
ech-@@
kus
famil@@
werke
tische
Visu@@
buch
Revision
tici@@
onight
spirit@@
athed@@
Stere@@
Bayern
phar@@
Theat@@
Ú@@
Fri
Interview
gig
Maschinen@@
Transfer@@
t-
Mili@@
ω@@
2,5
Tier
Nür@@
Animation
comit@@
lege
commit@@
wollen
dule
Wasser@@
otels
w.@@
busin@@
promis@@
stitu@@
egro
ehl
Luxemburg
Chaos
Restaur@@
Auf
Feedback
Wie
Schn@@
Onlin@@
Vide@@
schei@@
debat@@
mie
Schei@@
Saudi@@
Grab@@
odate
Leben
Us@@
spek@@
lags
Deleg@@
Start@@
vell@@
Chann@@
Baby@@
ά@@
fik@@
Jahre
Stiftung
Dec
laut
viele
Spra@@
Kernel
lagen
besi@@
tien
Jeg@@
scho@@
hn@@
äf@@
sek@@
ganz
Forschungs@@
selbst
Holz@@
Kost@@
Repub@@
sam
elem@@
tyard
Feb@@
1.000
tober
neut@@
esch
dney
Highlights
feat@@
Front@@
gente
ό@@
kirche
Grün@@
verband
Ã@@
irregul@@
Belgi@@
Biotechn@@
obile
Strand
bergen
Brü@@
Republi@@
assen
Τ@@
Kö@@
See@@
Heili@@
Best@@
besch@@
Bahn@@
Wolf@@
Seen
otro@@
Privi@@
demark
odiversity
f.
pher@@
liches
ORK
baum
η
श
Epis@@
ghly
Proto@@
ë
Jä@@
bahnhof
ütte
inu
afri@@
undoub@@
Situ@@
Internationale
sied@@
wehr
Edel@@
Juli
Chemie
LIF@@
Migr@@
¼
colum@@
Male
Johann@@
produk@@
Als
machen
от
Terror
amend@@
HO
Moun@@
wu@@
dah@@
Kind
Danu@@
Energie
werk@@
gesch@@
aum
ї
द
commodi@@
strong@@
solidi@@
agno@@
your@@
Schal@@
egel@@
useum
Brei@@
mming@@
Juni@@
chten
dieses
muster
itan@@
Loch
Guatem@@
Sob@@
tigen
ň
Ehr@@
Druck@@
Garten
spiel@@
Person
extre@@
Potential
unab@@
geno@@
stes
Hosp@@
Zul@@
Web-@@
nam
Funk@@
Signal
unforget@@
terer
With@@
ittle
atte
mined
Allianz
Giov@@
Mech@@
imes
exqu@@
-Hotel
mag
Debian-@@
म
ए@@
support@@
echn@@
apos@@
onable
certific@@
Systeme
GV@@
Altstadt
Trainer
Blizz@@
Ћ@@
üt@@
en-
acken
umen@@
dire@@
sach@@
col
Epo@@
Feb
mee
liegt
Orch@@
temperat@@
ā
î
universi@@
sens
Opposition
anden
tiges
ewi@@
ftung
6.
Wach@@
Garage
gelegen
bereits
Vier@@
heute
adt
enab@@
prise
Amer@@
convinc@@
aff
Ñ@@
tere
Antoni@@
verk@@
viertel
Produkte
innen
ة
Б@@
bequ@@
rently
splen@@
Param@@
Workshops
χ@@
Quer@@
zentrum
spiele
Gastronom@@
Ihr
Kunden
offici@@
ühle
Element
Bild@@
trade@@
chall@@
holz
enem@@
Tests
eher@@
indep@@
Ged@@
Sek@@
Feuer@@
Adria
Jury
Arbeits@@
Art.
tsp@@
Immobili@@
jing
essi
magaz@@
د@@
Interpre@@
äm@@
chec@@
Er
Canadi@@
era@@
sels
won@@
mainten@@
rale
oti
ľ@@
Meter
8.
ن
Technik
Ø
Vers@@
esen
‹
ollar
gesti@@
sci
Chance
Volk@@
Zir@@
Wirtschafts@@
nah
activi@@
Mitarbeiter
‑
Immobilien
Business@@
Thurs@@
spiel
emark@@
Dimen@@
weg@@
kok
spitze
adres@@
deren
gruppe
Unternehmen
bietet
ह
Tee
ष@@
atten
Somm@@
ystems
zir@@
kä@@
équi@@
gute
Köl@@
gum@@
bri
hef@@
Glan@@
prep@@
sequent
bedro@@
wur@@
garanti@@
Dok@@
Oper
sser
Quark@@
Juni
bild
UN-@@
9.
eches
Califor@@
dienst
Ja
mens
ahl@@
signific@@
mä@@
iPo@@
schaft
hatte
erste
zern
Mobil@@
z.@@
Menschen
ट@@
Ѓ@@
anz
unnel
Sender
express@@
efer@@
ries@@
Д@@
stelle
Hier
kosten
sewhere
sibilities
Astri@@
rem
Mini-@@
chts@@
olz
recommend@@
sp
Kak@@
Und
freundlich
Klim@@
Nach
vel-@@
ie-@@
Cook@@
dabei
iden@@
reh@@
unken
Hygi@@
Kün@@
Blau@@
gno@@
Fi
Sec
Java@@
Auch
kreis
lassen
ज
ouver@@
Distribut@@
Avail@@
Hü@@
kab@@
enten
boden
izi
Markt@@
Codes
sprung
Fundament@@
requi@@
5-0@@
Israel@@
tä@@
auer@@
Top-@@
wei
stei@@
institu@@
Bahnhof
proper@@
sinn@@
3,5
Kern
FRE@@
kle@@
Kü@@
Liqui@@
Train@@
maschinen
Impulse
ή@@
wert
′
bark@@
seiner
Grö@@
Tsch@@
eben
äu@@
д
Elektro@@
Elektronik
daten@@
Schne@@
argum@@
lä
pment
immedi@@
agen
tler
eill@@
proto@@
intern
lien
Das@@
stellen
Haag
vier@@
Komp@@
Ђ@@
Brief@@
igar@@
usin@@
Intervention
cols
Veg@@
υ
damit
Österreich
soll
Embry@@
,5
Bür@@
Emo@@
auber@@
ů
Rim@@
turm
ativ
stru
cei@@
jub@@
sow@@
Symp@@
Min
fahrt
Fot@@
Arbeit
Akademie
Unter
treat@@
Environ@@
Euror@@
É
Citiz@@
AID@@
erst
÷
eillance
Bilder@@
Russ@@
ieren
muse@@
chter@@
haft
Gum@@
weiter
Rati@@
asy@@
trop@@
Wort@@
iko
Nah@@
mö@@
¹
grad
nett
Infos
Kreu@@
Geschichte
Strand@@
ventive
trum
Plen@@
position@@
kommen
Oder
kest@@
gei@@
Consul@@
Zoll@@
bene
bitte
ά
reis
Room@@
Jugend@@
tisch
Diversi@@
sterity
rou
bald
ü
idential
Ż@@
Ruh@@
Heidel@@
Welt@@
kommt
denen
jedoch
bzw.
mitted
Ö
Drei@@
lars
pak@@
portu@@
sehen
Vern@@
komm@@
Rand
Romanti@@
Bereich
¨
diesen
ख@@
Monop@@
Mean@@
auses
Meer
standard@@
Synchron@@
Sommer@@
Lebens@@
geben
möglich
gilt
Frau
Schau@@
inger@@
Ira@@
unden
Newsp@@
spec
brin@@
Wider@@
Um
seinen
müh@@
Zug@@
dort
Bilder
س@@
schutz@@
Angst
incen@@
National@@
atz
allem
ehr
Milo@@
Merk@@
ür
för@@
exag@@
steht
anf@@
EM-@@
Domain@@
Weg
Peking
wides@@
ership
ç
bt
stain@@
Ank@@
amme
ė@@
gend@@

öss@@
eben@@
Linux-@@
kleine
ihrer
chte
deutschen
И@@
agement
meas@@
elop@@
Australi@@
provi@@
7.
operation@@
konnte
tum
Ques@@
Cardi@@
Sponsor@@
Kinder
assen@@
rei
Industrie
Geni@@
weitere
ż
Teil
Serie
Kart@@
dign@@
ohl
leit@@
mö
enship
riteri@@
porte
heu@@
Brief
Komm@@
Handel
Wander@@
stechnik
Bisch@@
Oktober
scha
urch
hospit@@
Stuttgar@@
Bild
Lt@@
Moderne
erei
Flughafen
saal
alten
ridi@@
compati@@
Austr@@
Pro-@@
Â@@
stehen
unde
hier@@
Bem@@
leben
arten
Rech@@
sauber
Inspir@@
entru
β@@
projekt
ई
व
Stress
positives
CO2-@@
dung
Nationale
Î@@
Ambiente
licher
ō
Protot@@
Frag@@
ج@@
Grü@@
Jed@@
Fisch@@
Trends
EAD@@
Schen@@
tur
schön
Tal
viera
fahr@@
echni@@
Philos@@
Bier@@
liest
angsh@@
capaci@@
Nether@@
Baum@@
systeme
klein
echt
Sonnen@@
ausch
telef@@
gung
sondern
acci
stab
erhalten
uls@@
inev@@
Kraft
ã
Prü@@
zed@@
manufactur@@
angen
Ark@@
ück@@
gemeinschaft
eit@@
Paci@@
strom
Alter@@
schutz
iminary
Brut@@
Zü@@
verages
Fish@@
Sier@@
Zeit@@
enheit
er-
anta@@
äck@@
balcon@@
frei
DIE
blick
findet
ehe
bör@@
ग
umm@@
hafen
Mein@@
Portu@@
erium
aland
heim@@
vielen
schu@@
voll
ر
Projekt
Modell@@
●
waff@@
ussels
Bek@@
ender@@
ön
Information@@
Wetter@@
moderne
Nacht
Student@@
wirklich
ي
welche
Л@@
Rahmen
ण
Portugu@@
Atmosp@@
therapeu@@
Hunger
otten
Handels@@
iten
Herz@@
Schweizer
Krupp
Sept@@
ен
entum
Metall@@
Residenz
Himm@@
unseren
Designs
unknow@@
such@@
ssel@@
stil@@
Apa@@
bedient
Mal
gehen
Shang@@
rut@@
ahr
ophistic@@
Smar@@
wort
sollte
igen
stanz
besonders
neu
Woche
Kulturen
Programm
eeing
freed@@
emm@@
Fest
Ţ@@
für@@
syst@@
König
chem
nä@@
Kultur
März
ht
zei
Thema
Heil@@
Konzer@@
stitute
Ê@@
gericht
UNO
monop@@
Tamp@@
arr@@
ciary
yoto
Organ
Sonder@@
Symbol
Daten@@
wav
dimen@@
Tage
У@@
denn
Nutzung
Werke
Amerika
Brazi@@
reneur@@
Nomin@@
Hör@@
Ν@@
itten
ssel
berei@@
Acade@@
fahren
Profi@@
bureauc@@
Wedn@@
usal
ober@@
Liz@@
Schil@@
ambi
audio@@
Elek@@
Schule
raum
teren
einige
element@@
tischen
ك@@
solidar@@
zeit@@
taine
cinal
weil
Verkehrs@@
أ@@
Windows-@@
Г@@
Verfügung
bieten
Wirtschaft
ihren
bitten
Telef@@
Region@@
Balk@@
Indu@@
sich@@
rück@@
Algorith@@
Th
illion
ekt
environ@@
ό
Angebot
landen
Dies
etten@@
Verein
tungs@@
Ќ@@
Subsidiar@@
Rout@@
ringen
Allgemeine
Leiden
schau
Interpretation
Zur@@
Export@@
insel
bul
Verk@@
azi
Spiegel
Ende
anderer
enos
Window@@
Neues
ßen
Dieser
Eisen@@
letzten
Geschäfts@@
Stab@@
Oz@@
Wer
oram@@
peline
Ziel@@
of-the-art
anying
Inhalte
Basis
leider
unserem
ersch@@
Magazin
dene
ationen
Alter
qm
Partition
schein
sprit@@
ف@@
Firma
Anders
festyle
Seeh@@
ź
kreu@@
eher
φ@@
Cadi@@
u.a.
zeiten
empl@@
klick
ô
Schm@@
З@@
junk@@
quasi
geist
enjo@@
ffen
Kali@@
registri@@
essel
Europa@@
arz@@
ansa
ue@@
hab
Elev@@
Kraft@@
engli@@
buted
Meer@@
äch@@
rec
thema
erische
efel@@
innerhalb
ommis@@
Dunk@@
gleich
-Sti@@
anon
sug@@
besten
brücke
Fak@@
hatten
aben
Ihren
gef@@
musik
kam
Tex
gestellt
Ihrer
ommission
General@@
quantit@@
Galile@@
bella
exempl@@
Fein@@
opf
Personen
esday
Hafen@@
kultur@@
Entwicklung
jeden
daher
г
ismus@@
bler
ebody
deutsch@@
Digit@@
Presse
Staat@@
Pfei@@
Symb@@
Schwer@@
erung
Grupp@@
gerne
ер
schön@@
Oster@@
beam@@
diger
eigenen
Bestellung
ष
anzeigen
staun@@
stark@@
quil
Solidar@@
unser
blatt
fris@@
aille
lungs@@
ök@@
ovi
Handy
Foto
Insel
Werk
Mikro@@
guten
Immobilien@@
ओ@@
Willi
rac
NATO-@@
gebir@@
Österrei@@
nock
mosp@@
Fotos
Zu
Samstag
Sterne
Südtirol
schaff@@
strich
dien@@
hows
erner
Tempo
mah@@
phen
Berufs@@
Luf@@
Arz@@
reich
forschung
preis
großen
Alpen
Е@@
üch@@
ड
loyment
astri@@
rech@@
gab
Schutz@@
Erste
р
univer@@
stall@@
dau
archit@@
Sub
Koll@@
Hong@@
Service@@
VIEW
spielen
¬
א@@
ÿ@@
imin@@
minal
Teu@@
selb@@
versch@@
ή
Tief@@
schöne
ecken
Rat
Server@@
fang
Ibi@@
symb@@
dazu
Ort
paar
verschiedenen
ief@@
sofort
י@@
rieb@@
Artikel
ौ@@
च
Assist@@
müssen
Demonstr@@
perat@@
atur
Impl@@
Buch
enha@@
Praxis
Frankfur@@
Voll@@
Biok@@
äu
rote
Januar
bereich
Urlaub
Englisch
Möglichkeit
Beitrag
stri
Sprach@@
Detail
إ@@
sacri@@
ehow
Wohl@@
roler
Intel@@
Block@@
stoff@@
poth@@
flü@@
sches
Magaz@@
Industrie@@
Nähe
Druck
Rohr@@
wenig
Logos
Wie@@
Seiten
Rhyth@@
wie@@
ش@@
conom@@
fession@@
deten
Mein
selves
Spre@@
Dank@@
Vö@@
igt
Uni
Maus@@
rati
ôtel
lichkeit
Farben
scher@@
privat
gabe
Verband
kunst
Fragen
І@@
Dezember
ka-@@
unver@@
Finanz@@
Strei@@
z.
Contro@@
õ
Mir
wegen
Verein@@
authen@@
alte
Informations@@
Wertpapier@@
Turm
rund
quelle
Über
Venti@@
Künstler@@
Qual@@
Strah@@
Büh@@
ण@@
sincer@@
wider@@
olies
Ó
Gang
ffer@@
Ş@@
große
necess@@
üs@@
uer
Schü@@
bekommen
riffs
fü@@
ulen
10.
ت
seinem
ब
etab@@
endence
Such@@
engen
Zin@@
Croati@@
Evol@@
Crew
wasser
enzi@@
Stau@@
Kilom@@
sch-@@
Neu
oten
arbeiten
platt@@
freundliche
schnell
jeder
tival
﻿
Kosten
û
Frauen@@
biblioth@@
klin@@
Küche
ны
Bör@@
Marken@@
Rechts@@
ś
Klang@@
Obst@@
Herr
Finger@@
zeigt
thias
Ο
nen@@
fein@@
eist@@
ologi
jacent
Punk@@
Zeh@@
Raum
Familie
Rolle
Heim@@
dru
satz
rung
abel@@
Iris@@
ASE@@
erreichen
Pek@@
Cru
ù@@
ñ
Ő@@
drei@@
Bürger@@
aufen
Dorf@@
Wissenschaft
Grund
Theater@@
ologischer
haut
Charme
Shutt@@
enhaus
sogar
orama
zug
Stern@@
buch@@
gern
Ticket@@
ו@@
Viz@@
Hä@@
statisti@@
zusammen
ppen@@
samm@@
gutes
Blick
Ameri@@
lager
bili
schaften
Düssel@@
UNG
ademie
verl@@
ocol@@
humanit@@
Enth@@
Sonntag
bished
Mehr@@
stellt
Preise
Jahres@@
-Fi
า@@
nichts
räger
während
Leip@@
ungsp@@
zentrale
Aber
Univer@@
isten
ร@@
kamp@@
insbesondere
Kino
lieb
Forschung
Natur
wagen
Dorf
Lieferung
sendung
raphs
Interoper@@
Amster@@
Tages@@
Propag@@
undry
Ist
eite
Fuji@@
earch
einmal
ύ@@
Grenz@@
Glück
wohl
Minibar
ologne
Moment
besser
weder
genau
Medien@@
Recht
volumen
Februar
Förder@@
retary-@@
proced@@
enten@@
urch@@
ardous
Toil@@
Pesti@@
ľ
Leicht@@
unya
oub@@
racht
layed
toms
rün@@
Prä@@
dik@@
anlagen
À
esten
Pixel
orte
Frauen
Sonne
gemacht
Hafen
Slides@@
¶
Wohn@@
ekt@@
weiter@@
ohn
ultin@@
esn
Karls@@
latt
Nur
andin@@
Liga
chter
Büro
fant@@
Italien
ganze
Wo
adresse
gende
anten
Sicherheit
Sozi@@
Zau@@
Produk@@
loh@@
interess@@
meine
Technologie
َ@@
æ
ulsory
ritt
Feu@@
Defini@@
Fortun@@
zep@@
privi@@
gü@@
befri@@
enstadt
Palette
etwa
h.
ilet
Umwel@@
steh@@
tionen
Frühstücksbuffet
Zeiten
bringen
Preis@@
Wasser
Kunde
ه
خ@@
ﬂ@@
Rez@@
porate
Brasili@@
partner@@
Chancell@@
criteri@@
ť@@
feh@@
hings
Yah@@
sicher
appen
Gä@@
graben
apers
LK@@
Masch@@
Kabel
bahn@@
allerdings
winkel
empf@@
Stunden
schlei@@
ه@@
oben
ا
ح@@
gnis@@
Flag@@
Fischer@@
Service-@@
internationale
Licht
Viel@@
companied
Kör@@
Kleine
Män@@
ruhig
Texte
Vogel@@
timedi@@
weit
allein
ismus
dokum@@
möchte
№
gehand@@
vehic@@
persp@@
lö@@
elings
gend
Tö@@
asch@@
gebiet
scht
Dir
urant
Schauspiel@@
alisierung
lieg@@
mün@@
Alles
Bitte
klasse
kleinen
Durch
Kontakt
komp@@
voll@@
davon
फ
Afghan@@
relev@@
Aller@@
Mosk@@
Müll@@
Schiff@@
ovina
Sinn@@
folio
sä@@
kum@@
Kä@@
licht
KOM
ppen
Zukunft
Seel@@
Gesch@@
daß
ticle
Geh@@
spezi@@
Dank
durch@@
ї@@
Quell@@
Ziel
¦
Afrika
Vertrags@@
instre@@
hoff@@
sein@@
richt@@
Μ@@
Algar@@
Phi
geograph@@
soli
recht@@
Vier
Unsere
wäre
Glet@@
sitz
ausge@@
Minuten
Wunder@@
Herbst

häuser
haber
schrift
د
Halb@@
Gut
Flach@@
austr@@
※
Haut
Betriebs@@
ÿ
öl
Stahl
Automobil@@
Hilfe
Samm@@
Benz@@
dafür
jeg@@
altung
Gäste
gek@@
Kaff@@
höhe
ziger
Sitz@@
Freunde
gefallen
empfehlen
schönes
Weiß@@
Erfolg
zwar
glich
u.
Medien
mein
beste
neues
Aktion
″
س
Anzei@@
bild@@
Р
Demonstration
straight@@
Qualität
dustri@@
Poli
Ý@@
liste
ordn@@
Invasion
―
Blei@@
Klar@@
Politik
what@@
aktuell
Instru@@
rö@@
neben
UNES@@
Prozent
Farb@@
endes
Leder@@
Drei
Macht
euch
chts
gefunden
Entwicklungs@@
ª
ongs
hren
onien
È@@
geschichte
compon@@
Vom
Prov@@
ektionen
enzen
eservice
Reisen
Nutz@@
Sache
Drucker
Beteili@@
Э@@
andal
Landes
Bolog@@
Erd@@
Freie
zurück
sions@@
Ingenie@@
Alg@@
Personal@@
中@@
keinen
eigen
staat
Früh@@
¢
ť
Fernseh@@
Selbst@@
bün@@
ihm
Hersteller
Seit
ز@@
möchten
Ausstellung
-Software
ट
islam@@
Welle
zul@@
Soll@@
Aktiv@@
meiner
klar@@
jene
absolut
grund
ukra@@
liegen
zell@@
Steuer@@
spazi@@
tolle
äh@@
bö@@
Flü@@
Netz@@
denz
profi@@
kraft
punkt
Gruppe
Tank@@
besteht
lässt
Tagen
weiteren
ی@@
kontak@@
gemäß
pran@@
industrie
⇒
ृ@@
assess@@
fik
iere
länder
Tali@@
klu@@
Still@@
Business-@@
zwei@@
büro
Live-@@
ös
bein@@
arbeit
reich@@
entrep@@
niveau
Signal@@
kte
sonst
urants
holt
Liefer@@
lten
Unser
Damp@@
Geri@@
egen
Weise
bekannt
Kosten@@
istik
denk@@
Prak@@
entwickelt
rüh@@
darauf
Uru@@
jahr
opho@@
bring@@
Zusammenarbeit
Palestini@@
langer
Immun@@
Univers@@
selt
Wald
Finger
anik
nten
kette
endly
Anlage
Architektur
ritten
ordnung
Hostel@@
amental
dein
kost@@
ū
wissen
Dieses
ammen@@
reise
tiz
Nä@@
wirtschaft
Gegen@@
Quelle
SQL-@@
cany
ит
Glei@@
aufgrund
jederzeit
elte
Wich@@
Wochen
industri
од
फ@@
ड@@
थ
advantaged
Stras@@
À@@
limm@@
dienst@@
Homo@@
Wart@@
brü@@
agement-@@
Artic@@
baren
euer
Gedächt@@
auen
startet
formular
abulous
Nacht@@
Innen
inen@@
musik@@
Beim
Х@@
könnte
Tourismus@@
Agentur
nächsten
Sozial@@
zurück@@
beu@@
Kongres@@
Parameter
†
Meister@@
dich
Bürger
tack@@
intly
peri
elek@@
Telefon@@
Jugend
etor@@
Monit@@
Woh@@
Donau
Pal
Profil@@
deutscher
simult@@
Lehr@@
Dü@@
freundliches
zimmer
eingerichtet
Download@@
nö@@
Namen
ξ@@
Appartements
Umgebung
gerade
Sprache
tragen
dlich
เ@@
soweit
ب
Verbindung
Einsatz
WTO-@@
Antibio@@
ź@@
regu@@
Đ@@
Fleisch@@
echt@@
Ab
tö@@
Projekt@@
Snacks
Projek@@
roh@@
tigung
Montage
nehmen
Silber@@
führt
weniger
sollen
Kern@@
Reise
halten
prak@@
unternehmen
senden
gewer@@
treffen
Nobel@@
¾
Motiv@@
Trag@@
stu
Regime
tei
orino
oriums
Bis
latt@@
evi
eich@@
reiber
Schir@@
Biblioth@@
Gesamt@@
stoffe
concern@@
weiß
zuvor@@
bestellen
fach@@
veran@@
Bu
wunder@@
informationen
Rezeption
unten
konnten
Kommunikation
gte
Heute
kten
chung
ungs-
¤
aktuellen
idyl@@
zuletzt
Vor
Richtung
natürlich
Punkt
‰
anies
incor@@
itim@@
xis@@
Meister
Verwaltungs@@
ärk@@
Blü@@
Ι@@
enor@@
felder
Bildung
degre@@
Familien@@
Kurz@@
11.
geld
Qualitäts@@
meisten
erungs@@
Ferien@@
Schaf@@
Rechtsan@@
Debi@@
Studien@@
Filter@@
kostenlos
ummer
Adresse
mittel@@
jede
Pause
ī
Kirche
zweiten
Whirlpool
skap@@
ütz@@
umini@@
Mensch
-System
ď@@
ehen
pps
tieren
privileg@@
bleibt
wär@@
Höhe
ل
gungs@@
Palast
beginnt
firma
destru@@
consist@@
Sow@@
Audio-@@
ocopying
Gali@@
Mä@@
fach
Ano@@
Auswahl
eili@@
Frage
ären
kei@@
Krieg@@
Fax@@
Getrei@@
führer
Stil@@
Hunder@@
welches
Jahrhundert
ohn@@
nung
lungen
Spiel
Santi@@
Rechnung
lesen
wieder@@
airo
Aus
Wein
Wett@@
eigene
veröffentlicht
klar
Atlantik
bilder
gert
Einzel@@
gegeben
Bestell@@
】
Ergebnisse
Inhalt
‡
ख
Dereg@@
Brem@@
enzi
Weil
Fok@@
Gül@@
Europa-@@
pfen
zun@@
erien
Prei@@
Innen@@
Empfang
nutzen
Liebe
Klassi@@
sollten
schm@@
Mü@@
ungsan@@
tliche
ertes
gri
nde
eien
öff@@
Unterstützung
Anspruch
Völ@@
äd@@
Titel
【
Produkten
inne
Spei@@
Kari@@
Klei@@
Kampf
datum
Breit@@
Premier@@
manche
Infl@@
Tür@@
Teil@@
atem@@
Haush@@
ņ@@
punk@@
trä@@
gni
welcom@@
Ω
schönen
Flug@@
ق@@
sprache
eiten
leck@@
、
Misch@@
Archiv
bestell@@
enster
extrem
weltweit
ierung
gemeinsam
barkeit
zeigen
Spieler
Veranstaltung
ihn
persönlichen
maschine
Syst@@
heber@@
erfolgt
Argum@@
Analyse
Wand@@
Know-how
Georgi
lege@@
ministr@@
Grad
hilfe
Bünd@@
fte
äre
kampf
reale
ungsh@@
daran
pä@@
ideale
ř
Beispiel
richtig
allery
Dusche
rechte
Terrasse
Versand
Beratung
Leistungs@@
grupp@@
Schwi@@
Gute
uzzi
Deskt@@
städ@@
siv
ographie
Rad
kommunikation
Þ@@
Weiter@@
Wand
exec
Spezial@@
kontro@@
wör@@
gegenüber
छ@@
Webseite
Energiet@@
Extern@@
reim@@
Lern@@
disastro@@
Indon@@
thil@@
ommiss@@
ück
Ih@@
kund@@
dende
guter
mitte
tiver
anter
frem@@
perfekt
Standard@@
Führ@@
ierte
Ausstattung
Besch@@
Video-@@
markt@@
rechts@@
Stamm@@
sagen
Türk@@
tut
gleichen
beiden
Käufer
ű@@
werde
einigen
plätze
Waren
fand
Geld
є@@
ר@@
Sicherheits@@
Sohn
Maschinen
б
erster
gelten
BSE-@@
ondly
Völk@@
heit
anci
Engagement
fonds
tief
Janu@@
telefon@@
deutsch
ausschließlich
brau@@
fuer
Beschreibung
Bef@@
。
schriften
weise
Städ@@
Result@@
interessante
esien
‎
Gew@@
halter
legen
Verfahren
teil@@
ص@@
Euch
Schalt@@
Gef@@
Stelle
Verwendung
Werbe@@
Fonds
Њ@@
ध
statut@@
Ô@@
Intensi@@
Bev@@
Doh@@
whel@@
Impul@@
Aktu@@
üssel@@
ero-@@
Jub@@
Geld@@
Eben@@
Wieder@@
Laut@@
Stockhol@@
biet@@
bahnen
Spr@@
elektron@@
digen
Durch@@
kaum
nahme
geräum@@
öffentlichen
ministerium
enjoy@@
日@@
ー@@
möglichkeiten
führen
werks
Bau
verhältnis
Atmosphäre
Leute
Transport@@
stoff
tiert
Freitag
Tod
ע@@
ى
О
Camping@@
Projekte
Љ@@
inequ@@
sche@@
Koch@@
uen
Zub@@
chst@@
Tri
Sä@@
ffel
okol@@
Seh@@
Län@@
Gestaltung
inkl
kann@@
่
aktuelle
Hause
gebracht
sowohl
Orte
Zeitschrift
Brücke
senk@@
Jahr@@
Autob@@
lauf
Neben
Idee
gener
Tick@@
Raum@@
Ton
programms
Loun@@
hoch
entsprechend
geändert
ל@@
ihrem
Wissen
Republik
frist
trotz
verwendet
ك
förderung
Damit
wert@@
icks@@
aties
ldn
Klima@@
Kamer@@
ziel@@
newsp@@
Lauf@@
ät
Gast
sicht@@
würde
lte
Zagre@@
auszu@@
saison
zial@@
Gep@@
Schla@@
Ihrem
loten
graf@@
schreiben
asen
soll@@
agentur
Sammlung
freuen
Dabei
etze
beratung
Produkt@@
ठ@@
ढ
ँ@@
takings
Europar@@
Sank@@
krieg
Plenum
Parl@@
encour@@
Mw@@
aiss@@
dri
Viet@@
handels@@
Cresp@@
angenehm
riff
Dub
arib@@
hätte
vielleicht
schul@@
Garten@@
Mittler@@
keit
schlag
fotograf@@
fere
bezo@@
dicht
istische
Vertrieb@@
Zentral@@
Material@@
ammen
elten
Freiheit
schle@@
Tisch@@
Digital@@
Strom@@
Theorie
ebenfalls
dessen
Bewer@@
Sinne
Ä
Monaten
Werbung
Dateien
ungstechnik
jeweils
Angaben
nnen
Ý
Palest@@
Leit@@
Á
Morgen
avig@@
percussions
sah@@
audiovisu@@
Servic@@
Beri@@
elec
nav
Lev
worl@@
zug@@
Nun
ˈ@@
passi
Wissen@@
ruhige
Eing@@
verschiedene
Sauber@@
Höhen@@
hinter
Probleme
hilfsbereit
ausgestattet
fried@@
gten
alität
druck
Zugang
Partn@@
ergie
Anwendung
somit
Urheber@@
stör@@
unik@@
insgesamt
verfügbar
Schwä@@
accep@@
neuer
bisher
gruppen
ganzen
Leistung
artikel
rechts
Vertrag
Leistungen
Angebote
nder
setzt
verpflichtet
Falle
daraus
Zusammenhang
Schmer@@
risiko
Denk@@
Waffen@@
bruch
Versicherung
mitten
grei@@
​
Berge
regar@@
früh@@
sien
betrieb@@
volle
Software-@@
Komfort
outer@@
ð
bern
Messe@@
junge
ziemlich
berat@@
abend
Einrichtung
Doppel@@
Tanz
einig
internationalen
Strom
►
tlicher
Zit@@
Ч@@
letzte
Sieb@@
Eigen@@
Bildungs@@
dürfen
Wahl
ysteme
Ф@@
versicherung
Џ@@
Nutzer
bizar@@
tchen
aher
þ
Lager
househol@@
offen
besti@@
Demon@@
Ř@@
welle
Ð@@
Boden
Proz@@
zentral
chtung
arme
Kaffee
anderem
läge
Fenster
leicht
Umwelt
Zut@@
Schlu@@
Freund@@
Besucher
chtige
geeignet
Holz
Kunden@@
Einführung
Abend
Abend@@
tigt
Interesse
bung
Wege
Deutschlands
Spiele
eure
hinaus
teilweise
Suche
län@@
raum@@
Während
daten
fern
Doch
Sein
Versand@@
Kongress
ücke
Schutz
technischen
Zahlungs@@
alkoh@@
prior@@
reden
Gibr@@
brei@@
Ob
Establish
MOs
egt
ų
valu
kannst
schar@@
Bühne
eim@@
nationale
österrei@@
slo
nover
resta@@
hatt@@
stück
chtig
Geist
λ
darüber
Erst@@
lernen
weis
bringt
Dann
Öl@@
Ü
Hanno@@
Wert
digt
Zwei
Freude
Maschine
räume
seite
Gewer@@
konto
Europas
kub@@
Kommun@@
น@@
غ@@
mehrere
Quartal
reisen
Viele
indem
genden
schlu@@
revolu@@
berechtigt
Gesundheits@@
Jahres
genannten
Schrift@@
Referendum
Sprit@@
Asy@@
bean@@
posit
GAP
Frist
Kein
perto@@
disch
kü@@
Betra@@
Inhal@@
unen
Alic@@
Waren@@
nacht@@
Außen@@
Freundlichkeit
ə@@
karte
wege
blu
befindet
lauf@@
erfolgreich
Wellness-@@
ände
Kondi@@
Forsch@@
Bauern@@
deutlich
Schuh@@
jahr@@
aktu
män@@
preis@@
Softwar@@
sentation
digitale
geri
Frem@@
Brunnen
isch-@@
Kind@@
Keram@@
Frü@@
genommen
Uhr@@
Bibliothek
ד@@
Förderung
А
kurz
ölle
genutzt
weisen
Nicht
setzen
Jahrhunderts
Möglichkeiten
alismus
gestellten
tiker
Sollten
Geburt
sofern
』
Thessal@@
uld
Segel@@
Cafés
nir@@
epage
pri
Frei
Recher@@
bestimmten
Luft
Umwelt@@
fünf
tende
sitz@@
nte
trotzdem
ор
kompet@@
Zentr@@
Lust
rency
meist
vorhanden
ebenso
kunde
eigentlich
GIM@@
----@@
Mens@@
rufen
tiere
gelt
Kategorie
sucht
jedem
Reihe
ی
Frühst@@
europäischen
Nachdem
ა@@
ส@@
Telefon
geräte
kennen
Deine
licht@@
،
נ@@
Ш@@
elegante
・
tierung
darin
Integ@@
Gesetz
nummer
Linie
ат
п
µ
technologie
dete
stätten
sicherung
kredi@@
stahl
Haftung
Grafiken
Vertrag@@
reif@@
Klima
fang@@
Südti@@
ctu@@
Dev
Singapor@@
endlich
ograf@@
nun@@
effectiv@@
wann
Profil
eeded
tete
ritt@@
unger@@
theit
teile
م
Management@@
Pariser
fragen
Prag
Krä@@
annen
Lieder
suchen
Nürn@@
Η
minuten
Patent@@
gä@@
þ@@
entfernt
obwohl
gesamte
euer@@
darf
Größe
konz@@
Satz
Chef@@
finde
achten
leistungs@@
Anfang
funktioniert
Studie
klein@@
produzi@@
angeboten
abili
gesamten
alem
hrt
Norm
Seu@@
Philosophie
Himmel
Hemm@@
ihnen
و
derung
führung
energie
wasser@@
gemein@@
Klasse
stellung
produktion
Produktion
Bestellungen
bildungs@@
verwenden
Energie@@
bleiben
sieht
europa
Handel@@
Materi@@
haps
Jetzt
bry@@
hä@@
relation@@
Bade@@
Führer
Glas
ruppe
spiri@@
Wirk@@
gebo@@
nden
mediterran@@
Frühstücks@@
ض@@
entwicklung
wälte
braucht
Herz
echter
wach@@
Wahrheit
Außerdem
Lager@@
Kommunikations@@
wissenschaften
management@@
Strö@@
deh@@
ц
Millionen
musste
Konfer@@
laufen
Kritik
Erlebnis@@
mindestens
Besuch
meister@@
Nachrichten
Vorder@@
duzi@@
lier@@
spei@@
ე@@
Saison
Alumini@@
ändern
14.
urlaub
druck@@
Gitar@@
ßen@@
sah
ennen
schli@@
freie
anbieten
Gründen
dauer
schafts@@
Beginn
undes
berichtet
Schäden
ļ@@
ausgeschlossen
ऐ@@
emotion@@
II.
estock
emost
advant@@
satz@@
Qu
eget@@
posedly
w.
Nok@@
Lanz@@
ί
Kanal
Diagr@@
Anf@@
tags@@
Dem
Häus@@
Prem@@
Bluet@@
hectar@@
lands@@
äuser
nungs@@
gebucht
alig
losen
Spann@@
stets
Betten
Künstler
Aussicht
erwartet
Wissenschafts@@
kultur
stieg
Logistik
ziert
Schwein@@
wesen
lokal
aktu@@
becom@@
tischer
ст
Denn

gkeit
nahe
Literatur
skri@@
sicht
Klimaanlage
Wellness@@
handelt
Wochenende
Stahl@@
zehn
Schiff
מ@@
Teile
tene
Versicherungs@@
Montag
genen
kurse
ießen
übernimmt
Arbeiten
Marke
Kreis@@
geln
Geburts@@
ॉ@@
erre@@
Manche
Anschluss
ittee
Friedens@@
gehört
beh
establish@@
Thyssen@@
Sech@@
ghout
Π@@
groß
textu@@
gesetz@@
Mehr
eht
Lebens
zusätzlich
refri@@
vertre@@
Inner@@
vertrag
Stil
Herzen
本@@
ώ@@
tsp
gesp@@
stätte
betriebe
bräu@@
gere
Autobahn@@
wobei
accomm@@
üren
äst@@
，
verwaltung
Erfahrungen
Studien
tungen
Glau@@
brenn@@
Vielen
Europä@@
besonderen
Museen
ologischen
denken
banken
thaf@@
anlage
prä@@
abge@@
อ@@
ก@@
raffin@@
wissen@@
Grenzen
Prior@@
Spaß
arien
meinem
entspricht
gestellte
Ausbildung
hör@@
Modell
Dokument@@
erfol@@
Laut
trägt
stabile
Körper
E-Mails
zeug
Nicht@@
masch@@
sicher@@
gische
Kreis
Gemein@@
informieren
beispielsweise
Ausgabe
Pharma@@
veranst@@
Schatten
grundsätzlich
veröffent@@
Auftraggeber
President-in-@@
comings
erei@@
Schaden@@
risk@@
ärm@@
Bericht
Europäische
Güter@@
grä@@
parti
ahnen
deshalb
lichem
Typ
iges
ligen
erfüllt
Leider
angs@@
zusammen@@
Innenstadt
Parkplatz
stuhl
Paradies
Õ@@
12.
lü@@
hören
besuchen
riffe
rede
meinen
Konferenz
itä@@
barer
zent
schloss
sozi@@
Rechte
Luxus
zahlreichen
ografie
Wochen@@
Kredit@@
äus@@
relativ
weis@@
enthalten
jeweiligen
linge
Zweck
Nationalpark
llen
Gesundheit
schulen
kaufen
komplett
Regel@@
sst
tivi
modell
Dienstleistungen
Motto
Entscheidung
baut
hält
Regel
ktion
krei@@
erwarten
Deck@@
geschützt
üsse
anen@@
fahrzeuge
Grundlage
Erfahrung
beachten
Mitglied
Folge
nord@@
geschrieben
Eigentum
bildung
einhei@@
staste
halts
seines
pread
kern
zah
Motivation
Dritte
vention@@
agem@@
deine
entsp@@
leiter
Instrument@@
Europäischen
wür@@
einge@@
derzeit
grün@@
mung
dennoch
anderes
Ideen
dische
interne
Ordnung
änder
Zustand
ан
的@@
arbei@@
Fernsehen
Eingang
bereit
feste
gericht@@
dadurch
Sendung
tät
Handels
räu@@
familie
hebt
stige
gekommen
Paket
ว@@
Kontakt@@
haltung
heißt
cru
gelegt
wirk@@
bekommt
Dich
stabil@@
Direkt@@
Veranstaltungen
sagt
Vergleich
Antrieb@@
bevor
Minu@@
testen
Ergebnis
Landschaft
Unternehmens@@
unterstützen
Lösungen
stabil
Teilnehmer
ausdrücklich
Regional@@
netz@@
Anzeigen
Studium
messer
Haft@@
Fün@@
leistungen
helfen
schaft@@
Verbraucher
घ@@
ँ
gleich@@
Osten
unpreced@@
rats@@
regel@@
Wiss@@
Ι
Frieden
Skri@@
Kapit@@
fangs
besit@@
sorge
zö@@
What@@
Augen@@
Software@@
Aufenthalt
kör@@
informiert
XPress
wache
Bundesrepublik
ύ
enorme
täglich
Sachen
Große
Uns
Haup@@
Stellen@@
Mär@@
kostenlose
änd@@
ง@@
gegen@@
zeu@@
Aufgrund
Schlaf@@
teilen
willi@@
sauber@@
Reise@@
gie@@
ж
erlaubt
bedeutet
bares
gewesen
legung
Fuß@@
Benutzer
Ð
ั@@
verarbeitung
Treffen
jährige
Universum
Wunsch
schnei@@
automatisch
elim@@
öhne
handel
bürger@@
später
Vieh@@
ה@@
merk@@
Marketing@@
lieferung
Augen
Kapital@@
verst@@
mittel
reichen
keinerlei
trak@@
Werkzeuge
präsentiert
ausgeliefert
ierten
unterstützt
Autor
Änderungen
velop
schriftlich
klim@@
reihe
Angabe
ilater@@
schwer@@
indispens@@
rael@@
Zustimmung
thern
Versch@@
Krebs
Κ@@
Carib@@
kä
Sark@@
Handbuch
β
lings@@
Kloster
aktiv
Anzahl
bestimmt
reland
Beam@@
geboren
nachts
Kupf@@
Speicher@@
mehreren
bequem
hilfs@@
Tä@@
Ado@@
sern
Regen@@
warum
Balkon
heits@@
Athen
Medizin
Menge
appe
fäl@@
agt
Haut@@
ologische
vorbei
Dün@@
Δ@@
gewal@@
lieb@@
kleiner
Kommission
Ostse@@
ω
einzelnen
grosse
Mutter@@
้
zahlen
Problem@@
Leben@@
dienen
ectiv
Medizin@@
erfahren
Ländern
文
schein@@
gesehen
bist
teil
leist@@
periode
Produktions@@
Glücks@@
präsentieren
Cub
Kunststoff@@
erend
werte
Marken
Zeitpunkt
Jeder
ammlung
folgen
Anforderungen
Vereinigung
Verwen@@
haftet
ferner
Bedeutung
̈
Roh
ू
Schulen
Schritt
stung
Pilot@@
Legitim@@
Liss@@
Kopf
Balkan@@
Lii@@
platte
Wort
15.
bestimmte
buchen
positiv
schöner
Insel@@
lern
Wünsche
``
ätz@@
Datei
veren
legend@@
wenige
ausgezeichnet
liger
kommend
gesucht
saubere
い@@
tücher
和@@
Universitäts@@
sprechen
Warum
Ufer
passt
tlichen
morgen
iken
Katalog
engag@@
dren
woh@@
Spiegel@@
erreicht
heit@@
ausreichend
ท@@
พ@@
ม@@
tlich
schil@@
Verantwortung
Meine
bildet
sechs
SQ
Fitness@@
dliche
nimmt
Fahrzeug@@
warten
Æ@@
Autos
ג@@
blä@@
ckt
stä@@
dert
←
ölk@@
ieb@@
zufrieden
Schmu@@
Skul@@
dritten
änden
Schriften
elektro@@
Themen
spielt
Vermögens@@
anien
vollen
Zuliefer@@
infrastruktur
andinavi@@
nör@@
Exempl@@
Å
Ì@@
spiegel
casus
Ľ@@
ķ@@
Städte
˚
ungen@@
jü@@
Heimat@@
losen@@
lizi@@
erungen
ßer
ergi@@
tigkeit
frage
Mandri@@
diente
würden
Zukunfts@@
Erbe
toff@@
wacht
Ruhe
ossen@@
Mutter
authenti@@
Blut@@
zweite
Bett
aufge@@
bekannten
personen
lehr@@
prei@@
Monate
Fuß
Technologi@@
gnet
Abteilung
zus@@
19.
Webseiten
schö@@
ิ@@
Bedienung
verfahren
überall
verstehen
bliche
leitung
gesetzt
Nav
Gewinn@@
Produkt
Bonus@@
kleines
lediglich
Steck@@
Renten@@
digung
Eig@@
sionen
hohen
ف
ב@@
ן
Griechenland
Training@@
ruf
flug
gleichzeitig
Freund
Heimat
unseres
presti@@
faszin@@
interessiert
gewand@@
läuft
Netz
zeichen
freien
bür@@
wissenschaftliche
welt@@
platten
Frankreich
verwal@@
Mitgliedern
Modul
Behandlung
Struktur
Recht@@
denden
Kuli@@
formen
Zusammen@@
endet
Kurz
Bestimmungen
trag
Zun@@
blei
verlangen
funden
geleitet
ѓ@@
ई@@
ु
threat@@
Ï
abei
Roma-@@
Progno@@
ungsver@@
schau@@
umpen
Politik@@
gesetzlichen
gebung
sprachige
begeistert
Standard-@@
Fuss@@
Trotz
freundlicher
kombin@@
Sekunden
ameter
hohe
wollte
require@@
Bereichen
Konstruktion
jedes
Betreuung
langs@@
spricht
Kirchen@@
Rechts
erter
anken
legt
語
zahlung
verbin@@
inklusive
großes
Fels@@
widri@@
Dritter
fiel
Geräte
ektur
rücke
abteilung
Sied@@
erstellt
Bewegung
Sicht
zäh@@
Geburt@@
Dass
begonnen
politische
treten
Wetter
Amts@@
einiger
fanden
Krankenhaus
Prozess@@
13.
zahl@@
reib@@
Sollte
hän@@
byl
ität
Kampf@@
solche
wichtig
persönliche
sü@@
Eintrag
wh
wachs
weisung
Dialogs
Funktionen
ّ@@
Investi@@
Männer
jungen
förder@@
Runde
Jubil@@
Gefahr
■
zeitige
objek@@
छ
Bedingungen
Ï@@
uttle
länge
Repar@@
Amend@@
ssier
oboda
Jarz@@
orien
repub@@
nec
Präsident
Polizei
Är@@
Danke
sorgen
verkehr
dungs@@
freund@@
schönsten
scheint
tä
ذ@@
gepf@@
orten
öne
大@@
notwendig
gewo@@
funktion@@
deut@@
ameni@@
kompon@@
Gebir@@
nü@@
ē
leistung
existi@@
wehr@@
großer
speziell
reichhal@@
folgenden
gebor@@
welcher
bauen
Einsatz@@
konom@@
besu@@
alifor@@
eingang
Ziele
erreichbar
ehmer
komme
überhaupt
Umgang
äs@@
netz
vidu@@
zeichnet
verantwortlich
sagte
bewer@@
Karte
16.
zige
äder
Rennen
Stimme
mehr@@
gebaut
Zucker
Funktion
Flugzeug@@
ط@@
★
Gruppen
unterwegs
schnelle
ähr@@
Bucht
Datenschutz@@
Ц@@
sicherungen
ziehen
individuelle
gelief@@
Kann
Einfluss
Zus@@
Monat
nisse
ع
Aufgabe
wiesen
wenden
Registrierung
grös@@
einzelne
erleben
Datenbank
Erhalt
trieb@@
setzung
Beratungs@@
trags@@
Anbieter
Ausland
sektor
झ@@
adjust@@
etrie
dank
stamm@@
kurs
assu
Rede
lare
höh@@
blau@@
Innsbru@@
Ć@@
Dire@@
Lassen
Noten@@
halt@@
kaner
bedarf
Beste
geschi@@
betre@@
benutzen
morgens
Insgesamt
Wun@@
Flair
dopp@@
führ@@
leger
Freizeit@@
Schad@@
ű
grü@@
nahme@@
Gebrau@@
verkehrs@@
politischen
möglichkeit
一@@
Regierung
ζ@@
endu@@
jemand
Abwicklung
knapp
Einrichtungen
verfassungs@@
Werden
Kommentar
stigen
wechsel
atische
Wissenschaf@@
Multimedi@@
Schlag@@
Keine
suche
Stunde
dunk@@
entsprechenden
Weihnachts@@
zeichnungen
Eigenschaften
kontrolle
durchgeführt
Aufnahme
Gestalt
ел
Materialien
Auftrag
Geschle@@
Geburtstag
Gegenwart
campa@@
24.
Verpackung
Grüne
erneut
Zell@@
küh@@
geber
Riesen@@
Neben@@
vierte
Herrschaft
difficul@@
פ@@
Gesetz@@
Weiterbildung
angebot
Farbe
bearbeitet
gesagt
Zwischen@@
folgende
fertig
sprachigen
Beruf@@
folge
enthält
Vertrieb
Zahn@@
Dienstag
Filme
ч
obj
schluss
soziale
Abenteuer
Kapital
vorher
Veranstalter
regierung
Än@@
glichen
Hongkong
Spek@@
Kompetenz@@
▒
Verpack@@
privaten
FÜ@@
Besteller
Weitere
stoffen
Planung
möglichen
Liecht@@
Waffen
Gewalt
Dubrov@@
wech@@
Demokratie
sover@@
aktion
gramm
Bord
russ@@
ied@@
isierung
Arbeit@@
Siem@@
leiten
Meil@@
Beiträge
Eindruck
Wirkung
werken
fft
Baron@@
legte
Verkauf
Gebiet
Badezimmer
änger@@
Null@@
Firmen@@
Kurs
Zeichen
Papier@@
kri
euch@@
π
Wellnessbereich
orik
formuli@@
な@@
titel
Verhältnis
benötigen
fühlt
Saal
Straßen@@
beide
stol
anges@@
Verkehr
disziplin@@
Familien
äum@@
Geschmack
natürlichen
verfügt
sprech@@
wenigen
tü@@
Prüf@@
Schon
Klick
fordert
lief@@
Vulkan@@
agent@@
İ
Feier@@
ё@@
nächste
selbst@@
Dazu
Wirtschaf@@
Norden
skal@@
kommenden
Zahl
rele@@

rän@@
renovi@@
abzu@@
karten
surv@@
Noch
Lösung
Dez@@
Hinweis
ث@@
Polizei@@
cherung
änge
Bevölkerung
Anlass
wahr@@
Anlagen
Vertriebs@@
Versamm@@
eröffnet
ط
Westen
entstehen
aß
Netzwerk
aussch@@
È
schwar@@
gesetzes
Entwicklungen
wirtschaftliche
geworden
ervice
steuer@@
Ò@@
igung
tief@@
kauf@@
spartner
Feld
funktion
spieler
nutzung
übernehmen
griechischen
Firmen
Fotografie
fahrts@@
Posten
Lobby@@
starker
wies
licy
fähigkeit
zung
increas@@
fac
Waldner
Feh@@
arbeiter
neh@@
Öko@@
Höh@@
Platt@@
akte
britan@@
schlecht
technische
Helsin@@
inien
kommende
besondere
Funktion@@
Zimmern
ausser@@
spät
ン@@
Grünen
Zentrale
Veranstaltungs@@
schauen
σ
ermöglicht
gän@@
günstig
Krieg
Öffentlichkeit
wirtschafts@@
Erinnerung
Grow@@
brauchen
ausstellung
Š
bitt@@
Rec
deinen
persönlich
treff@@
Swimmingpool
რ@@
ი@@
ย@@
schal@@
frühen
Termine
Istan@@
Erholung
kosten@@
Vielzahl
Arbeiter@@
historischen
wichtigsten
dungen
简
Eink@@
benötigt
Meinung
abler
Spanien
21.
Mitarbeitern
К
aufmerksam
آ@@
צ@@
rehab
Plattform
örde
erfahr@@
starke
ürk@@
Umsetzung
Urteil
ה
Í
heutigen
Betreiber
wichtigen
struktur@@
Sind
exis@@
wählen
fikation
Rats
Herstell@@
schützen
Konzert
figer
Datenschutz
tenden
Fehler
Papier
tigkeits@@
US-Dollar
versi
spreis
wende
Stich@@
hafte
glei@@
Verwaltung
träge
Aufbau
ischer@@
erhält
seitens
Hypoth@@
häufig
konstruk@@
möglichst
erforderlich
gebene
bsp
schrei@@
Krise
『
Ansprüche
Gewinn
schrif@@
richten
Arzneimittel
भ
walt
Schiffs@@
agri
lich-@@
stö@@
Erst
abri
ǎ@@
ritte
vergessen
Thail@@
ansch@@
verloren
Ansch@@
fung
Stück
Parlament
stig
stän@@
ː@@
Wasch@@
ห@@
Buchung
angebote
と@@
uten
könnt
Schnee
Frühstücksraum
echte
fahrer
Gebäude
cli
Fang@@
siehe
bereit@@
の@@
Architekten
beschäftigt
verdienen
Viertel
geschlossen
bett
Tisch
Cyp@@
Kanz@@
kön@@
Direkt
Milch@@
mischer
außerhalb
Ganz
spazi
therapie
Ecke
Körper@@
Pensionen
ო@@
ლ@@
fällt
ünd@@
angenehme
kräf@@
kulturelle
Tipps
Ohne
Geg@@
18.
Termin
Listings
angebot@@
gespeichert
І
Seiten@@
kunden
weiterhin
Fußball@@
schlechten
aktive
jährigen
Harmonie
behand@@
Schrif@@
bsp@@
Orts@@
bezahlen
zumindest
Publikum
Kongress@@
behandelt
ш
füh@@
ט@@
ם
schwer
spieg@@
willigung
chtet
einander
entstanden
erfolgreich@@
erweitern
Dreh@@
gebi@@
schlagen
Willkommen
Voraussetzungen
Wird
schwarz
steller
füll@@
wechsel@@
einzu@@
erenden
Hochschul@@
Bildern
wellen@@
Mitglieder
Eltern
aktiven
Genehmigung
bezüglich
wirken
produkte
richtigen
Sieg
gegn@@
bezeichnet
erstmals
Kandidaten
Wert@@
Liste
anischen
Übersetzung
modells
verändern
bedingungen
planung
trägen
Veröffentlichung
Ärzte
gestalten
─
gebro@@
präsen@@
führenden
Abschluss
Irr@@
niti
Aufgaben
zunächst
rechtlichen
fehler@@
Ents@@
glichkeit
elektronischen
Љ
Д
╚
╩
ritter
Massen@@
nitt@@
beit
Hilfs@@
ergi
Szen@@
Fratt@@
Stolz
ommer@@
lische
lösung
Volk
räf@@
ellschaft
luß
regelmäßig
Wohnung
danach
ßt
Gleich@@
betrieb
linie
grund@@
Wissens@@
gutem
Mitteilungen
Toskana
Trä@@
Kombination
Viel
tierte
blei@@
Fähr@@
И
völlig
wachen
北@@
schaf@@
bessere
Fremd@@
strei@@
Deshalb
geh
reicht
äußerst
inzwischen
U-B@@
alistische
Throu@@
zahlreiche
Gemeinschaft
Hauptstadt
Komit@@
Statisti@@
22.
Zigar@@
körper@@
beginnen
Wunder
wirkt
Geschi@@
Kontrolle
Geist@@
Tarif@@
Trink@@
Kön@@
Auswirkungen
hoh@@
steigen
erklärt
̍
fass@@
Elektron@@
Œ@@
sierung
Erlebnis
rupp@@
Oase
echten
Zeitraum
Dort
食@@
zü@@
Modus
Schlag
ک@@
¯
Australien
könnten
tigten
ј@@
passen
Leucht@@
reiche
Käl@@
Roten
aufzu@@
wichtige
Methoden
Widerstand
Sofern
Autoren
Grafi@@
bungs@@
voller
kompl@@
Allgemeinen
Unternehmens
eingesetzt
Ç
Pri
propri
Dien@@
sieben
Fußball
Kindern
schicken
Kabel@@
fälle
tseite
freu@@
stür@@
Gemäl@@
Zwecke
Ihres
Stück@@
Kooperation
ländern
ingredi@@
ihres
ț@@
Durchführung
Gerichts@@
Beschaff@@
Internetseiten
itäts@@
Stellen
Alkoh@@
Ebene
mien
plom@@
Logis@@
glau@@
Wandel
Nutzen
Maßnahmen
sparen
territ@@
Ersatz@@
keiner
unverzüglich
akter
Auge
Haben
gemütlich
ört
stimm@@
Ferienwohnung
hüb@@
weit@@
Anmeldung
früher
Grün
sicherheit
heraus
chern
Grundlagen
halb
Zudem
charman@@
klassi@@
Mahl@@
onds@@
gezeigt
て@@
三@@
Aussch@@
国@@
azz
Binnen@@
Kaffe@@
Nein
incredi@@
ständig
aktualisiert
）
bericht
Verw@@
proz@@
Doppelzimmer
台@@
füllt
nachten


stands@@
thilfe
ი
Sehenswürdigkeiten
Formular
海@@
ุ@@
น
Empf@@
ordentlich
beschreibung
chtungen
teres
ierungs@@
道
beginn
punkte
mittlerweile
Basis@@
haften
ermöglichen
Experten
wahl@@
Gelegenheit
Bücher
gehören
Bereits
ehem@@
Ş
Szene
Kontroll@@
abwechslungs@@
genießen
änder@@
bestellt
tsprü@@
ק@@
Freien
aufs
י
Muster
ғ@@
ң
Inseln
durchaus
losoph@@
elev
normale
Börsen@@
holen
raft@@
erleb@@
vorne
Stör@@
faktor
Kollegen
Rub
Etwas
verein@@
ranken
leisten
kalische
Vorteil
Fällen
nämlich
anzu@@
flug@@
lieben
technisch
Netzwerk@@
stellte
Patienten
gehende
Obwohl
echnologie
Begriff
nutz@@
Schaden
schaden
Donnerstag
Kilometer
Gebrauch
Spielen
Diskussion
prozess
konstru@@
Verzeichnis
denti
haft@@
diversi
traum
vollständig
Mittelpunkt
welchem
Dokumentation
Werkzeug@@
gültig
E-Mail-Adresse
sensi
Я@@
kapit@@
projekte
Gespräch
Herren
♥
Fertigung
zeuge
Nachhaltigkeit
Innovations@@
Flug
heiten
Soweit
Dolomiten
Dienst
Herausforderungen
verordnung
Inhalten
zurückzu@@
exklusive
Entsor@@
gesell@@
ģ@@
Energi
ständigen
Vergnügen
serklärung
Spektrum
Vermittlung
fizi
rapporte@@
schung
anders@@
Damen
befu@@
Kyoto-@@
Charta
ğ
erkennen
Mädchen
Zucker@@
ahe
Maastri@@
gesetzliche
wärts
Millenni@@
innen@@
begrenzt
Suiten
stä
mittels
toren
landschaft
Ferienhaus
türk@@
Hinweise
keiten
grö@@
新@@
habt
Neuen
Dinge
här@@
näh@@
Reco@@
gestalt@@
besucht
vertra@@
Zauber@@
Hauses
flächen
wohl@@
kostenfrei
alleine
fehlt
Gefühl
ausstattung
Fuss
chtes
größten
ichte
entwickeln
上@@
出@@
leben@@
ะ@@
ค@@
teuer
wollten
komfort@@
geöffnet
Original@@
Lohn@@
20.
Preis-Leistungs@@
prestigi@@
sprach@@
moderner
Einkaufs@@
abhängig
Gemeinschafts@@
hervorragend
versicherungs@@
ศ@@
ี@@
sprach
wissenschaftlichen
ameri@@
Christus
Schott@@
öse
zeich@@
profi
erhältlich
freiheit
gewinnen
Abendessen
desto
kraft@@
sache
teste
brasili@@
ultur
gep@@
Gesellschafts@@
aufgenommen
d.h.
richtige
warme
Risi@@
ט
ר
บ@@
annt
angeb@@
Anschließend
liebt
gesellschaften
spätestens
fläche
Darüber
lierung
versuchen
arri
Architek@@
gestaltung
sorg@@
bisschen
Wahl@@
heraus@@
lädt
stufe
selben
Anwendungen
hyth@@
Wandern
Fahrzeuge
об
bekannte
anhand
einerseits
Darstellung
medizinische
kehr@@
ständen
≥
vergangenen
Lehrer
medizin@@
Nummer
tierten
getragen
Verbesserung
Bilanz
Agent@@
charakter@@
erweitert
Prozesse
Gruppen@@
Investment@@
gewonnen
Finanzierung
neh

Irak
Ägypten
mische
Linke
verzeichnis
bücher
Betrag
φ
Erfüllung
hafter
willen
sozialen
zogen
grossen
verhindern
mingham
zählt
Perspektiven
bestehen
jahres@@
steine
Kamera
Tennis@@
Passwort
rechtlich
Karten
Quellen
Folgen
Richtigkeit
erfolgen
Schüler@@
Publikationen
EWG
Kranken@@
entsteht
ergeben
stehenden
äufers
diensten
erschienen
ѕ@@
größt@@
आ
Ì
Thessaloni@@
Antwort
Ρ@@
Armen
Parlam@@
Krank@@
ingt
rescu
≤
enhagen
Brot
stücke
selber
empfehlenswert
erscheint
becken
renoviert
Wikitra@@
Tourist@@
ด@@
gerät
unkomp@@
fordern
Reak@@
schlag@@
Breite
genug
Dritten
Ausgangspunkt
Ausblick
ausgesprochen
individuell
herz@@
Besonders
0er
apel
Zeitungen
tritt@@
Anreise
berichten
人@@
ต@@
Johannes@@
einzige
sicherlich
Dienste
bedürf@@
seh
gestern
beschei@@
frisch
Hels@@
gestattet
besser@@
schiff
ßer@@
angegeben
Zahlung
seri
gingen
Untersuchung
ttä@@
bestens
Einheit
offizielle
vergleich@@
ს
მ@@
ierter
ง
praktisch
negativ
istischen
gänge
geholt
Radis@@
Etage
fragt
beschreibt
branche
smus
Kür@@
motivi@@
kunden@@
Venedig
rechnung
Projekten
Insbesondere
jener
squ
viron@@
Bewegungs@@
eits@@
hiermit
unbedingt
begann
Miet@@
relevante
Arten
Internationalen
Steuer
ohl@@
efen
Zusatz@@
Telekommunikation
dagegen
verbunden
tätig
wicklung
schem
zieh@@
hätten
beweg@@
übrigen
niti@@
typischen
rechnen
gesi@@
vereinbar@@
Febru@@
kennt
arbeitet
Aktivitäten
Spazi@@
Produ@@
erfolgreichen
entscheiden
prozessen
arbeits@@
Organisationen
neuesten
Geschäft@@
verboten
kamen
probieren
staatlichen
zeug@@
wünschen
steigt
vermögen
Prozess
riffs@@
Objekte
dazu@@
direkte
erzählt
Weih@@
chungen
öffentliche
einfache
sichtlich
Konstru@@
zte
Mittwoch
ektor
Betrieb
quellen
Erlaubnis
eingesch@@
neun
lös@@
lassung
melden
liebe
Einfl@@
Schüler
getestet
sieb@@
betrieben
profil
wartet
schungs@@
Präz@@
klus
Berat@@
versprechen
Geschenk
leidung
bege@@
Unternehmer
vereinbart
Urlaub@@
lässi@@
˝
zeugen
vieles
kalischen
erober@@
Konzerte
ehrt
befinden
liefern
beruht
behält
genügt
ञ@@
ruhe
nische
arier
Beru@@
Zivil@@
Werte
tigungs@@
Flu
Lös@@
paket
discuss@@
Benj@@
geschlossenen
äte
ệ@@
ạ@@
gerecht
servi
schicht
berechnet
Meeres@@
liebe@@
Kanada
installiert
Boutiqu@@
angepasst
Acht
Effekt
darunter
hunder@@
Agrar@@
ト@@
し@@
gezi@@
Krebs@@
Beziehungen
entschieden
kräfte
Ausser@@
ư@@
tnis@@
tigte
Bezir@@
pati
eigenes
Klicken
ickt
hä
ruhi@@
Verletzung
Formen
lokale
Untersuchungen
Parkplätze
messen
Ď@@
dekor@@
letz@@
leid
tenen
寺
kurzer
Räume
schließlich
bricht
Touren
vierten
diesel@@
Interie@@
Spezialitäten
Rüst@@
schiff@@
U-Bahn@@
bilden
Forst@@
Grafik
Veränderungen
zugleich
intensiv
welchen
lief
Jahrhunder@@
gik
virtuelle
lichkeiten
lösen
Weihnachten
Stimm@@
beträgt
profitieren
Musiker
damals
Gelder
eckt
Γ@@
solide
igkeit
ск
gedacht
̤
Konzepte
zentr@@
Gutes
passiert
Kauf
gehalten
Kalender
vertreten
Bier
übernommen
Auftritt
sorgt
atischen
stau@@
市
perfekte
länger
gether
‐
zählen
wichtiger
Hintergrund
tert
kurze
Konz@@
schrau@@
Hohen
Vielleicht
nien
gelun@@
Grafik@@
Zeich@@
ischem
Vaku@@
werfen
elektr@@
Opfer
Gewährleistung
klicken
nachdem
Anfrage
entweder
verbessern
Regelungen
karten@@
Modelle
Interess@@
umfasst
unterschiedliche
thermore
ICHT
untersucht
Funktionalität
verarbeitet
halte
gkeiten
führte
ə
allgemeinen
ِ@@
ösen
Ereignisse
gewinnt
geschäft
Regeln
weiterer
Echt@@
Geschäftsführer
○
Teilnahme
nahmen
trags
getroffen
Welche
Datent@@
händler
√
machte
Spitzen@@
ɐ
getra@@
genannt
flexibel
kün@@
tiven
Finnland
fün@@
folgt
Empfänger
Gastronomie
Betrieb@@
Entwickler
Treffpunkt
Textil@@
Vervielfäl@@
Bereiche
direkten
dritte
ungser@@
festgestellt
rolle
Sicher@@
頂@@
bauten
gemeinsamen
süd@@
elemente
lehen
planen
Ą
einzusetzen
Ћ
geführt
deva@@
OEC@@
herum
ettering
Letz@@
Ο@@
26.
finanzi@@
Traum
jähri@@
Partei
Vielfalt
ș@@
Amt
strö@@
verni@@
Kurs@@
30.
25.
genügend
Nizza
ologisch
Allerdings
Renovi@@
Mittag@@
erhol@@
博@@
verlangt
preise
lern@@
イ@@
た@@
か@@
Machen
bearbeitung
irgendwie
selten
artik@@
weiß@@
ziem@@
setz@@
unmittelbarer
wunderschöne
下@@
ま@@
angegebenen
plac
österreichische
Streit
Identität
Preisen
tagen
Türen
reibung
白@@
Verständnis
viert
emand
bindung
dür@@
internationaler
integriert
Lissabon
völ@@
übertragen
kehr
Staat
Büro@@
Niveau
sendet
Bezug
gebäude
sonni@@
Indien
ativen
verschiedener
phys@@
empfohlen
sprechend
Ô
sende
vorstellen
Schwierigkeiten
unmittelbar
Küchen@@
Mindest@@
Herausforderung
gesonder@@
Süden
Erforschung
antiken
Pflege
zeichneten
etzen
Überblick
Märkte
verändert
professionell
selbstverständlich
vereinigung
wünscht
ŏ@@
27.
vermeiden
mein@@
Daher
größte
dachte
gebot@@
angekommen
gepflegt
hochwertigen
luss
Spitz@@
assum@@
basiert
eute
entwickelte
reibungen
polizei
Garanti@@
ötz@@
ehear@@
zusätzliche
ψ@@
Publik@@
behalten
Technologie@@
hinweisen
fassen
Platten@@
erzi@@
konserv@@
Verhalten
Händler
Leiter
Verlauf
nieder@@
duktion
prozesse
Behörden
höchsten
einschließlich
Vorteile
Umständen
technischer
Ausführung
sbru@@
schließen
Lizenz@@
fliegen
17.
ablish@@
statt@@
erinnen
Städten
einfacher
lieren
Entstehung
Versuch
stattfinden
Sorge
Geheim@@
massiv
austausch
sech@@
klass@@
stunden
Achtung
Geschäftsbedingungen
sibili
fährt
thand@@
verbindungen
Auftrags@@
23.
Kenntnisse
schlä@@
vielsei@@
muß
ktion@@
ruf@@
schaffen
Hund
wä@@
linken
fizierung
Einige
klusi@@
verlin@@
Glück@@
geniessen
ränk@@
Änderung
räum@@
lischen
Gesell@@
Leitung
schnitt
ď
siert
克@@
weist
jährlich
Sitz
atoren
Garantie
Aktualität
eriert
Wahrung
hinsichtlich
beda@@
beziehen
schulden
Wunsch@@
endung
beru@@
Branchen@@
wettbewer@@
westen
Studenten
Û@@
unterschiedlichen
ueber
Paket@@
Straf@@
Industri
behal@@
Europ
Oliven@@
Rass@@
Rotter@@
Chechn@@
Zoll
amentary
Β@@
kanz@@
herzlich
utzen
medi
laration
anschau@@
gelernt
Donner@@
Allgem@@
Komponenten
Wegen
arische
äres
Anbindung
ücks@@
gebot
motivi
abgeschlossen
eck-@@
ء
天@@
Diesel@@
Standort
Ankündigung
altet
lebt
Ankunft
verständ@@
路
ッ@@
ス@@
い
anmelden
zuerst
manchmal
geleg@@
ebt
hü@@
Rund
bedien@@
däm@@
kulturellen
Handeln
affen
sämtliche
Gewi@@
Nachmittag
Systemen
Lav
ら@@
用@@
に@@
Freizeit
Dienst@@
künstler@@
erstes
geschickt
getrennt
Entspannung
Alltag
intel@@
แ@@
南@@
nerin
Personals
Voraus@@
interessant
entgegen@@
räumen
opf@@
englische
highligh@@
Maus
ärer
（
Festung
Genuss
gescho@@
stücken
gestaltet
Dach
teilung
zugs@@
山@@
Eigentlich
verbindung
empfeh@@
groß@@
Russland
züge
solchen
kurzen
gebühr
Analysen
konfli@@
Mäd@@
verkehr@@
Protokoll
attraktive
verlängert
verstärkt
Einfach
neben@@
diges
Nächte
Italien@@
Thermal@@
Begegn@@
elung
beraten
Rev
professionelle
dün@@
Herrn
Lugg@@
ש@@
Karriere
Führung
ә@@
Verwal@@
Brüssel
veranstaltet
ehemaligen
fahrt@@
Hinter
-und
Tür
zwecken
Fahrer
sichtbar
ebene
ähn@@
wertung
ohlen
küste
entgegen
vereinbarten
üblichen
Schnitt@@
Mauer
entsprechen

fühlen
Korre@@
eindeutig
ɐ@@
rechtzeitig
Geschichten
geteilt
Immer
gespielt
greifen
pflich@@
externen
zigen
Ablauf
Mut
partei
prinzip
diskutieren
unabhängig
angem@@
Bedien@@
genauso
miteinander
zwecke
Gesam@@
darum
außerdem
Arzt
Wettbewerb
hängt
Logistik@@
Kopf@@
teten
pfe
veranstaltungen
Methode
angelegt
exklusiv
wahl
speziellen
Sprachen
↑
Unternehmer@@
vorgestellt
aktion@@
Begriffe
erklären
Verfügbarkeit
Eisenbahn@@
wissenschaf@@
zudem
Risiko
ermittelt
Prüfung
Õ
gemä@@
notwendigen
り@@
schluss@@
rechten
Zubehör
enswert
kein@@

konkur@@
erstellen
glich@@
Zuschauer
optimale
Einblick
≈
Therapie
Stoffe
seien
dentin
itäten
höhere
Dadurch
sfer
Ganze
Nordi@@
Reinig@@
Bezahlung
Zugriff
Gerne
Zuhause
Seele
gerei@@
Sicherung
entsprechende
rieben
Chr.
öch@@
Teilen
stände
gründen
entdecken
laub@@
Datum
anerkannt
stellungen
Vollständigkeit
verkauf
Dienstleistungs@@
pflicht
vorliegt
gelieferten
Selb@@
Antworten
änger
vollstän@@
Fotogra@@
Vortrag
Südafrika
wachsen
Ń@@
enseits
erforderlichen
geltend
schäden
individuellen
begleitet
Personen@@
regionen
Bearbeitungs@@
zulässig

Rechtsprechung
erhielt
erzielt
wien
⇢
seiten
Asp
leiden
bezir@@
europa@@
Verbrechen
wohn@@
ǔ
Chancen
fördern
ţ
Ú
zips
Schuld@@
beln
Instrumente
Rahmenbedingungen
fizi@@
erischen
produziert
geschmackvoll
geschicht@@
文@@
historische
常@@
レ@@
irgend@@
starten
klingen
wesentlich
nähe
prakti@@
gering@@
Blut
Dokum@@
geladen
künfte
seln
uttgar@@
zeile
lichsten
sitzen
liegenden
Stadtzentrum
kostet
Innenhof
ementi@@
wechseln
Temperaturen
wären
Übersicht
で@@
不@@
benutz@@
ärkt
Polen
sätze
Perspektive
Natürlich
在@@
gige
ɛ@@
ớ@@
zentraler
plötzlich
bildungen
bewegen
pts@@
komfortabel
Konzept
Regionen
ühlen
gelangen
Moskau
Eis
Kleidung
zustand
modernen
Lande
weich@@
organisieren
Asien
problemlos
Freunden
konferenz
Zwischen
beziehungen
üre
დ@@
modernes
hoher
heu
itts
ม
einig@@
höheren
ierungen
Erde
empfangen
Gärten
Tatsache
Kontak@@
Umfeld
Mineral@@
seits
Leist@@
Einstellung
hierzu
genannte
maj
Kategorien
Nachfrage
Schuhe
Ausnahme
meines
angebotenen
wünsche
üst@@
verhalten
Christen
stärke
stattung
Halt@@
ŭ@@
produc
nahm
japanischen
ätze
hundert
inves@@
Heizung
Eintritt
trieb
Kombin@@
duc
Präsentation
shil@@
Rubrik
momentan
mangel@@
trock@@
Metern
überra@@
vielfäl@@
œ
entlang
hilfreich
Brasilien
Bedarf
Persön@@
erteilt
ё
漢@@
gün@@
äden
gehabt
Kö
glaube
Einen
halb@@
Andere
etzt
́
passende
mögen
Verbindungs@@
Presse@@
setzte
Bewegungen
komplette
krieg@@
Landschaften
Dynamik
Hierzu
hergestellt
gebühren
E-Mail-@@
Ž
etzung
Bestand@@
Kampagne
Strecke
Öffentliche
Fotografen
mmen
leister
gezogen
etwa@@
contri
¸
Krimin@@
trifft
garantiert
Gedanken
medien
Vorbereitung
Rechn@@
andererseits
solcher
ypen
Danach
werten
besitzt
berücksichtigt
direk@@
struktur
spruch
gewi@@
ekten
laufenden
bislang
zuvor
გ@@
atisi@@
endete
Strategie
hause
angezeigt
richt
Φ@@
Spass
Bewertung
Drittel
alisten
alistischen
Wissenschaft@@
ernt
undet
gerung
Ю@@
Bestand
ähr
Kapitalismus
gefragt
erzeit
Gegensatz
kulin@@
umgesetzt
Ebenso
ementi
Kreditkarte
ehren@@
tliches
unternehm@@
Tagung
ssig
gliche
nahezu
inci
sozial@@
Struktur@@
entlichen
österreichischen
Tonnen
blieb
zeichnung
geliefert
Elemente
Summe
attrak@@
digkeit
schriftliche
bestimmungen
blichen
stellungs@@
nunmehr
Gewähr
Diskussions@@
Ÿ@@
stehende
fügen
Vorschriften
systemen
Überlegungen
ktionen
Neuse@@
Gehäuse
є
materialien
Anfragen
Jahrest@@
Gerät
ergänzen
schätzung
Vorgaben
eigent@@
Kontra@@
Kurse
vertrau@@
arbeitungs@@
interessi@@
Staaten
Ќ
Ф
Feri
splan
Schengen-@@
Wäl@@
Secretary-@@
basi
Annahme
Α
rupp
Armee
beut@@
Taus@@
explan@@
ennt
krimin@@
Journalisten
enorm
Erfol@@
Statistik
altes
ieden
erende
stechn@@
Joh
öffnen
liziert
bereiche
Verkehr@@
ン
woll@@
mern
Bruder
scheinen
perfek@@
modelle
strategie
freut
Tiere
llt
を@@
Schlafzimmer
spä@@
affung
lautet
有@@
Partnerschaft
Umsatz@@
schneller
ˌ@@
ล@@
ช@@
Grenze
abgel@@
ersetzen
wunderbar
verli@@
quare
unglaublich
enthal@@
Slideshows
probleme
Gesellschaften
Branche
nungen
Jugendherberge
höher
Unterkunft
charac@@
sodass
klu
stecken
doppel@@
gedruck@@
Platten
nochmals
Zins@@
zeichnete
regionale
ย
ข@@
ี
beschreiben
Juden
geschäf@@
schwarzen
Infrastruktur
Gelände
bru
zehn@@
weite
Anwen@@
industrielle
machten
网@@
starken
sichern
geschlossene
belegt
gaben
Blick@@
wenn@@
hervor
conci
ĕ@@
vorab
gebau@@
Selbst
ל
Gesicht
erw@@
zweck@@
freier
년
Fahrt
brechen
Gegen
annte
standen
stieg@@
häl@@
gegangen
projekten
‏
fossi
behörde
getan
ɪ@@
Rang
ierenden
schien
fiz@@
Ferien
günstige
Trocken@@
verbringen
endungen
qualität
Mühe
entstand
monat@@
Kommunikation@@
italien@@
Pfer@@
alisch
ル@@
Veranst@@
zurzeit
Teilnehmer@@
Logik
leitungen
Schnittstelle
geschafft
geschieht
Verarbeitung
maßnahmen
Risiken
verkaufen
firmen
Versionen
Anteil
multin@@
richtung
aufnahme
offiziellen
verlassen
besetzt
kürzlich
Kollek@@
aupt@@
Kolum@@
Regierungs@@
orientierten
nissen
Zeile
Erinnerungen
tausend
－
Banken
einfachen
basierten
Sün@@
versorgung
älter
hierbei
alitäten
verwendeten
ursprünglichen
Dokument
getre@@
forderte
gkeits@@
Kongo
taus@@
Ruf
gelassen
benutzt
Linien
bestimm@@
Mitarbeiter@@
Maß@@
ssigen
entsch@@
englischen
vertei@@
richtet
gungen
Argument
Turnier
Vorstellung
strah@@
Südo@@
Gebäu@@
Somit
Einstellungen
ärz@@
disku@@
Mängel
Missbrauch
њ@@
haupt
ehren
eriums
Kapitel
berühmten
willkommen
künst@@
größer
anwen@@
verfolgen
spezielle
offenen
trat
│
Sammel@@
rechnet
Konferenz@@
fundi@@
fassung
Stellung
füllung
Lernen
Standorten
verpfli@@
schnitt@@
eingeb@@
Regisse@@
berechnen
Auflösung
Felder
eister@@
Elektronik@@
schrieb
internen
zustande
Ursachen
Eröffnung
anbieter
Veranstalt@@
vermitteln
höchste
♪
reifen
wirtschaftlichen
Lebensmittel
Austausch
Dokumente
europäische
Technologien
ziel
gewählt
Ausbruch
Lauf
venti
Hintergrund@@
Aussteller
mittlung
tigem
wichtigste
˛
Herstellung
Aufnahmen
aloge
Vorsch@@
skosten
lässigkeit
löschen
Adressen
personenbezogenen
Vorjahr
wendungen
läng@@
organe
Berei@@
Göteb@@
Hinblick
methode
Milli
europ
Bisher
mechanis@@
obstac@@
sinn
mäch@@
malen
Akti@@
ώ
parlament@@
Solange
attemp@@
alisieren
einrichtung
Österreichs
senz
strecke
bezahlt
angt
feiern
flich
Dafür
ruhiger
genaue
Kürze
ca.
siedlung
Angeboten
nied@@
っ@@
ー
金@@
司
会@@
punkt@@
mäßig
aterie
löst
versu@@
Ω
märkte
Fisch
Seminare
netze
Vernun@@
asien
heiligen
köni@@
terin
Kompetenz
う@@
れ@@
思@@
korre@@
genossen
Certain@@
klär@@
ängen
adet
Gemü@@
Übernachtung
bende
Chinas
Präsenz
情@@
Abonn@@
geplant
ộ@@
ơ@@
ề@@
niemand
räder
fluss
mussten
einzigen
schir@@
gewohnt
schwierig
eingerichtete
Rechnungs@@
stimmt
netes
eile
Derzeit
krank@@
Menschen@@
Waff@@
einzustellen
ökonom@@
Tempel
abends
wieso
Heath@@
nitten
Frühling
Jede
blicke
ammern
Schwimmbad
entlich
hervorragende
zentralen
günstigen
erfolgreiche
teils
ไ@@
derte
Völker@@
Besitzer
Lärm@@
methoden
gehend
ßig
hilft
elektronischer
Tochter
Realität
Kamin
gesetzten
Verbreitung
Zentrums
Jeden
Aktions@@
Haushalts@@
verdient
Stimmung
Zusätzlich
mitteln
fehlen
fremden
zimmern
spartner@@
Länder@@
Austausch@@
berührt
französ@@
sozialer
Rande
umfang@@
Genf
Mailand
Tauch@@
erfasst
üblich
niedrig
verbesser@@
ähnlich
überzeu@@
entei@@
handeln
gegründet
istisch
üste
beantworten
Hubschrau@@
Motoren
stammt
verkauft
区
fuhr
̃
gangen
sichts@@
forts@@
Wahr@@
ח@@
Auslands@@
gekl@@
stattfindet
europäischer
aufnahmen
direkt@@
gerufen
endgültig
gelöst
Internetzugang
schlafen
entdeckt
näher
holung
produkt
Lebensmittel@@
gerechnet
fache
Entwurf
entstand@@
Aufsichts@@
Ë@@
fähige
bereitgestellten
packt
reduzi@@
Medikamente
Gipfel
französischen
verhältnisse
Bearbeitung
Herzlich
Deb
Beteiligung
年
chtete
sexuelle
tisches
Fäl@@
Beispiele
gnis
安@@
erledigen
Verhaltens@@
übersetzt
Funktionsweise
Energiever@@
basierte
Ehre
äusern
ordnet
cherten
dlichen
Strategien
vollständigen
Zahl@@
ütten
Ę@@
Bestimmung
erinnern
annten
elektronische
Gerade
Passag@@
ützen
Küsten@@
betreiben
Schlüssel@@
Fertig@@
Geheimnis
Aktionen
zahlungen
す
Kriterien
diskutiert
Jugendliche
äuse
kennen@@
bewegung
zten
plätzen
Untern@@
läufe
tatsächlich
verwand@@
grenz@@
Vater
digitalen
bewusst
staat@@
Č
inneren
kämpf@@
Ausübung
Erwartungen
erfor@@
natürliche
У
atischer
usw.
Touristen
Gegenstände
decken
beobachten
ausbildung
zeichnen
Kenntnis
verwiesen
Peri
vermittelt
länder@@
Standor@@
sätz@@
mache
wahrscheinlich
außer
Küste
Hoffnung
partei@@
vorherige
hervor@@
Regelung
Moldau
berichte
beein@@
Entwickl@@
zerstör@@
estens
tritt
Transparenz
wesentlichen
elektrische
verfolgt
Wärme@@
Forschungs-
öffentlich
Ж@@
zeigte
Konzern@@
Variante
sexuellen
ergänzt
anschließend
französische
verursacht
fien
Führungs@@
Griff
Fertigungs@@
Teilnehmern
Mittel
leichter
positionen
Dienstleistung
Vertrages
Geschäft
beschränkt
Anliegen
Ń
Botschaft
gefähr@@
Häfen
Umfang
Minder@@
Sämtliche
musst
sonstige
etero@@
⁄
büros
durfte
Erwachsene
fällig
Tätigkeit
Betroffenen
Beschluss
Meldung
landes
gewährt
beur@@
sachen
gelungen
Vertreter
Radik@@
Demokrati@@
laga
Demok@@
Vergangenheit
Dampf@@
Parlament@@
Köst@@
Υ@@
Oom@@
unanim@@
posi
laub
namen
öffent@@
gangs@@
angebo@@
Erwerb
Wohnungs@@
tware
ใ@@
Ausstellungs@@
ektion
バ@@
ラ@@
メ@@
酒
reichhaltiges
denten
miet@@
aufmerks@@
höchst@@
ahrt
Н
gäste
bemüht
Fenst@@
hinein
Meerblick
ktur
Abreise
Luxus@@
krä@@
：
入@@
正@@
Spitze
Überra@@
ɑ@@
马@@
Fahrrad@@
Internetanschluss
verfüg@@
Schiffe
Büros
Charakter@@
Forderungen
frische
hochwer@@
arbeitete
entwick@@
ategorie
dauert
langsam
bestätigung
chtern
Aufmerksamkeit
Schreib@@
österreich@@
Internetseite
sweise
合@@
betten
ücken
reine
◆
esion
übersch@@
blas
Beton@@
fähi@@
erhielten
Osteuropa
ვ@@
römischen
Reaktion
Weitergabe
gesprochen
freundlichen
gerichteten
Wär@@
angewiesen
Reinigung
hängen
gelegten
amerikanischen
Rechner
Gebühren
unser@@
raten
Umsatz
meldung
Aktion@@
größter
hört
runde
hinten
gehör@@
umfassenden
tigste
gängig
persönlicher
befes@@
drucken
Wün@@
beleu@@
mitgeteilt
aufgehoben
Anla@@
strahlung
fli
ע
ֿ@@
һ@@
ң@@
31.
Darin
Betre@@
denke
letztes
Fahrzeug
щ
keln
kostenlosen
akten
siven
schte
ältere
ekte
letzter
站
ansonsten
ұ@@
erneu@@
flotte
Dienstleist@@
geber@@
Weine
gefei@@
weltweiten
liefert
bestätigt
drücken
führende
ihr@@
versucht
bereitet
praktische
vollkommen
wiederum
Rohstoffe
güns@@
glauben
wechs@@
Ausgang
beabsich@@
treiben
hinzu@@
teilten
schlechte
ließ
kategorien
Kap
Adres@@
hauptsächlich
läu@@
Mitgli@@
Artikeln
radik@@
神@@
unabhängigen
reibungs@@
Entscheidungs@@
Ungar@@
hochwertige
ierende
individu
mmt
verbindet
Zweifel
nieren
jegliche
Wartungs@@
Hälfte
beteiligt
sichere
umgehend
datei
ganz@@
Unterhaltung
Pflicht
Schritte
Kompl@@
ernst
besonderes
ً
Werkzeug
Kons@@
Versorgungs@@
Singapur
darstellen
Aspekte
ס@@
immern
gleiche
Gegner
Optimierung
ausschuss
astri
ertevent@@
Einleitung
ת
brach
Flugzeug
Wä@@
ommen
Flughaf@@
schnitte
Bev
herunterladen
einzigartigen
Kroatien
Kredi@@
Schreiben
genie@@
Entscheidungen
nationalen
essal@@
Stütz@@
glaub@@
Orten
Blä@@
allgemeine
hoffen
anische
hingewiesen
Anwender
Berichterstattung
Beweg@@
Häuser
beschrieben
Akte@@
mobili
Ansprechpartner
Phänom@@
mord
ierend
Sicht@@
verpack@@
falschen
Auflage
hauptstadt
Wech@@
Positionen
eingetra@@
einwand@@
staats@@
Brosch@@
Worte
Umfrage
zept@@
Wahrnehmung
Trainings@@
Ferienwohnungen
ansä@@
ologen
auern
Kreativ@@
zeitgenöss@@
onnen
dienste
jähriger
Bestandteil
zungen
sobald
Beruf
verlust
gischen
aufre@@
eingeladen
liefer@@
Erwer@@
Langzeit@@
berufliche
digte
nutzt
Eingabe
Nutzungs@@
Größen@@
Artik@@
zahl
dischen
Nationen
künftig
Wettbewerbs@@
zerti@@
schutzes
Benutz@@
gosla@@
Mitteln
errichtet
pru
Î
strategien
ühen
Arbeitgeber
zerstört
wanderung
Zertifizierung
Objek@@
anspruchsvolle
regionalen
Netzwerke
blieben
Unger@@
Fluss
ingungen
Inspek@@
kontaktieren
lagern
Fähigkeiten
schrei
derzeitigen
Dauer
voraus
Spaziergang
juristischen
Zusch@@
vorgelegt
entschei@@
gigen
ऊ@@
weshalb
Überprüfung
posten
überwiegend
Milose@@
Ν
Käse
Regimes
gestell@@
Heiz@@
-Ster@@
Arbeitsgruppe
Schätz@@
Kriegs@@
Berlus@@
äck
Sorg@@
continu
verth@@
cri
Bezirk
Zerti@@
vieren
kö
erle@@
verschieden@@
chtigen
Ostsee
gelegene
gekauft
Auskunft
机@@
offiziell
fuhr@@
み@@
つ@@
anzen
angewand@@
mässig
sprechende
Debatte
29.
lenst@@
Wille
müssten
inbegriffen
früh
bungen
Sternen@@
schmer@@
verursachen
石@@
Kühlschrank
wunderschönen
ielt
differenzi@@
ジ@@
täts@@
sprüche
Unterricht
gesu@@
美@@
nennen
取@@
可@@
分@@
乐@@
ờ@@
Authenti@@
gehei@@
Wanderungen
soviel
einstellen
Dolmet@@
asten
katho@@
Musi
lieber
verfü@@
sä
Denken
Straß@@
enseite
ausgezeich@@
KUK@@
voraus@@
ommene
sogenannte
komplex
Absatz
niemals
Verbin@@
wertes
getr@@
diversen
großzügig
Fußgänger@@
東@@
手@@
武@@
も@@
würdig
gehenden
wohnt
kriti@@
lst
kenntnisse
ბ@@
ნ@@
ა
Ausflüge
leute
traditionell
็
ำ@@
verhäl@@
Ansätze
glück@@
zentren
globalen
Globalisierung
gste
zeitlich
unmöglich
reichlich
Schwerpunkt
gesper@@
zugänglich
hervorra@@
gendes
bereichen
gelöscht
Stoff@@
Schatten@@
Ägyp@@
gebildet
语
Partnern
zeitraum
Angebot@@
vorgesehenen
erhöht
dringend
abgesch@@
brachte
gnisse
tismus
Schlüssel
Busse
Tosk@@
frü@@
renomm@@
ensei@@
läufi@@
Badewanne
üns@@
entrums
Komplex
rehab@@
genöss@@
oppel@@
draußen
samen
marken
zauber@@
finanz@@
uß
Elektri@@
Bedürfnisse
Entschädigung
fenster
ะ
Stufe
Lett@@
ื
bezieht
isiert
orienti@@
Ankar@@
kommunik@@
gebrochen
luft@@
produkten
riebe
normalen
Länge
konsequent
ausgerichtet
Gewicht
erscheinen
amerikanische
Effizienz
spür@@
۰@@
Gegend
Etagen
herum@@
Nachbarn
Muss
Dritt@@
versammlung
estelle
preises
Pazi@@
Tat
Zwar
klassen
ُ@@
enfalls
ausgezeichnete
Brüder
erfüllen
späten
gezwungen
ʃ
schlechter
heben
lohnt
utzt
eindrucks@@
fällen
∞
gemis@@
anteil
dahin
deckt
stärker
täglichen
klen
produzieren
seid
eventuell
Reiseb@@
offene
Sci
kritische
besetzten
versamm@@
opfer
Aufruf
stün@@
liert
gestütz@@
Vorschläge
qualitativ
Möbel
amerikan@@
atisierung
ersetzt
gerte
Streit@@
Bestandteile
beinahe
gesetze
medizinischen
Privatsphäre
angemessenen
weitergegeben
internationales
ق
erhoben
vorge@@
beruf@@
Verordnung
erwar@@
UNO-@@
Paar
hase
willigen
orientierte
sichert
Formate
speichern
umfassende
vierung
krise
wuchs
konkreten
integrieren
strukturen
ergibt
Egal
umso
weiten
verkehrs
umfassendes
Berechnung
aufgebaut
iegen
aktivieren
Wärme
Kräfte
standes
Pfund
Übernahme
Begeisterung
soci
feststellen
Nichts
Abwei@@
Höchst@@
regeln
Gewinne
einverstanden
Lesen
geseh@@
biegen
bestand
Neuigkeiten
Konto
sinnvoll
Befra@@
beobachtet
kür@@
machung
springen
tilien
Strukturen
Fru
Öff@@
genehm@@
entliche
ernd
maximale
Gastfreundschaft
Mehrwertsteuer
ʼ@@
্
ĝ@@
Nachbar@@
generell
ssige
überzeugt
esst
eingestellt
nisses
timme
halbe
beschlossen
Toten
verantwor@@
Staats-
bringung
eignet
vermis@@
Maße
♦
einrichtungen
Koordination
kleinere
gewählte
bedienen
zugän@@
läufigen
Soldaten
unterschiedlich
Klassen
Ausbildungs@@
wahre
züglich
interessanten
maß@@
griechische
Strafe
Kindes
virtuellen
Strafre@@
benen
erzählen
stechnologie
teilt
binden
mögliche
gewicht
Feuer
Besonder@@
füllen
Unterlagen
Texten
diejenigen
Kuba
Alters@@
Vergü@@
prüf@@
ständige
forderung
Experten@@
verbundenen
veränder@@
Gehir@@
folgend
jeweilige
verweist
Rohstoff@@
junger
bietern
Messung
komponenten
Mexiko
wandern
Präsent@@
Französ@@
mischen
Plätze
Ökonomie
bestimmung
Werken
Wiederaufbau
personenbezo@@
Forscher
besitzen
froh
demokrati@@
Verhandlungen
Wissenschaftler
Ergän@@
unverbin@@
wäh@@
verletz@@
sicherer
Fassung
Kämpf@@
Е
Nicht-@@
gewähren
artigen
Vereinigte
veröffentlichten
sätzen
Spuren
hilfen
ausdrückliche
gelegentlich
Messen
alisiert
hinterlassen
chemische
manchen
sterrei@@
unkt
vorbehalten
männ@@
Berater
lebens@@
eignen
staatliche
verkauf@@
legten
kontrol@@
greif@@
koll
Ziffer
Krankheiten
tinu@@
vorgenommen
ansprüche
verzö@@
Interessen
Besuchern
gebnis
Gerichtshof
Jungen
graus@@
unterricht

bewegt
₂
Abhängigkeit
autorit@@
verbände
fri
Coton@@
Verfassung
Rücken
Rats@@
Sarko@@
alts@@
potenzi@@
fähig
Emission@@
untersu@@
teure
Staatsan@@
globale
Drogen@@
Wörter
weiterzu@@
ế@@
letztendlich
dacht
μ
Fernseher
Erleb@@
itä
spartei
berechtigten
ausgestatt@@
Schulden@@
Techniken
tats@@
Kopenhagen
länger@@
Getränke
gewöhnliche
Angestellten
fahrten
当@@
線
コ@@
寿@@
あ@@
hoffe
Benutzer@@
Prinzip
selts@@
ª@@
Gebur@@
gehol@@
edern
Mitgliedschaft
priv
Telekommunikations@@
Flotte
Fremden@@
Problemen
fizieren
城
säm@@
見@@
は@@
る@@
treibung
Schuld
verlei@@
arote
Wohnzimmer
angenehmen
sprachen
里@@
易@@
心
schlägt
知@@
的
场@@
Arten@@
Bewohner
asmus
verspricht
läßt
bestä@@
denkt
versteht
deln
zuverlässi@@
人
größe
Speise@@
einzeln
Buchungs@@
isoli@@
enzimmer
gesichert
anischer
Haltestelle
華@@
Formu@@
gesto@@
Terrassen
automaten
Dialog@@
gessen
zügi@@
Benutzung
bevor@@
mbol
heutzutage
Werde
wohnen
bereiten
kommun@@
Jerus@@
民@@
exzell@@
Punkte
hinweg
stationen
geschaffen
behei@@
Jahrzehnten
Speisen
bemerk@@
Zwis@@
შ@@
großem
angrenz@@
ป@@
ถ@@
Öffent@@
Villen
Reprä@@
erstaun@@
schied
Laufe
Vorstellungen
äumen
teilungen
dokumentiert
Schwe@@
oberen
tigungen
gemeinsame
Datei@@
ähnliches
Hotelzimmer
Mobilfunk@@
attraktiven
Geschen@@
geld@@
häre
Kreativität
geblieben
ängt
frieden
Fahrzeugen
geringe
betreffende
ezu
Amerikan@@
inv
Belgien
ָ@@
ַ@@
öffnet
turen
ү@@
umfangreiche
zuzu@@
eigener
匿@@
名
problemen
schmu@@
vorgesehen
träglich
ließ@@
haupt@@
erstat@@
eingerichteten
prochen
rachten
stimmen
mord@@
国
gefühl
wahren
gelass@@
Formel
namens
vielmehr
menten
Regulierungs@@
ehrlich
پ@@
beeinträchtigt
weiße
Ebenfalls
inmitten
chtlin@@
blick@@
berech@@
inken
begrüßt
Wechsel
்
diert
Gründe
jedenfalls
vertreter
aufgabe
organisiert
ɾ@@
zweites
diesmal
restlichen
Liebhaber
ausger@@
sonstigen
重@@
uliert
ั
runden
registrieren
timm@@
kunfts@@
solange
dring@@
herrsch@@
befindlichen
Vertretern
onischen
Unterkünfte
leuten
umwelt@@
Bäume
gestartet
lichkeits@@
Gewal@@
Σ@@
überprüft
austau@@
vorliegenden
Versuche
zugrunde
entieren
entf@@
weitergeleitet
zukommen
geprüft
kopieren
weichen
gesetzlich
benach@@
bearbeiten
ausgeführt
한@@
어
西@@
korea
drücke
sammeln
Latein@@
fisch@@
Anleitung
angaben
bezogen
ausländischen
tausende
begannen
konver@@
umzu@@
einfach@@
Königreich
recogn@@
gefällt
rüst@@
gespräche
betrachten
Θ@@
beziehung
Organisations@@
beschäftigen
beliebigen
angeben
schlüsse
entwickelten
Erstellung
dynamische
arbeiteten
implementi@@
bucht
eili
Körpers
Begründung
chemischen
ˆ
Ñ
wesentliche
ziele
britischen
sere
geb
Steuerung
ätten
heruntergeladen
Orienti@@
Schwimm@@
auftritt
bezahl@@
begeistern
beauftrag@@
Agenturen
Inhaber
vielfältigen
Übersetz@@
Fahrrad
李@@
stolz
Dauer@@
bedanken
werben
は
Kontakte
tauschen
mobilen
Anwendungs@@
Weiter

gelegenen
Jugendlichen
kämpfen
Gefahren
herunter
zieht
bestän@@
verletzt
prüfung
Fehl@@
wahr
verstanden
digungen
Schwanger@@
vorkommen
Zeichen@@
ד
Mobilität
begleiten
investieren
gezielt
ungel@@
ת@@
gemessen
roten
Umweltschutz
Landwirtschaft
ereien
halben
besseren
zuständige
geboten
Trotzdem
fehl@@
Norwegen
angemessen
fehler
Tages
terne
Urlaubs@@
merk
erhöhen
Χ@@
armen
Besucher@@
Pflanzen@@
Katastrophe
hänge
っ
Konzentr@@
schlaf@@
bester
ästhe@@
gerichtet
wenigstens
danken
Bildschir@@
richtungen
gebil@@
koennen
alige
Gibt
reiz@@
Mischung
Europäer
γ
chtungs@@
iertes
Lief@@
Nachricht
einsch@@
Einbindung
forder@@
glichkeiten
Auswertung
Erkenntnisse
ungsphase
klassischen
Zerstörung
voran
riffen
Lehre
Gewis@@
industriellen
Datenbanken
Entwick@@
Telefonnummer
Figur
Künst@@
Effekte
trinken
vorherigen
Spekul@@
Einer
Monats
durchzuführen
vertiefen
tivität
blauen
harte
Forderung
Kooper@@
Weiteren
Mehrheit
jahres
Erfolgs@@
Cav
gaben@@
Meldungen
beding@@
Können
entsprechender
zustellen
Verpflichtung
Storni@@
behandeln
Informations-
vielfach
letztlich
Verbesser@@
gebunden
nern
dität
Kompetenzen
zipl@@
endem
gehörigen
sekre@@
rechtliche
直@@
Arbeitnehmer
ventionen
überschrei@@
Aufklärung
gesprä@@
Verstärkung
schreibt
gerichtete
Frühjahr
Effek@@
Agri
Verlei@@
Programms
Öl
überprüfen
gültigen
Richtlinien
kreative
Säm@@
Erklärung
Hochschulen
veröffentlichen
gebenen
übertragung
schnell@@
nicht@@
bestimmen
integrierten
Übertrag@@
shand@@
brary
erheblich
handel@@
verschlüssel@@
Г
Nachricht@@
Tastat@@
Gebiete
gebnisse
Tschech@@
ausrüstung
Wettbewer@@
Installations@@
inische
installieren
türkischen
koordin@@
Bezeichnung
bestehenden
belieb@@
sätzlich
versteck@@
geheim@@
aktuell@@
Protok@@
Unterri@@
Unterschied
ausführ@@
Etw@@
zurückzuführen
verschul@@
immobili
Versorgung
exhi
Mio.
Gerichte
derartige
Objekt
bisherige
◎
reichung
ausgerüstet
außergewöhn@@
ѕ
kü
ungsanlagen
schmerz@@
einzigartige
Wurzeln
eigenem
äter
egelung
Normen
äußerung
ढ@@
korrekt
wäl@@
Wachstum
ümer
Hinder@@
Herzeg@@
rangi@@
Macht@@
Accord@@
tac
Verträge
endum
Ruij@@
integri@@
unterst@@
tschaft
exakt
Bru
entfernen
heitliche
Nichtrau@@
Gesund@@
bespre@@
leich@@
zeitig
werks@@
betreibt
soeben
manufac
assung
Anmel@@
geklärt
Rabatt
県
き@@
駅
シ@@
免@@
チ@@
切@@
風@@
湯
電@@
Aufzug
Franzo@@
heimischen
angebracht
-Sterne
ў@@
Rasse
erschein@@
Hunde
niert
tät@@
明@@
こ@@
よ@@
sön@@
historisch
denzen
Erinner@@
sogenannten
Bettwäsche
Blumen
wäsche
keinem
元
元@@
州@@
交@@
以@@
了@@
体@@
原@@
大
小@@
上
年@@
steigerung
anschluss
Dutz@@
โ@@
京@@
中
unterbrochen
konzep@@
kommuni@@
♣
chteten
Lob
gewöhn@@
ellem
Servern
茶
droh@@
dateien
erweiterten
findung
linien
Pflanzen
gerechten
Allgemein@@
führungen
Berichte
₤
Meeres
Beleu@@
geschlossen@@
Rückkehr
familien@@
hielt
ktions@@
likationen
Menschheit
Entdeck@@
ausreichen@@
schafter
Wirklichkeit
Wagen
Olympischen
tinu
ŭ
ხ@@
უ@@
ტ@@
ausgestattete
ständ@@
ữ@@
จ@@
ว
ด
ก
ส
gl.
neighbo@@
äler
enken
bewus@@
Beob@@
discher
Subjek@@
zün@@
ア@@
Maßstab
gefahren
glicher
Koordin@@
Musli@@
bereitung
Eigentümer
äufe
Justiz@@
gangen@@
香@@
beeindruckt
Preis-@@
Besich@@
Funktions@@
entwickel@@
vergeben
Ausserdem
befin@@
kunft@@
spiri
赌@@
娱@@
passenden
einm@@
Zuge
zahlt
gültige
aktionen
eröffnen
Ausnahmen
verfügen
versehen
baus
erkenn@@
vertraulich
Verkehrsmittel
Herunterladen
reicher
Stimmen
untergebracht
herrscht
Ausgaben
Beide
Moh
į
aussehen
์
Schluss
einzigartig
gewinn@@
angeblich
sehe
店
gewünscht
leichte
◊
ahlen
Übermittlung
Mitteilung
በ@@
ዓ@@
十@@
aket
Empfehlung
Ausflug@@
umfassen
fikationen
Komplett@@
effizient
Karten@@
۲@@
punkten
vorn
қ@@
kunft
orgt
mieten
setzungs@@
drehen
geschütz@@
pläne
mengen
konzept
ückt
oberhalb
ּ@@
Ansprüchen
bekann@@
Λ@@
Ungarn
Gesi@@
erlebt
erem
山
deswegen
digungs@@
ansehen
aktivitäten
Flä@@
vorzu@@
Wirtschaftskrise
ื@@
Genau
ernden
▪
Fälle
Milch
Ansonsten
agement@@
beurteilen
Kosme@@
ßes
klingt
offizi@@
ruppen
ouren
Gipfel@@
euren
dürfte

alisierungs@@
Energien
wünsch@@
Gesprä@@
gesetzte
offensichtlich
Zuverlässigkeit
Bereitstellung
Anpassung
Prozesses
prozesses
fikations@@
fiziert
aush@@
auswahl
vergnü@@
solches
späteren
längere
dieselben
Kopie
derselben
schützt
riebenen
Verschlüssel@@
ologien
whi
Finanzkrise
E-Ma@@
Energies@@
worfen
bekam
Verletzungen
kritischen
Auseinandersetzung
Gericht
inischen
zufolge
Schauspieler
ḥ@@
regu
empfin@@
Verfü@@
Freiwilli@@
ehemalige
esenen
Nehmen
Konver@@
musi
《
》
ֹ@@
schwarze
Konfiguration
τ
五@@
teilte
vornehmen
übersetzen
Ansatz
tierenden
Implementierung
་
マ@@
schlu
zugelassen
雄@@
wus@@
reagieren
Ereignissen
Prozessen
einzelner
Programmier@@
definiert
dynamischen
genutz@@
ф
Suchen

Luftfahrt@@
derartigen
menschlichen
spezifischen
Flüssi@@
Gläubi@@
ْ@@
kürz@@
物
る
Aufre@@
stammen
Kriege
Zufall
Männern
dreh@@
sterben
Übersetzungen
Universitäten
strikt
tigkeiten
Übertragung
ownlo@@
字
entfern@@
interessi
verw@@
Investitions@@
knü@@
grundlage
atisch
Landwirtschafts@@
Konzep@@
Tode
گ@@
Pati
zulassen
Bildschirm
ehmen@@
behandlung
Verteidigung
Voraussetzung
Fakten
Buchstaben
Handlungs@@
Programmen
beliebig
taten
räsident
veröffentlichte
Kirchen
eingeben
Vorfeld
dargestellt
betroffen
Ausflug
mehrmals
Einstieg
erfordert
alisierte
verlag@@
Versu@@
chinesischen
zeichn@@
notwendige
meistens
Angesichts
Aufpreis
volles
betrag
ɨ
Trock@@
zuverlässig
obenen
optimalen
Entfernung
zucht
来@@
galt
Mangel
überaus
dichte
irgendwo
Züge
Größen
deckung
spät@@
tnis
emperat@@
immerhin
kurz@@
schwä@@
kurzem
esischen
verwen@@
größere
konsul@@
Wellen
besonderer
Zäh@@
entiert
westlichen
falsch
erfolgte
früheren
flicht
Vermitt@@
Kommen
Großen
menü
dauerhaft
Neuer@@
Repräsent@@
stoß
streng@@
Beweis
Aufgaben@@
Vereinbarung
konzentrieren
Wirksamkeit
KMU
gesellschaftliche
Konflikt@@
gleichnam@@
Beschäftigung
Gerechtigkeit
unterscheiden
Schönheit
Verlust
stetig
Direktor
haush@@
stellten
Vinci@@
fertig@@
unterliegen
gesellschaftlichen
Antrag
erhebliche
droht
nachfolgenden
Verschlechterung
fehlende
Eigentums@@
vorbeh@@
belast@@
wirksam
beizu@@
erlaub@@
erkrank@@
verwöhnen
Anzeige
archie
registriert
wachsenden
gegebenenfalls
wächst
Abstand
erschi@@
Aufstellung
pfung
Gegenstand
atemberau@@
Gesundheitswesen
erfolgreicher
fünf@@
Vorsitzender
sträger
Ressourcen
Referenz@@
Verpackungs@@
verträ@@
Rassismus
eingetragen
gangenen
Sobald
Möchten
aturen
fizierten
fertigt
Übernachtungen
schafft
alisierten
ausdrück@@
verzichten
Entschei@@
weiteres
litten
wirksame
erzeugt
Angeb@@
abhängi@@
rufe
Staates
verwendete
dlichkeit
kleineren
Lieferungen
Irland
harten
Л
steuerung
Erkenn@@
schwierigen
fragte
kapital
Interessen@@
fläch@@
erklär@@
behauptet
Standorte
Ausschuss
Auß@@
bisherigen
Venti
Verkaufs@@
idealen
Ergänzung
verbinden
gewährleisten
Skla@@
Mund
gearbeitet
typische
Lettland
gefangen
Ausstellungen
gemeinnüt@@
prüfen
Plattformen
Gewin@@
Störungen
ilom@@
zellen
durchschnittliche
rischen
rechtsk@@
erforderliche
vorherseh@@
bedürfen
Umstände
betont
wesent@@
gesund@@
beteiligen
Verbesserungen
Slowak@@
arischen
gehörte
kompletten
billigen
nummern
Satelliten@@
Campingplatz
gehe
Associ
behörden
Halbinsel
grenzen
ќ
Rindfleisch
unterrichtet
telefonisch
räsidenten
Ѓ
traditionellen
steil@@
Lieferanten
fertigung
spielte
afrikanischen
ingung
克
‍
ः
घ
Hilfen
verbrau@@
Lü
falt
Ù@@
geschäfte
kanen
tru
subsidiar@@
Gottes
verbot
Τ
&@@
ǐ@@
ρ
Völker
fahrung
moral@@
europäisches
Europäisches
erbe
ả@@
akzeptabel
unmittelbare
direkter
davor
jahren
Flughafen@@
Turni@@
sorgfäl@@
türkische
ġ@@
Kühl@@
bereitschaft
schie@@
oftmals
本
青@@
高@@
キ@@
ャ@@
ナ@@
酒@@
カ@@
公@@
都@@
funktionieren
lernt
beherr@@
eichen
bewahren
unterhalb
latz
Hügel
Süß@@
gegenüber@@
schließt
indu
relevanten
deutlichen
gerechtfertigt
Häusern
ativer
利@@
た
さ@@
polnischen
tschechischen
kontinent@@
Educ
bedeutenden
Später
igungs@@
vorbereitet
家@@
信@@
多@@
和
前@@
回@@
方@@
过@@
套@@
解@@
下
音@@
式@@
深@@
Wohnungen
unzählige
Ressource
ữ
einiges
Spanisch
ehlt
einlad@@
definitiv
endere
erstreckt
touren
Betriebssystem
dank@@
臺@@
menge
dorthin
ähnliche
aufweisen
ärten
nahm@@
ernen
schweren
空@@
entspannen
gebenden
ziehungs@@
haltest@@
erhöh@@
Nichtraucherzimmer
ruhigen
Gründung
Lizenz
Ĉ@@
თ@@
Geschäfte
ädern
Tru
浦@@
ร
Zimmerservice
schungen
bewusstsein
haltet
ɨ@@
aufenthalt
Lagerung
Dampfbad
verwöh@@
enswerte
mili
neun@@
Erfin@@
frischen
einmalige
steigern
erieren
Haushalt
erinnert
Leuten
weilen
bestanden
Fuertevent@@
Ansprech@@
losigkeit
demnächst
fallenden
bieter
mitteilen
gekennzeichnet
Konzern
umfangreiches
ְ@@
ҡ@@
า
zeln
italienische
wirst
Wertpap@@
로
オ@@
jenige
sitzt
jeglicher
zusätzlichen
gängen
木@@
ル
auftreten
komplexen
erkunden
spezielles
gemütlichen
gebrau@@
ረ@@
የ@@
gsten
华@@
四@@
glän@@
nachzu@@
fertigen
besticht
verwandeln
Gestern
finanziell
Steigerung
deutlicher
۱@@
zuständig
mediterranen
ө@@
hinzufügen
wolle
Eleganz
stattfindenden
э
Aussage
inclu
gerechte
funktions@@
unüber@@
gewöhnlich
Panoramab@@
Rezep@@
rieb
entsprech@@
ständiger
schon@@
deutliche
tnissen
Ά@@
klare
tiefer
übrigens
eß
griffen
Vanc@@
gieb@@

angesprochen
Beachtung
ภ@@
herrliche
Geschm@@
schrank
ließen
ausgestellt
Italiens
gehörige
spräsi@@
fizierungs@@
kümmern
清@@
Fläche
Solidarität
ämpft
vorschläge
Standpunkt
gebühr@@
begrüßen
Befreiung
beendet
abschluss
komplex@@
bewahrt
terten
28.
bevorzugen
voraussichtlich
gestei@@
ausgewählt
geschützten
genehmigt
Genehm@@
Medik@@
reduzieren
Seitdem
Investition
erlauben
gewisse
Innovationen
herkömmlichen
sicheren
örtlichen
Gesetze
국@@
Opf@@
木
Unabhängi@@
issu
jenen
Wahlen
Meinungs@@
überwinden
erwartete
gelei@@
beschäf@@
Erschein@@
ز
beträ@@
Reden
ysi
Zielen
echtes
falsche
Straßen
bestimmter
Sehen
ordnen
untersuchen
Zwangs@@
口@@
長@@
八@@
ひ@@
übrig
nötig
ließt
sheit
äqu@@
einfaches
Fragestell@@
haltenen
beeinflussen
entscheidend
expliz@@
Leistungsfähigkeit
事@@
Sachver@@
verständnis
Wohl
Wählen
Dienstes
Erweiterungen
setzbar
definieren
Modells
zukünftige
beeinflusst
Wesen
כ@@
Haupts@@
grenze
Bemerkungen
Ā@@
Quadrat@@
indischen
ämpf@@
Wachstums@@
stufen
Charak@@
テ@@
einladen
す@@
beruhi@@
Verbot
Räumen
[...]
